f1033c20f81ccee43cdd11fd2a1b32c8c8fad5dac2001507eae62205c107dd26
f8c02edf12fd2d35ebd5dffa3122c70efe3fc2d7162d32eb0438f429deef3ff2
01c0d9f93806f530d0dc07fd1dd6143027210ef3f339cc28ce1f0517c40f361f
e529c6240dc61c30f6171dc23f0bedc1f2003fe600340d3dfff305cb362232f3
29f9f81bc0efd2c13ac330c1dccc2830040b02fac9312c103f2b2bf7082b0e30
ee02f63dfd132dd2e22419c028c4dc201816d61f07151f24c836c316cdedf6f5
d7fa3836fd3715dfcdca26053c13d6df32e12a193d0c06ebc72b14f4e5d714c1
0ddad1e5fa2c223efd3ef1d0fc15103a1ee1ecf70239c00ad4f20df6ecd1d303
11c1ed3ec9e8c7ca26d91b15e2efc0053b01de21e11e0b333825df041ee7c9d7
f2e0090fefffed05c2d910fa12dee43be6d52c08151622200c2018cfd7ddfa2f
f6cd2519c4ffd9d2f821f7e3ed341bfa1332ca3bd70402d31bfd27c2ca30fd1c
3006e128ece307f3d8dfc606e5eacb1f1902ecd3f93be0d20ffb353ec3d8c702
ec3ac7cae3f4d2c01634eb272f0dc911c4cb1ae623c1d63f250707e7f0210be0
f2de2de920d90f1dcadc15de2cf8f8d6f5c5f7f1ddccd918fcf7dff81710df1b
c402ff33cee1e3383b2f222f11f53919ec0918cfe834f63bfac201c602c83622
ce2c110425ef2ecb37e5f83dd715d5ef3fca3bc0fd2ac8c10205f330c7d7eefb
f30ae6d219250c220724dc28160ae8c8f00fdb36e2d22f3a213434df26c10ce4
230426e007e52c3727cd18f523d8d8d71bf8d1d325e9c4c218fe080ff918fbef
eb02102726c7e5e509ccd5e3e9203f072fc50630d5caf20a19163233e41cefd7
3902c8d8e91b002230ecd518d93ac93d1f0d2c2fc21afc22d4e7203ddbfe2f13
320b2ce2f1e0cbf53c11ee01cc3911110eec132de9eaf73f08efcbd1c10bf71c
3e2f11cdfcfc1be0c4e0d603f61120e0edc92f23f929f6e83ed403fce6262e0f
f8cfc4021926f4c6fec135c7e60e173f1d102537ffdacfd3ed0713ef130d25d4
e226f1151ee2df32c201e3fad73bd10bca232aefd13cece00e1dd23fe81911d0
3cdbe2f224e2cd2c3ad8f82539d7f8e5d7c106ddfe36da2d00de04d503240d36
e5e53e20c0ec13dd19defdd40b3800212ff438dae1d20dda2736d7c7241de9f5
3f0be3eff832dffcfa2d2b3bf13b31041dfad5203ed5e3ffebfedb2ed3ef39db
3eda1cebed17e0d0cbe9dd3fe5fdecf004ff34ffc6f9d2e2d22e1ec30720f2d2
ff2a3f3b1e02f82222eceac52af4cd3407d104ed34f4e91c380e08dd3001241b
d2c1021e3736f0f4cdc2c1ed2ddd393014eccd1c2de609d7333cc4e4c3343628
f01fcbdf22d503140e02e83c0b21c0fed30924331a1e13203a37c2fb36ef0c22
25ca3f29cecac7d81f2828d1eb23203f3cfb0d0211e10c3f04fa04e01924d716
