f8eb0cf4f9e10e1ce7f9f4e71b03140a0e15f5ee1302e3fceb0a1d13ff01fc06
f50d0d14fd1d18f715f1f5eaeefef1eaf9f714f6070fe1f21202f8190710f606
18f409f718ece3e1ee101d14e5e5e6f5060000e215e41ef704f20b07f9020c03
fef3e4000e13f9f41ee1f31b0eecf41fe013e9e116fbfb0510e41dfdf5fa150b
e6f701faeaed1e10e5070bf80ef3120be1eff81ce6f610f5fcf5ed19ed02f1eb
1bf607eefde903ef19e8ea1beae91dfbeb12e71f0315fe0906fde91efc02041a
1b15e413e304fe160109e70b13fdf212feeeeb1de9e1ea0ef7111b1d14e1e01d
13f30be80b0718f40e0802e6fbe8ef12fc05ed04eb040ce2171de518f7081b1f
020a0719ee130011f01308ed1713091b111402f8120a09e3e305f5f1f0071806
0e0afb1b100df50e1d13f8fb0f0905f31bfbfbe1f9e1ea14e4f6fdf9ed1b0be8
04fcecf008e918ed0c010002e8ed0f0ef5ece3e71ee3091cfc081d0bff1d05e6
151b0a15e5030de50cf7e31defecece1e1fffde309fbef070e07e611e21f0703
1303f60be60ffaf9f7ff19f11816121ee8e405fc0ff2ff15f1f4efe3eb151409
f3f80dee0b1f130f1a0e1ffef9ef19ed0d19e30305f3071d0508f0e910e3e001
f813fef4f3e8f90716effe1debf4e318e5f5041b120b0ef6f2e8fdedf60711e7
17fa18f8fbf40ff9f615f3f7f4080414ea09e30ee51701f11ff0fe0c03e0faef
0aee0f0cedfce8eeebf8f4fc04f3fc08e607010cea0e011bfb06f81be70bf21b
eb02eae712ffe70b05f614e0e511f5f70c04eae81c04ffe6e4e01ff8f3f5e0e0
eae811021a00160216fae1e71414faf01207f512f0e2f4eae3fa1c1ee10905f7
0a1aecfbfd09f808060c1b19fbe408060d02ed09f214f7e4fb00111ae5111900
fe0d1116f0e5fc0ff80cec00f4151b0113ef13ebfff017e7f9fc00e8fc14f8e6
e6f40af503161707f7ffea0b1ae718020a190304f31f16f70b190e1deffce9f6
f9f20ae216f715ed18e2ff0efefd1a0402e71e021803f3e0ef0d06020300fffa
eaf9fbfa1e090306e1ed11ede5fefa1e1c09e116ef0ffcf918e3e4e4e2e2efe0
1303fe12fbfee5ec1018fb1be6e1fe09fc03f7f90d13f4ee150ee0eee5f1f1e8
12edf7e3e21110fff012f31cf01902131911fc10020bea0605f0e3ffe8eb1e1e
131bf2fce10bec0aea13e6ee09eefa0cfa1bf8061ff1fdf6030b190408f6e6fd
0106f7fb09e5ecf511fd0c12ea0d061af9ef1fe6f31414ff11fefaec1af2e403
14ff13fbfff8eae5fbe10b1402061f18eb0e061dee001a0cfff50a090ee00ae1
f3e8e61feaf2f5ea02fe071d041e1ffd0a0005f30fe3ee0b170b160bed1d14fb
e50a15e0fc0cfc000805081df1080c06fb16f5f805061dfbffe10716ee140519
eee605e2fcf8f608fae113ecf1090a13e002fa180df60f1d05efe5fa1af91518
11e31c0018fcee041cfdf11d0afb12e8e81af5fae2e0f5e70a0602e5e1e7fd06
18e00efff21d0d150bf5ff1a1102e7ee1e1fe2f7f60d120be4181409fe0f1f12
e1e0f91918e61510f0fce71dfdf6f4100701ee131319ec08eeffe5f7e4ef16ff
0509e604ede6fc1016f7fde21feb0de112e01f06e014ed1d1f13e5eb16021213
091918fbe00ff2e11ae310e1fcec0810e4ebe21ae9110cf01f0b0b17e80bee10
0ee2161d1df30df20204f9e008e4fc00f8f6f6ffe7f5ff04e816e3f6ed0d1615
f71a18161d17f5ffedea06e51cf3f6ff12010af91dece60be70bf41405f7f4e1
edfaf1051a0c021e1d1e11f01cf5f01afe010c17e219e0eaf412ed160cf1f3e3
f1e10d1ee908e7ea06f9fbf5020fe0e51be1fe0101feeb131805ffe4fe07e9f7
1200e9ef0f1f0de5e2f9f01af2fe041b06f50ce8f5f60200ec00f8eff7fd1a0f
16ed05f9e41ff9f2180117030d14fb1af312ea1bf7e4e2f3fb1d07e2ea101dfc
10e601080c03e713f8ffe6e6050aebfff9e20cf3191b00f2ef1b151ee3f8e7e2
0c1ae7ea0314f2e0f6140b070fede9f1e4ebfa0603e1f61f05e7e7071001eb00
12fe0d0900f9effdeafcf5fe0c1818f615e51711fdecf9f81c17ff18f7f0fffb
e4e21f13ee0103181b0f020ff11519f90ce9f8ef0814161b1ae2e1e6e2e81602
ee0cf1e4050f0eeb1705181df7f5f50f1fea1be01d0ae8e1e2e51310e7f70e1b
13ea06f2f905ec02e704fc08f6ea08e810effb1602f20f1a011414ff06e1ec04
03e40600e7050c1707edf81503f8f8f7fb18f1f30509e4e2f81ee8ef19f81b0f
0be2f00706e70505e9ecf50309001fe70fe5e610f5ea12eaf9f6121304fc0ff7
19e2e8f809fbe002100cf5f8f91ae91dffed0c0fe2fa1c02f407001dfb1e0ff3
12eb0c021100eb151cf10ee1ec19f1f1ee0cf30d090a171fe80febf1e1eb17fc
1e0ff1ed1c1cfb00e400f6e316f100000de90f03190916081ef4e31c06060eef
18efe4e2f90614e61ee115e706eef71ffdf005171ffaeff30de7f30ff3ed05f4
020611f5fe02ff12e2e1031af71bf1ebea030a0ff11c0c00eefdf21f08f9f1f0
1cfb02120402ed0c1af8180519f71805f7e1e6fd1e16fa0de0fee4f5e304ed16
05051e00e00cf3fdf9fe1df4eb18e0010f1418fa01f2edfa0716f7e704fd0915
1feb030f1812ff1c1a0d0b1b111b11e4fd1af5001ef5031f0b1efb0ef30f19fb
1efafc0b0df700f0eb09fd1f051d0c10e41f141fe619f202f20efee3e70012f2
1f0a1f1bfee21802020c0ae50a14ed14e7f1e40d141409fc18eee8fd10e104fb
f2e1e2fe17161014ede2e10d0dfd1910f40cedfc0d06e9f7131ce404e3141608
10ffebff02f5e3f4eee2081ceb01e01ef3e90413fafef3001a17e21b160fec02
05ea1f09eeeae7f8ff0808f10b03001f1c1bede2f101ec1fe41ae400f904f7f6
151b1211f800eff7f2e6ea0df10fe7070ef5f5e2120fe219f8fefa150f07f6fe
ebf80909e411e0fae1f0fe1e03fcebe1fbf0e6f61d140bf50bf0ef0efd11fdff
151b101513f51f0a0219fde8120fff00f9e20c071d03e3f0f2f20ff900fbe5e1
e1f6e711ef03f7020b16e2f9ef12ea16eb08f609eb08f5fcede5fc06fce7fc0f
001d1003e003ff18e1f3ebe6e207f519f403fb1b09ea02ecfcec09f7fd1813f8
ec1f0aedeb19f1ef05f3ff0d1314f91ff2090fe70604e9e0111b10f3ecfdf20c
101ff7fff8ef13e1f4101d01000614fbe7f104eef6e6f9f60219f71203f703eb
1bf90c1dea0ae21e0710ee1917110ef8f4e1f012e913e3f50ce9071ef4ea0af6
e911f209e9ef0613e0f01910e7eefdf5fce31a19f7e0f919f6e4f8f5e9fae41c
f30f19e7e5111b00f3ff0a0400e7e91be91e1b0afc151415ed02efeef2f513e5
f7eef3e5f5f9f4e315eff406ff15e0e417fa1e0b17e0eb0be5e3f61be5feec14
030bfb07030efb1613f31b02ea07f00e09ee1dfde8e6fb1311e203ffed1be30c
eae306f2f20de6fd160f1409e40ce21b1813f11119f111ec011bfaef1901ff13
e01805f9f4f517161e19f41910000efb0e1b17f2e5f5e31e06f90017ebf1f2f0
10e1e7eb120bfde80d06e41ef6e2ebf6f414f71d161000140f101df9e61d0204
1d0214ffe0ef0b01111d1e0e08ece2e00aeb12190cfde419ee05e6e008110314
030513e0e7091f140fe2fc0c09e211070ef0eef8160fe20ff8e8f415ecfafe1d
1a03fbfcfcf91bf50fe8e2e4ed0a051e0818121f1c06ef06e4e6141c1412edef
fee3fcf5e2e2130408fded12fb01e6eff007f0f91f0becebec17ffe20b0a0816
ef18e8fdea0d1310f8fa0c0eebe6f4e4f7e004fbfd160fedf7e50dfce30fea18
e30bf9f9f9eb08f9e4040bef190314eb0c0211e414020b131ae1131dfa1f160d
06f7f1040ff006fd1614fc1d0cf61500f807060319151206eef1f9f41dfae90f
e2e90c13ebf9eb01021d1c0302f51fe4121b1615fd08fae9ecedf61906e408f6
eaf40317fbe20be0e0e406ffe0ede9190e150ef20018fa19e30a1fe9ff06fcfe
111a19e10415f616110201eff2f0ebf7fd080cef0916f2e30ff81f0c080005e4
0dfa07ebf3f2e6f7edebe3f310120dfa020bf8fff515031ffee01ffbe6e91110
f2f50d0aeb0dea12ef0bf31c15f0ef0000050600040ee91bf2e80e0203fffa11
1409e40a07e5efe906e7140716f0f500f2e71ee002f7ffe2001df5eb11e3f604
e9191c1ce40a0fe100f4ed0df9ecf6fe160ff0ebf1e109ece602f1fc12fffe0b
0209fafcf10803e707fd10f9f2190bf0f6080af60ef9e802fee50211f80d0912
1e1cefe6e8070208e21c0012f0e1e101f7130b1de51506f90e1e1be9f8e91ff9
eae8fd170002e1fc0fe80cea01e2050cf90cf61112fdfd141101e319fee0ece3
0c08f7040d0c0de9ece70203e8130a181713fb1ced100df40a1ee2f81c0dfd03
0010e6030901ef0f1bede4021df11e10f30fea02eeec181ff1eaebf7e008e9e8
eff61eff0ee6fc1dfd1bfaf6f71e06f7f4fee8ffe6e21f06e0e1f310ff1cf3f1
1c1deb02e10918f81d0a09f6e019f6ec0eeaee160df2ed101df40febfbe01004
031ee2f8f3f2170f1ffe02f3e1f8181de8e90f1007ed15f00012f7fdfa06f308
1502191ce2e6e1ebed11160303021810f9f8fcf205e1e21aec11f1ecf10ee5f5
0de0eafe1317e2ed141007fbf11ee9e6fafbf1e8f7fef0ebf8fefff207e7fc08
f7190ce412edf314f5f200ef01e0f50e1e160d19f2ecf3f21be61e1313fa1d1f
1219ee14e0fbfd031615f5f40c0a0b1aed1f1b13f403fcf8fa19f1ebebeffc02
1908f4191ef2f4090ef1fe14f7f9e80cfdece406ea040a18e8e3e4efea040cf6
ebe102fc03e0f4f61c0efc0211e804e4eeedf219ec0d0cfe1e15f9edee1c0b06
f6e3e319e212fce910021ce804fbfaeb1719f20efd18faf11411ffeaf9f5f00a
181ae407131216ec0df4f40df5e8e6e6f6060c05f9030c1cfd0bfbf0fee3e90b
e309f8fcf4f3e6e405e704e114ecea1904f3fbfaf2050b1105ea15e8f200f809
01ffe5f5fe0207e0fc16050cfff0150ff4f00ee71cf409f21b14f505f5170c04
f9070703e0fd04e3f7e6e50c1c0af0f808fefde6121e011e1cf706f0f0f30113
14e00806ee13f41500e3eb0be613f91c1beee7f2f500edfe15ebfc1b00f2ece5
e011f00c1efc0de20f181c1dfc171006f4eb0ef208e6f7f91f0c02e90cf9f0fa
e40601e7fe0af9fb1d1016f3ee090419f2ecee1d171a04fb071bf211e208f2ec
1ced19fbf5f707ec0ef8f9e21e1cece01ee4070606120508f202031efef6131c
e7e3e300fefce317f518fdf8e9040d101aebe51bff17e41e0615e11816f0101d
eef6f80c18e91aff1af7120ce3fcee0bedf7e81916f5e0e50f131414191df305
0beb0a1b1e1210ea0c150cf4e7f70b15ebfcf0ef040114f4f2fbf30eebece71c
0aedf80ee5091df1f3ef0d18180416f312e616f2ede90402e0e31603f204f404
12090e15000705141e0eeee014fcedfeeb0314ee12fcf6ed17e0ed100100e408
150de5e9e70d14eb0aeefbeaeb02ff181c1201f60612eaef02fbede2f5f5ff15
f50df114fee1e2fbfbf4fdf714050beb041f01050308f3e7eef00bef13ee0aff
1a19fd1bfa15ea190305eee7161410f905f7fa03100815fb0b100419e7e214e7
14e7f7fa1c18ee1fe2ecf20319111008fc1ff304f3060afbe4f4e2fbf50a1c11
faef09ecf0f4fef309e4f714ef1d1300e7fef4e8e91dfcf0e8e5fb1e121a1915
10e611e5f2f1ec1cf3e1fe020912e60d02f80bec0901e3fce5fd1a0f0feaeafb
f50fe0e90bf119e10bef07f8fde8e70ef4e7f2e419e8e01f0a08fb121306f6f1
09e8e317e61f1c160a12f4e4ebf3130ced14fc1afd16fc11000c03fd0ee7eb17
001117ea06e118101c1b140e1c1e00ff1a19e8f1efe00ce0e7f0111500ff0700
f10ff210f7f5fbfaf4e4fb1a18eceff504fa14f801e2f01e1f04fdf9f8f813f4
e3e0e1f4e51ee1e002e4011e0a11fc02e90d0808171ce601f0e2ef00f6fc15ec
1f1a06e41f0d1ffee8ea0ae4f0fae7f011f411fbfdfe12e5f3ea1b16ee0eff0f
e1f0f2e911fc0a041903ee14e4fcfb04f5ecfcf6ee10e51409e51be21f03f705
e0fee8e001f0f70d141df9e813f6fced1d171cf41ff214f0001af0f2f9e21de9
e1ea11070b14f31000f3f1e01ae8f51d15ecffe3fb0ee2ece6f4f20c141c1012
1fe7e0190b0c18f9e50d0606fdf2fce7e4e718fefb10edfbece10801fe1d07ff
f01e07e0fa08f1ebeeea1d11e5090f1af4f4e3e2e516081519081115e5120201
f7e7f9f007ea0718ea14f21a000cfefdf6010bfdeff901e417ed000bede9e415
030d0fedfeecfbf4e800e404e1f00cee0b081bf6e7feed0e1a04ea1e02eef20f
1a1ffa01e319121bfee41e1f02091d050714080616e4f112eef708ea141ef2e1
f7eb09120f1efbfaeee805ee040afbfd021bfff1f7e4f801fb0b0511f9e0fb05
09f405eee8fd1bf7130efd00e3f4f005ec051018f907e513191507010716111e
eb05f3fc13f3e8e412f808f0fce3fe12e6eaec09ffe1f216ece7f2fd05e3f31b
f014f7f3e2fced1be4f7ebf01d1bf5e9f7f3edf00d14f81715f7e0e90506fbe3
15e9f81df409f0ecf810f5e11efc1814fe0dffe51a030a01eb1df0e415e90bf7
15eafef6001ee218e9eaf80ef30be712f7100fea1d1a0e0ff403100a0206ee0a
0ef803e304f0fee712faf7ef03ea0d15061af7ea0603f8fef5131bef00e7fc16
e306e2fa19f5ece2fff3e7ff05f30ce2090201f8f81d061712ed0be30eef1107
f200fff4ea16fdf219ee0c121119fa19faf8101c0cfd071119fde2ff0a05f0fc
ec18fbe5f61515f4e804faf50df0ef1cf81df209e7f112fbf8f7f5f10b1ff4e4
00150710fde0ea01040b0c0d14f2e9f9fb02e2eb1515f808e8ef1ae4fe011ee0
1b0cf80eec060818f700fbf9eaf0fce8f2f31ffa101d170cf4e106f9e0ff14ed
00f5f00f0b1eeb1e080f100aff02f9fde21b1417f40e080e10f208f5001ef418
f80717021fed1210f50208e7ee0315e0fee81b03e60114f9e00af1f0ef02ee1c
1c1202ed1ce912f50ceee017fef7e21ee9fee10e15f70aee1c1bf6130f1ce41c
ef15faf91ffae10c18131de116080cf7e8e1e8edfe11fff6e2ec10fbfee511f9
f80de3f6050ce60e0f0af4e216fef4e602f31312e0ff151705f21a1ae904f2ed
fa09fb0512e9fd19fee1edf1fb0fff0ce7ede51be818f60e1f06f90ae21dea0d
0e0a08fb00f511041ce6f616e40dfff8faf8141f1ef2ecee050ce712e8f9fa02
e9ebe01df3f6fdf9f6f6f8f516011406f718e5f0f213e718f000e406e50302e9
fa08fde90df906e319f6f8f8f7150cf3f7eaeeec0319f8f01b14f2f8fe081b0b
1c0005f5e91ff00ef5eef803f6e0080e1ae504f11ff9080c06f9e008eae700e2
00171e090009faf2f0e0fa0b0ee11d10f6070f071ef5ffe7eee8120ef61b1801
1eed0d1af2fee601fbe81d1f05faf5f906efea13fc1216e5f6020a04e805e908
e10de5141c1a05000fe60d18fbf4ee04f4f117e51cece30c1fed091afb090717
f9ef0dfd09020ae31c01fa0f1e17f516fde8e6e50701e6e5190f09f4faee0af5
f70104e805f20b16ee1feef70c0216feeeed09fde81b1f1df61fed1d0fe2fbea
1fec03f71b1d0a03120cf00409efe407e40beafee6e60012ed171be2f4ea1216
e1fbf7eefdf100e30afa10ea180f16fbf31401f305f9fde105e8e0e5fc0ef4fe
f2031a1d0b0c131219ef17050b1fe9171d0116fde2e50b1019fee015f10b02e5
f60df80ce70c15121ae31cf9f2f515e7e8180aeaeee8e3ee170cf0e10d0bf518
13f202f30c0907f216e01be3f2fc041517ee15f90f02f9e5141f16e4e41d1d0b
e4ed12edfcf1f8f915ede8e0fd05120ee703f8eb1eeef0101c1a12f3e112e000
f2f5fbec1b0b1f030ef81d1e07e4f0eae1f0e71df4ece704f6f80605e903111f
ec11e1e40209e0e914ea0717f60b1211fee503e5ede4ee00f8e819e2e8f7e70a
f61ee6f3eff30ee10fe0f407f2e5e8ec1304fbe11d0ee80bece606e9f019f7f6
19010beef81be7eafdffebe8e2feebf0e01109e80e16160403eae51ee11001e0
f9e9e6e40d15ff10fbf004fef9ef0efdebf6ed02090e0716fb091e05181917f7
1d0dedea1bfa01170ef5e714fff111ed08f4071117ece00b1e180f1bf403191d
181aed1f1d1af5070d0beae0f1e5060201f5ff020e05eaeb141a1f011017f4e8
e0000404ebf60308f3130fea03e8ffe7e8f1f5fcf7e2f71fecef0e1bf3f00bf5
1cf6ebf2f0e718e40f181c040aedf2f4f31b05020905fbfdec0e171b13fdf9ed
f6fbe40900f0160cf012e2f8fbfcf0e308090a1de507fdf9021ee0ed0aeafd1a
06f0fbff001f0eed161a1207100b0506131207e7f1ec09070ef709f10417e8f8
f3f60300e012e8ee10f1f21e1f03f4f6ea0ff700ed07f905ffe5fe1c16120e12
f1ed1314eb06e7ede807efe102e6111604180b0e06eae400fa19e8f01b12eaf8
f5130ae210f8f6e50e1800e5fd0de712ea180c06ffeeef121a01080708eeee07
000df60eebe51cee0a0efd130307f51f11f71a09f51cffe71be5e412001119e6
1f08e8fce901e103f21ae3fa04f604061df001fde8f007131ef4f500fe1df6fc
0404e9001e13e316e7f01dfa1ffc1b04141c0b1cefede400e0fd1d1806f40a05
e10fe7e90013161a1e15f2e4e3101ee916ec07e1f104eaf514fde8e3e8f5f41d
141d170cf811f803001a130efcf2fcfee9f6f7ecf21d0b05faf81415f7f20b00
1ce10cfc06001de4ea14eee7ecfbecfce0f518ee0514fe17fafc1b130003f8f7
f913ea120402e0fee3ff1dfa18f4f0e1e5faee0c1805ebeb0811e9e31a10180e
f309f6f3f81fe8e4f9f91dfae015070a17f7e3f9ea0f1d03f0e507031106fa12
0c10f8f606fe12e71a130ce5f5f90a05f70f0b0708f017e915e50c1d0e1d10ea
03fdfe07f6f308ec090f08f907e2e9ebfd0d010a12e1090de915e1f916e6e30e
f7ec0a0affe3e31b19010607e402fe0ee1ea1b00fce8e3f8f9ed0cf1e1e10b1d
e504ef040c080b17eae21ce412f715e30b131b0ff00cf103fa0afb0b0effedeb
f104f7e8fbf10d19fffa1ffef3e702fbe5100b1007ecec0906e0e01e15edf7e7
09021bea0c12eef5f707ed080f120d07fa0f0ded1ce7fcfcf3ebf0120cf3f315
0f121903f6e2e60d0affedf91cfeedf41c04f604fc1d0b0dff10e7e0130a15f6
1a16f912e4f2f216ef1aef15fe11e71ef5e7ece00b1ceb18f605ebf6ff090415
140000e9f5ef1ce81ee70514eee4fbe801fa0d0e0605eaf4fbfe17eef7fdf307
0afc1813050e021efde0ff02f5001308faed1ef9e10ff014e90cf918ede7ed13
1bf801faf8f10cf11718ffe6f80a01e10ce7ff050b1b08eafdefe6f9e9f2e2f8
0909121a13f3f30be808031a191f130af6eafa1f13e4eef00bfff9fa1cec0101
e80ced140b1e12e50afff4131ff5e7e6f3ff10f80d0712f71febe41504ef1412
18f8eaf901fcf2f5e7ef130af401101ee7eef1fcfce5f810ef1c14000a13f7f7
15e0ed0816e814f3191df3f00df3e3e6e3020c1009fdf5f416121f11e3fa08fb
0f1815071f13061ce81af41ef5f919fbfcf201f50a04ee15ee0bf0f306eee210
0de2e9121f1d08f6051603fdf10b0ceceff8e6fff80b07e0ec12f1e6e0effa10
ff1e0d1010f009fc17feeafd14e4e8fff9110d1d050602f2ec1ee317151cff1a
ebe6e3e0f0f2e8f1f603fcf2f0f90d07f609fcef18f901fd001205fce9fbf10c
1b08f41010f5f3fbe8f2f915e61e10e1e7f30b1114ea1c0e16ecf512e6e81aed
f5f8ede70ef2f7e0fafc1ee3071df31ee30e0312efe4f6051f1c0cfd06f80811
051d1ff2e5efe5e9e515f3e9fff113ffe0f41ee21214ff06f3f41016fcfd1bfc
f61c07ff0719fdfb1afbe016e61f18f6ec1d0f000802ed1be6edf80104fd070d
e01ef7e218f30a16ed1d1118e60fe3e008110ce7080f1dfcfd13ede617e91411
f6fa1a18fa06fc15f8f501e7e5eb1f1ce108161e0ce1091a121417f61b0717f7
18e715e71c19eb0eeee5eefb07fafe000310fc120d15fae2f1e7ec04ece7ec0e
eeed1b0dfbee0c17fa0b05ff18061ced1dfdf4f71ee0e8ffee09ff02f9141d01
08e9f3ed1419f9f404fd10150be7000411e4f513050df1e316100feff4e9e90a
1c041e00f50303e602fcf1e9e3f4f8e6f6e017f10516e30ff211e316ebeb1afe
04f6e5fcf5e2160300fe03f20e12ed1cff0eee0fe6eaf0f2f9fe0cf41518e8f6
f51beeeaf7e1f7f3ff10fae4f1e31b0e09fe07e004e602e11415f0f10b021a1b
f405e6f3e4fff1ebe8e30c16f7fdf1f6fc1112e20113e5e1f31a1b1ee209f209
fc0e14140f051c01fcfd13e8edf216fde6fae41f08ef1305f8fee304ffe819e4
fd1e12f003fe15f7e7fee50be31b0bf5191b0d1912edf5131811f702eb02fb0b
0efef2ffece3f01f18f71ef605e1ff0d1ce1e81a1ce8ea17f0f61cfdfef30ae9
1207efe1ea08ea071dff12e8e4e8eaede3100cf0e5e0ec121cfa0f110cfaeaf0
0b14e90df51d1c0a0502e5f5030cf61517f0fce8e2e40d0607ede5f8020b000c
0e050304e5150ef610130a010b130c0c06eb08fce6f3011901fcfaf91ce1e8e3
1fe20008f3f6f503f0070809fe040ff4e7f7081f0aef1cf1f2f4fbe5e415e0ea
18ff12ebf40915191ff9fb0506e31cf8071ef604edfefcf0f1120801e6081b05
e4191dfe0607ff18e3e0e8fa03ea0ff403f8e1f5e2f0ff09fbe81e1414f8e6f6
1ee81b140a1ff71802f2160cf91b19ebe00f0201f810f0071b1012faff17e2e5
e5fa121d02f5fdfb07e5ebf40b14ebf9f6ee0df00af6060cf2e30be90c0501e6
0f120ee01c0fe50a1508f7150af1eb1bfaf7f0e1ece5161f0ceaee0de4f7ea19
f6eaefea030800f4f118f0fc1eef13f9e5fff512fa080d03f700f214f512eb12
fce31a07ecf00b061816001a18f304100afffa03fbedfd1f0f0b08eae907f507
02ef11f50ff4f215141feaf70906fa0e05eaf01619fe100113e5e515f01f0402
09191df2e3031cf3ea13020ee71bfe03e5f8061917e6f5001bf7fd171be9f8e4
07f8f70af8ea110c14eafd1a1ff1fb1df80e0ff0ed0a1d0af70e1c13f8f7e602
f91ee907f31c1ae8f809e8e8fbeae5141907fde1e5fae0f9fff218e8f5f1e101
150d10f80ff0f809f909e607101b030a1416e01c1ef8e4f8090cf6e01a0af4f0
171b051211f7000be0f9f00bec06e404f3080d11f11010e2f310ff021ff41406
ee131f1af7110c0bf0e90604fc08e9f2fa04faebf7f9fb01e1f8f005e50bedfd
e5131510120d0f1610e8ee1813e2e1e9ea1ef4f003e6eb1c16ecfb100af5ef1a
03f20ffe1b13f7e7e206e1f2ff1900f715ea0eefea1ae51df612f0eb0f04ff0e
1be7f4e7f90402e50301fbef1119e91519fef5040806e6f6e2f00cf0ee1aeaf4
ed1501081cf7eff911130e1a18010eee05ebf5eb1dea14f807e2f9f11f0a1ef8
1ff501f00cfdf2e6f6f814ef1400f3e9ebee0dffeaf7000e0b1f16f9110dff0c
fefaf1eee8100fedf0f7e1e60afd10191904ecf5f104fbf4eee9f7f90e1a0ff6
0b18031a18f7e511fde3ffe70c051a0f11ee0b12ecfff0e81b04fee612ea0214
14e4eb02f8140306eeece913fc0ef3fd1e1cecfe1906faf1ebfbe5fc111b12f6
fdfcecf7f80504fe0611feede919f5f005e1e206f413ed09e51ee51af110f1f1
e71f140a121f1b0402efe0e2f31314011b06ff0cfefd181befe8ea0b1a01fb02
edf10f17f016feeef2ea0006f01b110b07ecfbf619eaf01610071bf9f7e2eb07
e5091c00001a0af11c04fdecf1f9e3f809021bf5ea0cf5fce9f40ee3eafcf910
16e10202e61f01160a010de11b031b1d000d040bfd0915090de3010c02ef10ef
02eb15f1e7080cec0f1b07ecff0c1216e0eff01ae51109fd1de7e201fe1eec09
ed1c10fcf9e81f13e20d030d1f18fc06f10d171aec1dee020e1e16ff10061dff
f40ce1ef000412181af2120b1af90014e9ff111d060411fcf60ae710e406131d
f6fcff1e0a12e3f8f719fbfde40df1e9051609181b0c040ee5ede60bff09ed17
17010d0cfce8e8e2e0fbee101d001ffd1b160ae01cf211e4e5e3f1f30bfeed06
f6eff1041bed171d170ee0f1ebfaf9e3faf2e711e9e81efdece80117fae8e4ed
fce6f1ee0de2eae8ebeb17ee1cfbff0d09eb1b14e4f302e0e61a010feae6fef8
ece9e7041310071914f7081a17ff1cebfffb03e30d1dfdf704e1ff1802031b10
02fafd1e01ed05171b1ae3060a06f2e5f60b1d1bf603030ae2ec0f04e9ed081c
1eecfee60ae21cf81d1b1801fde8e7ec07fa141d170700eaf9ed0df711f9150d
1be6f51506ef1e1ef61b1ffc11f6fef306ed16e71beef61af00213e31d1d1a13
02f3e3180d101001ece4fc0a1bed0de9feeee50de31fed0cf4041c12fbf40314
ec1f1ee4f901efe5f3e21717e7f2f9e215ef09190f1a0a10e907e3081811e8f9
f80614f30de10c02e40c16e8021fea101701e2f618f7fc0e01190015eeeee7e4
1d1e03f1e2fb0a11e307e9020510fd09e2fe071a0ce4061ce60816101e12e719
ff18f3ec19140f051600fe02f0fa10ff051e00e2070518f71feffcf0120e081d
fc11e504f4e0e7ed05f9f2e3f7ea09e8e80c0cf8e917070e1f14e31c19ecfc17
1ae71efc010703fbe5000a1ae31efde2040313170001e60815fae5eaf70b0e01
f41c15eeef1c12e8e9f11009fc1405ebfa09fa011405f3f8ebfce4e203e41ee8
e00dfc1b08f003f7e8e91c01f6e4e31a1c1605eaede41de40e1c06f8071d1007
e8f803f11e1116f9ec1df40f1912efe412faf41ae21f19e7e1edf005ff08e3ee
1df1f3ecf31defe4041c03fb0e0aebecfce6060f18fd0d1b16ed0004f41f11e5
08f1e812f708e9fce4fde11d1be718ff02e6050c1ee10c07ef1ff411f90812f0
fdef07ecf0f3effaeb15f8070df2170109e00c07f9eae617f2e115e2f3feea19
1eebe8fb08f0ec07fe1fe9efec04fcf2e511f0f7000d05e51b01e500e4fb160c
1dfaea0cf6e6e10af5e1fbec15f7e60809ef1b0ffee61e1a08e71a1af91f1900
1010f21be012e9051211eefafefdf01efbf711030efd14090efa061412ed1df8
01eaf4fee71c1f121709ea18ff11031916f8e20c01e01e0a011218e408faf8e6
080006061ef6eefd1ae70d14f5eaf90af108eaff001dfde9e1f11109f3081af6
e21906ebe10907fce11202ecf5e61eedee010de1f106e903e0e908f10907effe
eff114081b0fe410f3f106fafd0e0c0df5e716ece91bf4ff111107e1e102e106
f1f4190cea1c1bf7e2f2f11f02ee121b000ffb01e2e21cfefd071107011ee8f0
0e07f408eaf012e9e4170de6e2f219fde8e909f2fb03f5e50002e30fe7031202
e01208040ef904fd0d13e9ee0113e21b0404e5fbf7e40f1ef7f2130116e604ff
12e2fde3f1fde411e5f6110310f9e7ff0c1bfbf30f0e14e3e90fe1f5fa1ef3fc
191c0315f5e9ffe9150419f0f11d03f5e5ff1aeb15eae4f00af7181fedeb12fa
1d1afdedfffde911fa17f8f1eb151f1af3ff0c17fe14f1f9eef300f5f8ebeae0
f80af31301edf40205e7021a1f090e03120af2eb18e801fc0df1e20e1916f21f
ff101b0ef2f8fee5f2ee0c00e50903eaf0ec00fce6ebf4e6021409ebe2fde91c
08100d0112060ef9e0e317f60e0c1219e00409eae5190b12f1fb0fff1df718ee
fa0d1d0813eef9ecfa09fc020dfa17f0111d02e31fe3edfc17121201e6ec050d
f7e6e7ff18e4fb13ec02e4ea11f508fcf30febfceb180316e60bedee0903e006
fe18eee2e514f6fa01ff0dea07eeecf51a04ecf30e1513ede5f7160ef5f60ce1
08f6f90e11f0f0f41b14e3fc0e0d1efbe8e30d17060b1a0b16f60d1d130bebf0
111a1de4e6121718e2f5e6f205e81fe5160af0f303160f1afb1b13040b131fef
1e0f0c011afeeeee1913e30504030f1bf2fc121908eafde0effcf51a1b0515e2
f0f007f1fef71eeb17e5e3f706f303f8fe1deb10e718071f13ea1c0216eee71c
1405e3f80f1ef90d08e4f41b17fbe6e7ebf1eefa1904e8ef1816f90bfde6f5ee
e7e5ee11f8e3160d1405e4fae5fb02ee07f602e7e6efed14f7f6eefcfefef6f0
090ef6f7e8f30214ebeef70b01f9e31feb1a11fc00ef19e2e4f2f8e6e2f21713
e0f01afd1be5ecf816ece2eeeb09fe0d0f1a1bf3fdfcebe2170ef1190b1c0f1b
ee1402e80e08e6031ffee7f30fe1140bfb180f1d00ec0df0f90b19e6fee708ed
f30ff914f41cf31506e91af5f00f1f1e090bfb1b1df90318191c1f0f13f5f605
06ea0af014e9eeec1b1e141fef1301ea0e09e2e7ec0cf5f7f7fbe9e1e4fce014
19e50d0e1afde50d05e211f1041a151f0e1207fdf2eb01f1160f0ff4e219f0e7
1300e71bfc101b00e1ee02f8110af50c0810f8eaea0a06ff18ed0005f9fa12fe
05fb0608fafc14f71fe9ee121be2e0f5190ae3eaea0415e70806ed08e704f005
1b1b15151f1702efe4131dee041af6fff206ec0d1cf50b18faf0faeb1d1609f0
10141011e2e0f7ffe6fb0307efe502e9f8f4ea0013f41ef315f918fbfe1f14f5
f5ffe7fdf9e20fec010d1608f61e0b00e8e4f800e4e8e0e1f2e9ff00f3f2171b
1a1b1c05011908e1f214ec0605fce3f5fbf8fef9f4fd1813f3f3faece81f1f00
eaebe009131deb01f2e910eeec131f111115081910e0e60d130be0f9f1eafb06
050ee21a14fbf7e2ffec011c020df7ea13f8e707fae415100bfe010b0a000316
ece0e208eaf205fffc0908feeded1d06fdf9ece80f0bfbe5f8e3e8e8e8f6e7e5
e8ee04f3ed1eed1d00f317fb16ee061112e5efe7fe17f5e70f0902eb15e41d11
edf1e0ef05f214f3090be1eaf4e208e61ce1e91ef0f8001afc1c100ef606151d
ea0efc1e04e1e2e21bfce31e13eb01f9e809e0f5f11a0d19f8140de5ec0fe3e3
f701fcebef131b1519ee1bf1f40513ea10e8f0ed1be91309091bfe1be6e2f308
f41a1cf218fe0819fd01e412ff0d150c1a12e6f808f70bec06190eeb1fe208f6
0fe4e914ea090e16ff100efc0effe7e71ee9f20cf61eed0318fd020d19f2ee16
071c1ef218fdfbf1e5f707e5ee0ceef10903ff0b1fe9e112eb0d09ff0801f216
f4fe0bfb061b1ee21ee7041a19eceb08eaff01171fef1dfff5f2f2041a1ce2f5
14fd14eee7f8f71e0bfc1f15f21bf8fc1816111c0e031002071c021213f516e9
0a1807191a07e0fe151516f4fee7fbfd0cf70f10160e15ebf70703e6e117e100
e4e9ed1dfe1c050b1c1f0afbf8ef12e300161b040c0d01f3f803e8f71e02e31c
f6ea1e08f404f2ffe3f51b12fd15e610ebf51e11eae4f8f7e11de31b1cf6faf3
f9e409eefff80ae1fb0f0e031cf6f51f05e01b01190a1c14e7e6041910e9f903
e80a1019f704e5121d1c1212e6fe0f09070e11060b1507e5ea1f0b0306f40501
f6e318f4010d0e07171fe2f1ff1a1c0c02e3eee2150d15ebfb11f21c09f00415
faf311fd0816fa0f07e2080317e0eee7e60713f9010e0b021cfcfe001b0debee
091c09040ef4e116e31ae0e1180df9edff13e2ed1cef030b010e0d090d1f16f6
070f111cfe09171bf80ee5151feae91d0f0af2081ee50b0cf1120f05fa181be4
f803ee06f7eb00e10901ecf3fb1617f8f4f4e806e3ebf117f7e9e0ed111fe60e
fb041c02e2f5e8e1060700fb180b0718ef080ff804fd0b1a0611ecf009fc13e5
05eb1e0301e00f17f9e5f1ebe6e2f507f60215e0f31f071ee2eff1e408ff0404
1108e215f2f00ee2021aece91c0dedea1cf3f9fe140bed0e1c0dfbf618e6110c
05f0ed08f41113fd0bfd0bebf6e5f7e91203f6fce5ef07e9f4150aef0b15e1ed
e0050918140ffae012f6fbebfd1d160af61ff7e71f0b1df313eef8e40eee05e0
fbf2ea0e1ce4f704fbe4ec0ae903ec1801fd05fb0a09f7f3fb17fb150ae3e21f
12e51717eee0060b14f40617f8fbed10e803091019e10804e8f41ceb090ff704
e8e0e7f3fc06e31cea17e41a1412e20bee02e7e5fee7e6eefd1de50ef5f9e8fb
ed1ce1f90fe504f31b0b0504e71a191eff1be3e8eefd1ee11cf709ede5eeef11
f60bf41a0ff20e140ef5090413e3f0e519e6e402ffe2f81603f71ce0eaf20bfc
051a01f30519f109100e04ebea04e4edf50c1a12e1fa0310fa121400f00ffbe4
f21810f813090f01e413e01de1e31f0a0ffbf41a17f2e4f71afae8111cf3ea14
e5f0f90ae31ef90ee1f4fc171409f4fef4e21c06fe0f041819fc0ffc03fdfd11
0119f61de70cf91f0010f8f603e00ff3e8e115050a17fd0bf71803f61d05ec11
09f1fce70c06f1161bffe31b130c0a0910f8e711140515ef041f1113eef41f0c
1cec150511f9fdff071afafc0c0f07e71bf70316f8e900e0101705f418ec0711
1ae7f416f6ee191609001ce011ef0f01e1fbe40e0df910f516fd050efe1ef2e4
f414fef9fe0b1cf01ee00ff11fe6f811e41b0dfd0e09f7e9fff1090a11f21cf9
eb06f1f80ef207e7fc14e3fae7e712ebe41d0f10f2f31a07fdf7e10efe10eee7
f30b16ed080c17ef10fd15fe17161cf2f9e1ece00d0f1b000b0e17e310e4f30d
08e7efe10808ecfbf91cff1dfbe90ef9f3e20908061714e40a1e050f04f4ec14
1eebf4f8080bfe08fdee0c001a08f6e8f10fe21eecf7ffe5fafee21f1ff9f311
fb0efbea1debe108e907ecfef1071aecf709ee14e8ea0ae8e0fffbecfe09120f
100cf0f20a0706050c19e6e3f318110de303ec0507151d1c06e70e01000605e3
fe10e50c0fe203f2f1131df6ec1de308001d19ece305fef106e0ed01eeee1de5
f4f0eaf4e11906f80609e1e6eb030315eb1fff1dfee6e5f7000ceee0f1fdf5ea
01030ff212ea03f4f01de8ee050bf2e6fcfd0f19fdf00ceb01f5fce0f3f8eeee
11e51902ffed0d10eb1202ff1cef1110f813e50012fdf5f8ec0a1afc0318eb1b
041ffbed0bef1e0d0bff0be7fa1bfb02f6e90deaf21c17f9e3e118051a0ef70b
13f4f9e7fde30ff9eaf8f8f4011904e2e0fd0fe81607eb0de20403e1fef60be9
fb02f2f8f7fce4f9f0f21cfce6f01a140aeb07fb1a0b09e5f8ff15e1e402eb0f
1ae81603e8fa0d0b1e1e0beef4e60d04e6f0f10f06f91f010604f4e401f4e0eb
170a090b17f609111f131f0df0fff5e5ec0609f6e3ef030f0415000afbff0bee
05eff1efe10f03160eec1a0a12fee1f6f2e800f4e40a030ce50ff90a14fd131a
01ecf0120df202ea07f917031ef4fbf81404f9ee0505f41bf21f0c1405e0070e
0af415edf916170111eef3f2fae311f51a0be0ec0f1713f4121811e3ef0d0fee
0d1a06fcee0aeefa0beb090de80d0e13e5080114e11cfb0ffeeae3e31c02f71c
17161afdfc1ef503f611e009ef11fceff41716e7eae61902e8e214fbedf3fa0e
e5e1f1fdff130df8f21be8f909fefae31aea0aece5ea0f10060010e117f506f1
0fe018fee611fbecec1e14060e121ee9fce20c0b0efd1dfeffebe5e60effedea
0a11f317e10ef9090f0b011cf11bff09ebfc1c10fbfce917ebf7fb1e15e4eee6
fffef40becfb05e0f0f40715eef5e7e6f6e80f151be905e30c0df4f316e20003
03f21ff5fae31b16e009f8ec13ef0b1afc1f1a0e02f61509e6e8060cebfdf517
05e717ee16e8f2e8eb12ecf91a030fe8f71204fb02fbfaf5e302e5f4f116fc15
e5fbf8f706070ae707081a09f7e1061cfcfbf618091909190c1d13f7fc09e0e9
1b01faf7e6f91011edf3f6e3e7f0e504e11113fa1c03ecf9ee1fe410fa19f2ef
e4e3f3f2f815e0f1ef1dfbf80a04ece90b021c060c1afc1bf906ee03f2f6faf2
1c1806100be21a0e070912e4f60b18110ce705161307eb0006f21fe9ff151e03
0d0e02f5f8e01ff0e9ed1af4171ce21619ef1200fc00e401fee7ec0b1c03e102
03f106eaeb14fcff14e8fde6fb0ae3fb1a11090204f81eeeef11eb04e6ed0d0f
04ebf3f81f0cfc1dee160118f80ff91c01ebe4ec04f20aede1e303e81b0002e9
11f5060907e10fe20de30ef111141ef4f8f8f1e6020d1702e6e8e51f1cffe3e1
f7f10df71de21306e4ecf9ea11e31e1019190f0817141c0612fffa1c0dfe1d15
07f019fff4f10a09f6f4e405190ee4f9fa0cf6e3fa060ef2f1f6e90d00fe121b
f8e3fe030409110005111604f50d1207e3f01003f4f4f30de5eafa0ce60f0406
fd1d0b06fa01e908f713f4e51ae6071afd10f500f2e81ae70614e0e811fe17e2
f107e90bec040ae40b0bf31bf1efeee1f4141b1be401fa1011e1e7ecf1e5e2e3
0efd00e206ff0611f7e2e6e701ecfc05e5090be7ea1e18f40302f0ff1bf4eefa
ed06f4e10b031fe5101901f5f51ffde214141019f3e7e91c1bf7ff0be80f0b15
12e405f61beb09011ef7ef02eeea04f0fc090a05090eebe10003f40b1e1f0af6
160f19e415060e03f6191519ef120f0bf4fae2f5ef051de7f504f01317f717fd
08f3ea09e90ce0ef0b04111613100318e11ded0e100409fe02ec1dfc0c0007ec
ede415eff81a12f0e0f1ecebe1f30beff201081613ebe2180c15fafdf81fe91d
fe0dfdf61cf1e00c010d1efd0dfbe6ef19f20ae2eb02fbf31b12eee70a1707eb
e4e214170def0f071c17f7f31ef306e4e500121507e41c071902fa120619f1fb
e1edf9f5ff03efe5f7ea14f3e5fde0f40b0be1fdf7ef1e181e00e9e0ea1a010b
e1e009ebf3190beffbe5e3140011f400fdfcf3ffe1f90606e91311e7f6f0fbf1
1a14f6f6edf9f100fefe1f03e9e1eeedf007091c1510ea0108e80513e8121e05
1d121a180ffc17faf808ebe1f60fe1f401e3e908fc1106e1f7171a0ce3fbf811
11e0e6f9121bfdf6e7fa061d0500f413f3e513e2ee16f7eae21de9e0ede51be8
f3f808ee1f181f0ae9e901f50bfde502090901e5e4e3f116fff21df1f9e0ece3
050de2100e1b1c0ee0ebf0eb1500110904fb0013f9161c04f1ebf51b1d1ef1f5
e8f00f0900e20cf70cff0cfd0110e70200e1f50cf1e402f1ea0b0a05fdea1009
f1f8feeded1f131316e41ce6ea1f0fef040aece2eef100e5180ffdedfe1816fd
191eeb021108f0e107fefbfa0c0cfae1e5fcfe02070915f4f2f111eef41700e8
f31d07e1f2eef6f80ee711e904f61e1ff212f7f119e1f7f315f3fcedf8f91df1
03021be01c10f7edfb1b00fe0c19f003f0f01500fc0c1b151a16181c010d03f8
130ae902e0080be2f1e91d130ce2191cf4ef000de3eaf315051419effb13040d
1a0debf4f1131de7ff0be901fef61c140af3f6ec0518e4f8f3e0fbe506eee708
e6f7fcebec0d171bf418fc0c16ee16e31be81cee02fae2f8e1f0e3e3e6fbfb01
00e80ef3e1f2e3ed0f1b02feeff30eecf80310fb0e180effff1d101f17e0ffff
e4e7100a17eee7fce0f5eaff04ed11e5f918e91efbecf71be7faebfc10e3f6f1
f01f16e4ef14fb12020ff9fe060bf9f2fd030af60613f41bfae00ce1fefdf01d
e1f6e2111e0fefea1ceef91dee03f2e11615f9f815151be911f80701e7ff1df2
0b100fe81d1a08f20e0af3f61bf201e8ecff15ee110df417fef707feeeea141c
0de2f9e6f9fe0312e3100d0ded03101de8fee4fbfff3f5e8f3fa10f4040a1402
1af8f6071f07e60602f817e3e2091de3fe180200ef12fa1b11ed01ef11111cef
07fde103ff1703130c1becfcee06031318e6e51bfd1fe5061bee0804f000fbf0
0700fe1e02181e13eae6050401161c1e190cfe110df3ec06f9f7f105e60c101b
1bec0bf50ae408fbe6e718fafe051ae6fa0f190211f2e71c0711e21f1305f61d
1f021416e2f2111d161deee4e4110af503f7f71c1bee06040de819e6f3f9e6ed
f5e70af4e2e3feeeeaf3f205e409e8150b08f9f41b19fefa02e0161d0ae9f1e1
f2f00cec17f718e0fe1303e4e9eaf50610eff71703f9ff190ef4fdf6e202fae9
f0ea1704ed11e9f112081e1419f2fcf401f9190c1d1f0011f5f407f9e3faf8f4
050609eaece7f21be4eef110fcf70b02fff401f01c04e003ea0ae2ff1506f00c
00f0091d1c1dfff906141214f9fb1016e4f9f61ff807e9131ff4f7f414f2f21e
efe9fc0219fcf20706f6e2f11ce30e1b1ef4f20ff3fd1613fdfa02010609f6e3
14ea1a09e816f8f404130a0915feed05fcec17fc041c0513fd140efc001a1608
11fd0108f01ee1e80800ec17e912e0f0fa06181f14f0f00802f5ea1004ff09ec
0e090011f7e3fce9e7e40400e112f8fcf3f0ee0f10e6e21beff21ce11009f8e0
1ef5121603ff02eaf31bfdfb160303f4e71ae80706f9ff1be0e80f1fe9f6ef19
030ffff0fd0ae0ee1afafb10021ce8e7131bfaf505060f1a0207e3e708eb0b01
1c1ffb0b1ce815fffbee1ae4061119f20108fc0ce41603f713fbeff6f1f0fb1b
1fe710f6f5140d18e91bece7ea0bf3ecec1e04e70e030804111af8f6e30019e0
e9fb0cf0e3f9eaf7fa19fd02f21d01f7edf80d12f214fe0c0816ede01700180a
1df81c03eb09e10d16e207fefa0e0f19031910071cedf9f4e212e0f314fde6e4
faf602120f081afbe809091209eff5e6111bf4f2e6ef11ee18e3f113f9e606ea
f1f70ae7e30d0dfff4fd071509e9f9fdec1303e4f91015e409e109190cf20d0a
06fefdf017e50cfbe3e0f90ff5e913fff5060e0ee5fc06050cfe18e9e3faf51f
0af719ee01e6ebe119fae9e8ff0913f81af30107e40bee1fe8f00ee7eb02e4fe
f11a0608e6ee06ede21efbe3fd111d1de102e703fff30e10e20b03e214070b11
f21c17e9170e011105f4fa1eea1df01d1a0e1016e7e10119151710f804f60808
1c0be3ecfaf40915fd0ce3e11afff507190ef7faea1602eb00efee03ec18e8f4
08f9140108ee1b1bfdf20dffeff005ffe5f1efef1fe119fe0bf8f8fff5f90614
f8f20fe819e00816f919fdf10df60307fcfd09f0f6f813eeeb12e2e900ea02ea
09070e11fc09fbf8031e1f19101cf81becf2f3ed0efcf71a00e1f107ffe6f6f8
1e1c1d1212ed0dff0ded0c0bfffa16f40d0617f31dfee9fde6f70f13110d0bf5
f101f4fdf00106ff0b041819e9110f021eee0ff405f3fb17e3e1e81003ede20d
02f5e8f4e0f2fef1ebe40b0e0b1ee408e208f3ebf815091001f7e006fce21e16
eeecf80d1a1efd071fe9e10df7ed17e71a181e1d15050af418f7fb1de1ea0dec
e0f002f5ebe602f5f10f101f0d0b18eaede906ff071a180b0e1b12f6e6e5e2e6
fb0213e10a11edf11afa1fecebed0ffcea00fbfb0f180af5e41205f81cf3f00a
1de705ee16080efe17f21e11f1fa01faf7e4f91319f9f1ee0f0f10f401181afc
e2f80904eaf0ee0a09f509f51bf801ecf706140bf718f0f706f215f6e11fef12
06ede0f6f005e8f2fbfee615ec0c021efc0802e2e2030a171ef1e500f701e61c
0fedec04e2f8fc1f00ec05f802031d0ef3e1f80bfff2f706f8e014fd10fae9fc
1d00f70b1f06f8e0efee1ee7e203eeefeefbfc1916080109090df8e7081a140e
011b071f06e8f4ff11061502f9031c07e704f7e31d07e1e00106e2e2191905e4
f00bf90d1b0aef1f1eeae5f4eefaece9eff9e9f8141b0d0a08f5ff01ecf11309
e90715e8e806f4ec00f1e80ffa1a1b0810f90ce1100203fafd0f16fafd111806
f50aecebe9ea0a15f7e70119e2f0eaf9f9f90809e1f61af5e60feb03ed01e913
0d0a1cf3fe11fd18e218fd1415e4ed011f02161813f5e4ede2f217ed1e0808f0
e0e6fcf2000c0f171806f4e5ee1cf316f7ebfefe06fde612e1faefeff311eaea
e7e8e7e918f904f30413f4e312f8051c02071e0efee9e8e3ff0de2191fefe404
e01b13150901f5f4091dfe05041be70403e8fcf9f7f1e00217fbe31502fd1af7
0e0a101bfbe1f7e30a181b0dfefd0805e71118e9e0f209f40d09f30612f4e707
e2f6ecfc1b01eae3ffef0ae6f6f40c16061e09f0f7ee1cf3031ef30cebf0e418
1314f913ef1d14161916fa19f419f1effa081e04f0fa1ef71911eee2040f12ed
fa0617f2eef3e2f1f9101efd0d0de0011cf10af7fa1e0a1dede4ef17efe70be3
0604f8f2f31af70d0211ed1e1fed0f10f2150bf2f316101be5fe0c1be5f218fe
15181414150af3051b02f519e80fe2fd1e1414ebf5f0040c12e6e2f7ee1d11f5
fff4f5fd051f1203fffb1e0c1010010fe51208f2e40b1e1ff31be303e9020bfe
f0e2e410181ae613fff5e31ef60ee4f11c0109000ffb04161ceaf810f4e41016
ec08f4150e00e31b1bee1f181ff313eae41f050e1cf40a1aed0601fbf905ea1a
0d01140ee900160f1fe4e2f302fce5e3031610e50bf609f00c091000041f070c
1d0f1f0602e200ea1fe9e81bf61de8ed1d1a160e080fe6e50ff701eefeebe7fa
1aea00e9fc1b161cf0e701130f19f518131303e4f618edef13e712f9f20618e8
f6031e15f40af81df51707fde6110e1013e3160ae614f3ec0af017e2f502e811
eefe0ff210f0fa14e8f7ea12ec19e70c0d1bff1ae400eff012faeae5e507170c
1614ff1ff7e815fc001d12e4ff0b1f12191df3f90d1d1d0dfaec0202e201e509
141d09031b03f9e40f16021f15eb1ce90f071bf4ed1ae8101bfc07f30f04f704
08edeb021ff8f3110706fd061afa1a06ece2121df402ede301f406f9020b1ee5
1908e20d080e1415ee090b08e31807e5e1ec0a031ae1ed18e71cebf70ff512e0
18f813f8080e16f70c11e6f3e0fafefe06fafe180206f01b0100fd0bfc17171b
e9ea05f5e81d09fdeb0af209eefb030be802e5f7f1071bfde30efaf414041203
19eee3e91f02e217e9e101ed08e0ecfbe6eee7161f1ae002e6f5f3e6e21f04fb
e404e2e5e6f6e0ecf8e4fef8130206090debe7fee2070c15ffe70defe5fe1fef
fe04fff1f0eaeaf3eb07160ae8fa0617fa04f4031cf1170c08e803e8f01bf60b
e5f817fa091def00f010e211e8ec18e3f8ee1ef40305f518effee30a08ece819
ecfe1cea090efe171be1e2ffe5f617f11cfd05ee06fb1a1ef6ff0ce5f80b1ee6
f30f0ef9ed00e50904181ff40ff3f8e601f3030fef070eee00e3f5f71601e4f3
1ae3f8f41b16e9191ef6f0041bf7f518fffaf8ede2f9131fe907ef170b16e90b
f6f80910f0191bf71011ff041216e6f91903eef607171ce205fc0ee4e10b14f1
0efaf91cf9191f18170407ebfbe8111f121013f418f5f7f8efe6011216e4e7f2
f61e1b18e01ff9090be1031e190efee318f212140618fc11e504f800fd150108
1a17e21cfd011e1c1be306f7e51c12f0ebece900ef0ceb160feae2f5f9e119e6
ece0101015140ef5ea0cf906f1f21608ea04e80a19eafb19070bf8fbfc12fd01
0d1a1be91cf5eee0f8ef0a0115f310e51904e50df40b13e5fc07e601eb05f2f0
f819fbe90be5ece117f11418f9f71c0f0ae818f512f9e6e104f50ee40a1013f4
ea0312ebeb010cf51ff1ee060606121c15ed11120909170ffc0b0cef16f9e001
1a02e20215f01ee9fb01f21aee10171bfc07f505e313ff07e916ff0eef1101f7
ffe4e9f4e21419e6f61b08ff13ecf31f1fec0a10e9e9e71eebe20812edede61f
e4f8f6eee41618f5e1ed1313e11a170de20804e3f4e8191eeb1b04f90a0a12f3
e108e3edfefe1afb09ff0a13010ce6f508fd18ee001918f400f20a071413f917
eef7f310e502fcf9e00feffb1c08e819ef08fa0713e40b0812f6fd1c1d011ffa
e8ed040b08e207e7f71aefe216e4141df8faf617f0111ff8ed11e8e1e614111e
130207f608021d13ff161a06fbe0f3e5ec00e8021f10031304e6e609e908fc00
12f313ea16071112100afae4e6ee1ff2f709f50a01031411051ae91af215faf8
e10af508ea18e1fbfbeee91be9e1fff7f8f2e0e7e5180ee90fedf9eb140ae917
1202ffee05fef20e04e6f3e8ece4fa16ef16fce702131ef4e6e40104f3fd0803
eeedede5120611f312f6fb1b080f1a09e50b14f1e814f40705ffe80d0ae3f70f
050ee1fa0719e1e2fc140b0cfb10f9e2fdecf3eff1f7ebe60ae119e1ebf30deb
e8ebf3161317ece0f9fd08fb04e50b00e1eef9051be8f0070b1ae70ae6031611
f00b02040610ee0af2e4e20f071f171b1bed1bff04fce204fdfa1ee70f09fb1f
fefd0ae80106eafffbfcf7f2f5fd0615171ef90dfde40be5ec10fbfd1019e9e3
1ce01c0c0a12021e1de8f4e017f5fceff1f50f16e1f51b0d1dfe17eaed1816eb
1fe0e3fb0a1ce5e3f210fc010219f1ec1905e2fd0a1ceef4fff7f3141b0e0716
0ff6ffe4e31a1ffa011cee1f09e800160718061a0d0f16fe1af3e51901e6e405
1512fef903071301f20d07f31807eff8e7e408e3e7e30900f7f0f8e2efec06f8
eb06e1e8fb111dfcf61b0dfb0f1a1a1c1914e0021be3fae401e70b1df4f31d1d
1c11fd18f0191f0be2131e1b15f218f2fcfae2e5ea1115110bef0d05f10e0513
e1fb1ef7fbf80af4f006e9e815f2070b06f3150bf2f6eb0e061bf5e118fe15ea
1eedef0f0c1b03f9e6e207fdf5f011fb011ce2ebf4e804e2f11a13f51ee41401
0bec06021d0803f418f51500f9e3001df6f104f9f313ee17fc09f8fb16e6edf4
fd00e4ea1f13f519101611f113ea130e1dfbf912f9f2100807e50a0104f8e613
ee02fa0bf709fbe41c12f9f0fa151ef5f3e6031ffe150c0f0f1de9f60611fb18
1de20b1c00f202f3e717110002f70302e1e41ffa1a06ffeef71f0bfd1806e6ea
0ee1040ef1f4e0fbe01a08170f130307f0fef102f31ae4e1fb19f7010df919ef
f2faee16f6e8f3e71d02f8e01a08101b07e0f6f3fbf1f8e80ae909e50ce5e706
170c170ee31df7f8fdebe1191113fae3f70306e204f3081ef31b021fe71e03f6
08e6e314edef0e14e3fe0518e81ff802f1e9f2f4160ffc1efce118eeee08f705
ee11e1e8e4fcf2061bf6fdf0ffe7e1eb07f2f70310141eede2feff1307150d0d
ffedf2e5081d0e0006f8e412e20208f106fafcee0a1c13ecef00e61be9f70f02
0107fa0d12121b1703e7e501fc09eefa0be8051aef19e9f6e0ecf8fa0b15fc1a
090a16f201010e02001c1a1deb1103e70111f114fdf4ea031aebe0ed15faea05
0b03e107eae201f8e4fb07100c0c02f31a04f51afcf80feded07f71e1aeff6fd
150bef18fb1ce70f0000f2f5e710e6f617fb1a050be7f0f9e61411ed1d0afbf7
f60609fbeeeefee813e6f5f2e1e30509f317ebe209081b1219e7fe0deaeef0f2
00f4161beee40a1aef061ce81ae7fc1efff00eed161a1de61bf7080ce4fcf3f3
170b0417fcf2f1ed1308fb13ff0ceb0e02f513f2e8f1e51be8fd1218f4f31516
ebeee1e81d0ce1fde30809f0f8161b07f11eea03ea0b171cfee8e5141404e305
f3e11314f90d14eaf3f416ededff18f8e8081b1318e10d17f112fa00e30c091f
f0e21f1aecf3f6e3f9ebe0081ee108fd1a1109edece71f1a19120b08ecf7e602
f704f6f5f7fdfe0df4f5fe1c0a151f0800f41ae1fa0d17e700f2e3fb070400e3
f6f1041d1df0e9fce8e4fceff417f21600edf41e0f11ec1e1d101617040d0f08
eae6110d1ef41e1fe4ede3eaf512f4020dfe09ebe80006fde9e8e90feb091b10
18000f04f4f405f3e0f7150ff0eae5e40808e2f4e51d161ef2e7e5f4fbee0611
e8fb17e808fded1ce616fce8f8e7e71c1cf1fb14fd0c1f001de6fe0bf9f607e2
e60f14e7f2ff0ce0141009ff01e4e2f7f0eff101f4ec03f0fef904020bf015e3
1605f80d0fe10eeb0902f915f10309ebf5ebe5070e101d0e11e7e1f6e417fd0c
0b0be1f511e1fafc0a111313041c08f9f71f12f2faf707080314e2eee6fc1a0e
031d101213ffeefce90e1118f71917f3111b060501fdff1212171af4fb0a1807
e90818eb020ff5f51b13e3e3fa0e1afb011609fbe30ae5e60d0ae7161ce810e3
19efe9faf9e4e401e5e5e7f713f6e0e1e31e150b06180bf518e402e21cf71f0c
0418e8f5f208fde5080fef0502f404f6e4fa1ee7e1fa07e01bfc15081efc0b16
08eaf1faeb0f02f9fa0411e51815f3ebea0efa1cfc0207f0e01f0ef1e1ffeef8
19f4060cf4f308fc13f111181816fde0181a1109e6fded1b1d0515f203f8fee7
190a17f3e7fafa0c12ede50ffcfcf50218e100ed12131507fffd13021b07ea10
ec0bf310e116e50dfa080810e108f305e919f21ce41efaecf7e3f610141d1717
161d1706f61ff2f9e80f1b00fb07f31bf8eb11f3e906f20af5f4e4e718f4041d
ebfc1f15eb02f50a05f41a09e31e111d1710e21ff211e71010e4ee14ed16e1f4
f1151ef0fd18f208e8f9f310f6eb1604f1f2f5f70502e7e8e7fff8080ee7091d
e7f8f606ffedec08f304e016e1051f06011e0e1af800eb12e8f607f4fd04e3f7
0d0e081e0109e5ec13faf3ea1e091ef2eb1be50d13e71bea0c08f61f1ef9f1ec
01fb12e709180deb1af800f20b1c0e0b03ee0c0705e210e00aeaee0ce6f4ee0d
eb16f700ef13ec0f0c13f91cfbff0debe2f7040c16eaf7140be20b1c08f911e7
fc051cf8e006f2e7180d1de4f21aec19141be3fb141ef806170a1af9f2030d0c
ea02ee10ef1de2f6f4fff90ee112eb0c1712eefdedf715f6e0e9000d020b13fa
ec04ee0002e3e3fd0af0f5e3fdefefe1e11616f10fe4fbf1ff01e7f3faf2f60e
ec11e3070be009fbf808e60efe1b1ef2f7ff1904fe1ae2f10904010314eb0a1e
1f161808faf2eaeef212fe12f4e60d19071ce1ebf20dee00061b1410e0ed14f3
03f6e712fc06e9e1051de0e90d1df0080506effc0b07f31e0905f7e111f40f06
fd001ae809ed0c1503edf21202f710f1e0ed03ede2f715e9f9e307ecf71a07ea
1d101214fefc0afa03eb09e519f6ecf30b1ee3e2ff0a16fb07e1fe06fcf1fd18
f10cf9e10403f9071de30dfde812f7eff41ae1e2f1e21605e70de6fc07e70ee1
f5fa1d161c0ae7e01208e80aebe7e902e8f111eb0cea0f1d1103ef08e21f14f0
17ef041eefe31010eefaf21dff1d04f4081ef504eb121bf9061de7eef3e3ff0c
030c09f4f819e7fbf1e0fd05061cf518f1f4e5f71a0bfdf61713fbf8f7f9f0fe
ea03e8e8e61f0116f3feed0c0ce7ea020705f9030eef16f1faf2e40a11e71515
02fde7ffec020701190d0d0b12e8ec1bf7fc14fde91a0e19fcfb0705ee0aef14
f9efe8f60ef5ec1ee204f4080a08fbeef4eaec0bfbe914fb131be8e2f2eae5e2
e7e5e415f9ff1f18fe1b1f1affe50719e3061afff5ea1a0f03e01ceaf101e107
0a06fefb0a17f917e21ded01ff021206e6fb07f7101bef0004f9151b1401e603
12f7ea0ef8eb0ce0e3ecf3e003fd0617eb16f90404e1ece305efe0e60e170b04
e117e50203ece7fb01e0e3f105f4fd1be409ece9e6e31efcf61bf7f207ea0cf3
f90c0b10ef0b1310f8f219ea08fd101dea0e0dfaf2fb15fe02e80b0ef711f50a
f4e9051717e7ee13f71b0e0ffdf6e301e71515e7fbf4f9e4f8fe021f0df7e705
18f60511031be70c0af8f61010121de3fa12e4fe141913e0efe71d051c0f0ceb
02e3f20c16e9f8eae80b0ee2e105e11a1a1aedf7e7ec05171a1efbfd1ceffbe4
0ae51ffa03f3f91f0c16f10ae70c17151518fd0de91b04faf90bfef902fbffe3
1c03f0141501e3ee0505f81ce1f7171af00ee9e5e51a0711051b0e1208170409
ff13001b1417f809fef2f604fd1be81cf502e819060bf90401eaef09eaeb12fd
ebfef8e8f303f71b1e0fe3f1fafa16e31112fae5030e0cf619f81c02f000ff04
e70be7f00315f51306ee1a1d16ec190efbfcf01ae9f410ecf6f403fc1b08e910
1af61d080716ec041a080ce4eaf910e3e6e605f5f703fb0f18e2eeff0210080c
f60b09f6f50af51a1f15f314e3eb1ff50bf8010cea0d0a01e8e2e7ecede0e910
0dfbf21911f2fe1215e10c0ce203e5fff30a0501ed051609fb0e1be210e0e312
f408e0ea1707010b1c0b06f4e50e130b0d09e11ef70a0b0de108e1f4eee11d10
1f0d1e1c030205f7f51e171ef4f9e6fb0aedede0f8070512eb19f3e3eee6e106
e8eaf91c06fa191215f213031d0808eaf1f61b0100f0040e06e8f3ec110cf902
ea020ef7f1e21618f30904f5fff7e807ec0cfff101fcee1b1cedec021e0cf9f0
fae11ae4eafae5fb0502eae705071ff41bf6030613e910041601ebf2fe03fa19
f7efecfa16eaf81f0103071e1aedeef2080d0715ebe30803151cea04191d02f0
e9190815fe16eceb15feee0ee8ece60cfa1c071518fe01eaf9ff170108f2e414
0ee6e417ebf103f0eee8fee4ff14e1fbec000506eafef9ea1e100e1501120ef4
1219e31206f71ef0181816e5110c1eebe8f2131900e9e20d171fe708e6f814f3
1d0f12e5fdf113ffe10efb131be0f60bf71a0a0b1b011d0fe3edf2f9161108f2
f0edff1d14e60d00e51e06eae909fc051dedf40300f5fe19ed0d1216f617fb1e
fc1df9121ee9ea180b12121fe20212eafbf2e7fa0214f1ee1014e9f6e3e514f7
11e6f2fb08f710f1141beefa1bf11bed041af714fdf6161219e8edf0f3e8ee11
191af002141fe10cee1c03e6f2f2ebe3f7060e0ee318f71efa04f60ef3f8e712
0304e9f0100cfff0e0effb0cfafde013ef19e7e7fb181de81fe1091e13f2ec0f
e1ecf5e2020a1f05eff8fe1eef1d18f21de913e70401efffec061a00f8f21310
1b09ff160d0709fe18e2e61c0008fd0d1816030ee20b14ece701fbe412e5e91a
ff1eefe219e3f20ae7f2f6f510eeedfc0d03f0f51af209ffe319e411e404eaef
f1fee4ebfbf4e7ef041ce1f4ec05101d010e091f020af709e618ebe911e9ee15
ebfbfefd15fbf018e7f005fd1510e2171b091e02e7fceef7f5fa0e08ed0ff8e1
f61d0d07f4f6f0101e01ebf90de409e713fdfd111f1110f21df40c02e2e4fd0e
02e60604f5eae0f8f71fed031c05e4e0ebee12e2e30a0ae6e0f702fdeb0c0de6
f209e81be4f8ffe40f0512e7e0000607e113f0ec04f1f604f10b0bee1deff8e0
fa1a1a1efdf508e113151202f8eeee03020901e0e4000c1eef0600e808f6fc1f
0f19fde308f41d1fe7e31fedf300f30d1900f3011cf50de8060b0ef6f60eec07
01f003edfc0affe2ecf3eee7f9eced02eeffe4eaf006e505e6e5e7fe081801fd
f9f7e8f214e20e1ce1efe80cf2e3f501120007ff12fb0e0cf3180fecee08e01b
f7f21001e0080916fc09f6f0f30d1b070ee7f4e1ec10f6effe130105e5e7f41a
15e9e5f9f20911e1050bf9e1ecfbfc1b1a0f1d0515e3feef1ee2fd1beb05fe09
061b1de2e70f0906fde7f5011b1de91b16eb17feebf8080e0a161817070214ec
e503ee15071604fae403f6160714ef1d061ff2170d0103edea02e4f6ed11ebe7
1802f6fd03161c08ece91bf019fde9e0f7fc0f061917e614f5f0fc06f2edeafc
e21505f805f7fd180ae60ff2fbf914141611fdf2fa1ee6f4e8feebec1afee114
1415fce913e8f51dfd0ffaffe0eafcf618e4e016031f09f010f618feff171af5
e61a0f110ee0e0ff03f802f3f2ff0613ed1ee615ff11f5e7f2e9fd03f51b1ce9
ea1b1beeedf019f7edfe0014f2f103131cf21f0d16e5f9fb16f21c111d0f1ced
181cfbe7e61df5f60a12fc1a04f3e4ecfe15e9e3e509fa1ef01314fded1014f5
f203fe1702e2f3f101ea1d01e8e60fed08fbf7fe1f070e1606e504ebe51bf5f1
faed1518f1edfeee07e61e101f0716ebe5e4fb08ed0814ea18e21e1e010a1101
f70e0ef5e613ecff17ece7f1eb1e1cf9e813e7fce2f9fb1910040410e0e8f3fe
f702e9e5e01af70817eb17e7f6fe0311f5f014f7f0ec0df605eef8f0141c0905
f303f218faf5feea0eee02fbf017f4fcf50cf71f1d0b031810e11b0b1f0ff9e4
f202f5e3f017f10bfdf6f601f71b17faf002f0e8e5181ef201e3f60afc18eae0
00f700e50812e8100c0104f20fee08ec1107031204f11bee081e1ff1e9171a03
eaf301f60f001e19fd1309f0f6fb0d040cf51a1216edf7eb0f121e1700f70a0f
0de4fb16140f1a17f8000ef8011907fa0eff0f1b031c1300f0ebe7fc1e0af8f9
0eec14040af81cec0001e00a16ea0ff4e1f5eef40a1d10f603fdf80ee1fd13e9
1108f3f813f9110e0df50de31305f7f0010de2eae2f3ff0be7e7eef717ee0300
1ffde504040616eb0204f6f2e805fbf219141ff3fa1912f4e4fbf6e8eced06fd
fd06031fe0faeafb02f71b061410f50f1f02f515fc0ce404faf413f0ecf50b09
e5f10002fe03f7ed0209fe1f1519f6f1fc09e50f150bed0e19f9e5020ee7f608
edf40a040a00e8f10fff14ece41fef08fb04f5e6ed07031be01cf308fe0cf40b
fe08ec0508e8f1e8ffe412e816e51eef181b1be1f91008fe0a111403f21a01ec
e1e707f60de50a0cebf60c03171ae70005f0e7f501f113171be1ef15180715ea
000f170306f1fde60ee903e70218e6f705edefe8ebf80001e913e60cfbf5040c
0e04e2fb0507ecf4edfc030b05f31f0b191ef9e5f0ec14fb1c12fce21df419f1
ebe2e00ae9f30c1bf5f80ef403050103f4e4f4e0121fe51517f8131516f41907
eb16fa14e4efe6e9e8120815fcecf015f2e40810eefffd180a17e6ecfe071802
091bec0501ecee041d0c0eece3e2120d10030ee9f502e814f9f0ff0ee4e0140b
e8ebe20209041ce91207f1edfff6fb0315fafff0e41207f5f6f8efe1f6fce7f7
e4e4f313f8faec1507130febe70be8f0f4eaea05071fe80e1c1701e21e0cfff8
05ec1bf9e4ffec1bea0ae51916070203000d19f816ee100a19f012fce2eafef7
18e509f0e5fe0e0ee40a0befe604ecfb1415f016eff6eff3e3060fe00d130805
f3ed1609e4f60e14f3ea1d150004effafb0cf7eb19fcea19010b0efbe5130807
0f1d0de6e31d1ce50ee61504fee50601fe03ea08ee011efd0110e80ee509f61a
1907eae6e4f9ef191d10f816e50c0000f7e012f8ebf6e514f5e416ffe41eefff
091af914ec1f1a0af10ee2efe0f816eff2f6f8ebff0aee1d04f00f18f9fcea13
ece5e8ffe6eaf1e80c12f112f8f81a0e01f6fc031904eee6ec02e3ec051ef103
15e40c0c151f15e7eae80d17e7e61af8fb0c0bf6e81f1000f40bfbe706e8f1ea
0f18e8fc1a0d010815eb0ffcf0f100e206e21207edeb02e3061e141a05030cf5
0b101f0b19ebf9f6efe9f41b1ff8e4ee1910ecec1b0c19fbfa11f4011f010a01
e7fe0717e9e20ee41d19e21611f601e81d1ef407151116f9f5eb02e3eeee04f9
e604e1f5f3fafafbef100fff16171cee05e30deaeb031111060503f31de70aff
05050d1804eb0909fe060ce61202fd0b19e214f91912f61a141906f0fdfde008
1bed01ec05fff9eae6171df2f4ebfd0cf00d191ae8e415e9f8011cf8fff6e0f9
04efe7ea0cf3edfb0914fbfe03fef30e08eb14e302ed0d07e61af9e7ef05ee14
19f8fd15eafee0f7f6fb0c050a00fa1312e81e0ef8fee410eff21fe0e2e9010a
100a0bf9ef0cec111003f20d150d1908efe500fe0300ea0ee90f061818f1061b
eb08e81712fa19ea1a11190801e4f7131feffef3e2e108e40e1c1f1105150610
fa11eaff1d0c18eee2f60e01e7f7e7faedea0905151b0b110a07e60002fff615
0d1c0e1de6f21d05fe13fde5f3e409e416f9160d0d1bf9f41216f419e007ee1c
15060cfe0eede7ec0e08090deb0c1ae9eb1e1eed150cf8f1e2e7f91deef5eaf5
05eee10c15ed0d0b1b180ae712efe4fcfd0cf6e50a0ef3fdeff518e2eb1de6fd
e6181811ebeb09ec1e17f9ea1b0f0e0f03f2fef0f7190c000c02020beceb0c0a
021412e3120919effb000e08150b06e5081b0d0b1d1216fb04f0f3fefaf106ea
e5e5091d1b0c1cf91319fe1a1613171f08fbea171e0c1a0f1fec041b13f00702
0df4f7f6f713fcf20bfc19f10ffe16f8151e0104e211f4ea18f8f5ebf1edfb18
f4f3e20b100a05e3e30115e51b0e18f9e3f507f1fff1031516e50305f2151916
050c170a15eb120a12e4e5f011f60d01fa03181c080cee1a1b0c03fcea07e312
fa0ee9090903ecec04ee02e7e1fff41617f0e3011a10f9e11311ebefe51e0014
15eefd0a031ffbe01b0616fd1ff1110eeffc07031704edffe50909fd1af600e7
fa0ef8fce5e9f7f5e3190a11f0090ef715edeef30906101ae8e61af00a06f406
00e2fffbfb06e604e8efee03e2f0f8e9f5fde904e3f910e8fa020c0b1f1700f5
eefee80918f916f7ebeafff40205080aeee4ec1e1aeaef09edef1cfb0dfbed1f
e01a0bf5f80cf6faee0b030f1af609e7e3e2ee16f9f9e9e10deaf307f2f8161b
e0fde40c09f5e6ec05e7ef0b1bfbfde207fbf1fce7170b181e0d1cfa0d1f0a04
1410fa010b0602fa1d16ec1605f8fe1707ff0515e914fde806e1ea03fef610e9
020c0fe2ff09ee101be6f1e6e2f10afce3e102f8eb1feeff1e03e8e01ee51512
11e10d061310ee10eee5fe020bfd1e02e8f906fde1f7e214f719e9f3041803f3
0206f3fce0e100131ef0120ce9fcf1f1ff1d1cf0fb0ceaede6eaeff9f31eeefa
061817e01deae811f806ebe008f819e30a05e4f1fbebecfaf207e214f00707f3
f61e111ae1e615e9e7eb1ff6faefee13191015f30bf1170c00fa00f911ec1c19
050e1df50cfbf5f014f104e0e918e7191aeb17e4e917f008e014040818e9eeea
18fafc1ff40512e40e0e16e313f1eafc19f20708e8f0e60c0d161b17fd040901
f6130f12e21f09f9f3ea0aebe4e6f8020d10e2f4f4e01312f016eb170fe512ea
f8e9f8f912ea19e607fc07160403fd0e0efb18e6fa01e21b04f1e40ce8f109f2
03ee00f319110309f21a0bf6e7e6e8e3e3fbf1ed0b0011f40604fee4041e1207
eb12050f0f06fa08e1fb0fe7f7f4f0fc14f7ec0c14050a13eb041a111ffee5ee
fde6f1faf2170d1802f30d0d15e20bfbe806160dfa03e206f8e3100ff4010cf2
f8f5050e08ef1ae215e217e0e1e5e90401060f0210f7e1eeebf41719f10a1be3
e6fe17fc11f013011aec1c03f5ea181cec12171ef5181007f3050dfaeff51df7
16fa09100019ff18e4e2e10106ee0fe2f305ece307f70f09fae40af7e508eef7
04eef3fee9fee2e40ef60b0c0cfbe1f6ea1ffa13e8f0fc17ebffec14eae2f9f6
ef13021b0a04ee18f7061d1ce0e0e318e812f208e31aff1deb14f014001b001d
14fd16061903f9e613f70a0719fb06e919fe0f18ed1ce504fc17f5e5e5e31a15
ede901f5e000f612011a011f1a1cf6e20f1ef0f3edef0d1ce2f5ecf4edff1705
04e01103091d151e1bf2ef12190bec05ef0113eb17e30ffb100d07e31a16f70e
05020efdedec0111fcf0e7190c110df6e2f2f7ecf91207e40a1bec081d0c0a0e
00f7fc180e1ee0ede51c1f12f1f815fae018040f160efaf8f10a1304f3e6ea1d
18110eef1cff0e0607ffee03eee317151f02fc0e0605ed1af6e3f10ffe151d1d
011401ef09181a1006ece7e7f714eaf4eaff0115040810f4e312f4f5e1f60917
e4fe18010af5f11ae5ea18ff15f6ece9e01a1b09eb0407fe0afa0f16f4f50e1a
1bfb0af5eafc10e90001edff13e4eeeae4f303f0f51202e8e4e1101de7f71a1e
01e3f61a1604e0f801f5140eeb0bf913121ff60ff91f0fe3fcf9ebf0e30c0918
0ceeea12e2e606f815fff41ee3eb17e0e7feea10fa1e1c05ef020b04e2ee0bf4
0e01efee121cf0070815fce1f3f714f71205131e0ef409081810e4f0fee90f03
00e8151911f1e1f6ff1d030e0be6ece0ed13fce51613e71af9050d0616fefcff
ede9e208eefc121ae706ed01e609eef0f8171918fcf7e61df918e11c1afee006
08e6e8141ae005130ae7e5f3f50af1e5160012e5f808f4ec0405e8e8111be9fc
0f11080cef04e00e0beae70f1a0004ebe3e40210131ffe1efe0eedf0fbe6e6e2
e115ec03091c0fee1be505f90109fbe2effe0ff01feaf0e0ecfff01f1214e816
e81c000ae613f3f2e4fc01100205f7f108f5fde31ce4e41f03011bffe9e4e6ff
f701f2011802e5edfd0c070014050b19ec0cf0ede20ce907fff7ed02f6e8e713
14e9f3e5f10feff2e0e7ebfc14120d1aeff9faf71c0717e3f816121610eaf21c
efefe5e4e11ae8e00d191f14ed1a09f2ea0df40717efff10e8e7e300eb02fb18
1603ff1decede71f16051c0f0d0312ecfef5e307fcf6e1e51b150def170cf9fa
efecfcf8fde4e5e901fc1e0a0118f31a1aeaeeef05e4eaeb13f402f2ed1e1502
f1e0ecf5fff41d17f1e906e1eae00cf600e1090befeee1e30df9fcfe08e3eef3
0f0f0116ff171f17f0f7ecede0fe0ae6f20513e7eb13ef04e003f1180c16e312
1ffcf113e3fc14f100e40c120715f2f21bfe0b16f514ffeff9e60e11f2fd11e2
04e31e14e902ec1de5f1f4ebece2e0100ff9ff00ede5fc1b090e1fe70cecf1ef
0e1702e4f5e4ec000ffbebe5ffede5f00902e0ebfafb1dfa11e107e4eee809ea
fbf9ec00e8041c1a1fe4e317f11ff815fbe2fce407effbed00e3f7fb1bf20a18
f215ff1af5fbf8e40d13f2f50f19e0f2f5fded080ee9ef0ff51be011e907151d
e80c14f304e814ec1b07f90011e701e30106fe06ff19ea0e14f50ffdee1c05e1
e9e7001f0bf70df2e70ff8f6121106edfd1e10f601fd1eee1be5e9e60b06ee15
10171b1ee61cf9f1f3e3f7f7e701fcfc1de8f9f3f913f217f901fdfce01df715
1a03e0e9e4e9f6fc131af61df1e7f8f9e21005e71a1912180a0bf1080ef8eae9
ee14120807f2051d1afc15fbfde115e4ec1bfe19181ee2e5fa0609e10d0af8f0
e5ebf610f815eefa14f617100c171108f5e915f314fd0df910f71cf11c06e7e4
1d1b17021b081df8e4ecf80114f013e9fbe009e2e307fb1af2140ee605e90ceb
04f900f91712f0f510f5f80508010ae9ec121ff7e9f7f61b0115f6e1e41e00ef
f11ef8f313f018050c0fe50ef3f912fc0cef10faf3140d06f8091d16fae7170a
f7f3ed02ff0712f315e011f2f9fa1c0b12ffe8f3f7f113150e0dea08ecfb1ffa
ffed14e517eb1fe2140b1bf5e3feeb0104e11d14e41415fded0a1fe106e4090e
f5031de5fc09120f0cebfdff14051100130010e80df0efe9f0ece5fae01ae6ee
0cf0fde3fd1811fce0e4e9e1f9e0e91b1f00f41ae506f003e6f7151af0fa1208
16ec1d1a11fa1ceefc1c13140702f9e9121717f8fbfc04f9fd18eaf212fd04e0
00ed0b03f60ce7f5e515e41713ff1b1ae1150bf402eb020f1006eb121cedf2f5
0217f10ce3100b10000215e0081c01fbec0cf70c0efbf0f8ff01e9fd131d0201
1811fee91504e7e010ede0f213e3fc03ea1ffce8e0ebe3100f0f14e6f51a04e3
161419e50c06ffff1de9fbff10e41209fee4e80df61d1c0c19e90ce806070d03
f31912110e1fe8151e09e7fae201e1111f1ff3e9faf50af00a1df4051afd000f
fc1f110e0ffb1ffbee0315f80afffc1ef5f4e5f41ff6fd1a03fae613f716ed02
1febebf2e2f1fff910191ffa191300e8e3e2e91a0f15eefcf11712e3e21a0dee
130cef111d1508090b110408031fe918ece0f00afde00ff01a0be3fbf6061417
eceee40e000100f6f1e00a1413e30110070c0806f7050e07141a150c16ec08f3
e4ecf50d1603f718fb000a001ff5f61ee7edf31fe3e4f40e09f915131dfc15ff
0c1df311151d001cfaf808eaf0e1190709e2f3011f00f30ff31fe90ae5f3f0e4
ffe8e6fdf4e611f1f8e5e6ef0ce1f1eaf8fbe400fbf2e5191700ef1d1bf40be2
1ef6f403f20ff1f202fe0a1eeefa060502ede5f1f60706e9f5e1e51613f4050f
e31ce305fd05e7e9051f09e213e50e0de9091917ebf41aece8e6091e0ee6fd1a
e5ef010df1e6e212eaff17e7e51d0e0d1cf7e2fa1c080717e0fce3161e0d1be0
f507e106e9f0fff8ec1afe0af5fe11e514ea091c0b17fce80d10faf0ffe1e109
e816e7f10afdf2e8fcfd0a04051506150aeeeb00fef20bfbfd1def1be4f3f510
03f0181a1ff6f10aff0cee1901f7011c09edebe114ef1bf4e9f1ec1ae9f21217
0416f60a06191c1be8170e1111ea09031ffae2070d17e719f509020514f9f41b
e81c091feaf9fef5e0e5e01ef302ff010bfdfef1f00218fbe81305ee0f10f604
08fa00e6e00c101ff7f91cf5edf1fbe3131b14ece5fcfc18f9ed0e19110414ea
e712fce0fa1becee15e41bfb0df7ffe3e71f08f71d1813151812f30aee01ee1c
0cede605e2fefde00805001807191611e2110b05080013ed16e4ece2e3120316
11e91bfb0fe6eae9e9f9e710f2ebe2e4e41403fc09f4f30ffc0415f408f41c05
121a1ef20f0416f3f3f4190ef00aea0c18161be2011619e61f0ce0110aeae8f4
111ce9fa1f1d0d1b0c10e8ebefefe0e3e2e914e0eae810e4eeebf3e3fce5e302
f3fe0719faf10d1e1ef6e01cfbfc01f4e11f16f8e9faeef6ed0af209e3f70917
ef0f0216090eeaff17ef170deeeb1516f31f160ceaeff8f8ff05eff7f4fc1813
e5e01119e1111d09ffffe410fa1bf70901f8120df3050603e9ee1de4130b0fff
f300e4e504eae0e807effb1cfae104f4f1f0fb1000f618001bf60bef100deb06
eb0309e4fbfb0a15e5e7e9081101e2f5f9f0fc06e0edea02f410080ced091b12
0afd19fd1ff41fe2161bffeffbf719f6f8e3f8ebf6e109f00206e0f60deb1d09
091d0ef60c14e60415ed0c0e09ed15fcebe209e8fceceaf5e3040b1e1010fb18
0d1af40cfef7f7f61de7e60f1ae6110e02e21d1311060e0d18f0faff0d03eaec
eaf81a0b1b1e02e5e8090104171ff1e1fc0be2f4e0e2ee071df90c160af0f5f0
0ae9f21de40502f0f8001dfdf503f100eaf7121509eff2f5eb1a16fde3f20cf1
0217170efa11e6e9fffaf2191df5fbed0114011204effb091b1f19ff0a0e180a
effdfceafbf50efb161e1409e40b06e8fef01201180c0b03f5e70012fa170b1b
f50e18151b14e0f2e4e11c1e04fa1a151e05ee0eeee7e8160a1b1e061eef08ed
0a0c00e8eeeff51c1c1a090afde5fee7f208f6f71519f1fb1ff8ed1d18140fee
090f170712e919e90df1e8e2ea18e0f2fff8ed000defeb1de01ded000a101c0e
eb13f0ec0916f512f3fa1501e0e703111403e7fc0b1401e0e00bf309131ff80e
12f60a0ffdeae0ec1113e00ee8f20f0fe50bf0fc01040b01f3eee7e0fefafa15
1a1df3f704f1ea1f1008f106f6f30bfc0e010d1cfee1f31f1e061014fbebf510
0dec1de205ea1110e3e91ff904f005e4fde1f5ec14ec10e6e305f8f0110b1df9
fce0ee1de403e610e6e8e0e00bf5031413f11406e11fe310e502151914eef4e6
02171afcefe8fcee081a1de21908e61c0cf9001af10c1ef8fb18f80aea1212f0
1b17ef15e2ed18f8010e04efe0f6151b16121bf910ea09ff18ee170a0000ee14
ffe906f5f2e6e11817edfcfcf6ebefe0e00c0717e900ea1712e004e81913fafb
e8f514e6ea03ee08e9f7fa15f5080b1200fc050b1c0f091214f40908f70419ef
1b1d1fee010f110c07f1ef08fafff3e1f2f2e2f20e16f1f2e2140dfc13e8e2ed
e318faf1ed14040705f4e81803e8f2fd08040b0df301ee14e30cf0ea1700f3e2
1a10eae500faeaf5ea1feee7f1050eff151c00e114f6ea0fe707011f06fa0912
eb0b1813f1ea02fbf9f1edee17f309031e1af707ea10f8180ee50a0e0310eaeb
1d1dff15ede6ea0ce30cf9ec00fe1be113f2f0f1f218f20c1bf10c1005180b18
12e609e2f2170efcea170609effee21a11ea10fc1fe7f71f1be6e2f30e18e9ee
14051b16f1f7181afbe01007fffef71f1a0f00edf91b1615f10be0e218f917f2
f9f51dfe08ff0c19ebfaebea19e5f713fef6fe1b16f8f51afffd12e3fefc0a1d
f702041f0904041df4f4e3e11719ec0a01f41dfde204fffa0d05f8ff15110a0a
faea0d17e5f6f91cf80ae501ed13fc1b01eae2fee1fc19fbffec1be81b061a10
ecebf919f50ee0190df21ce8e41af4e7f41d0703f1e31df8ec14f40fec0512ee
e20d0d13e4fc0d190d0e05ffedf1eb06f906071de0121d0ce505ed0fe80ee704
0219ea1a1ee4eefc16f6000bfef7fe1f15edf4f20bf01904e31e0d02030ceef0
08ff0d191f1eebfc04e8e7e5031100fbf8f2eb1e110905e809f8ecfb0b1df2e6
e61813f907151e1f0e03e7f4f8ff0be2fa1ce3fee21b0af6e2fb0def08e109f0
eef1ebeb08eefb09e2fdee1d010405f5ea09f614f40c0d04fae3e10903fd0303
f608e20713e60ee702feeaefe5fce0151618f9ea1705edec0a1bed1c19f20609
feff0afd0ce3e6fdfcec09e117e4e31af9eafc0c1df21c070f14f718f0f6141a
f50ceef9f3140af0eef4f5ef10fbecee1e0911eae1ee090b190e02e90808faeb
1500fd1d08f512f11306f3f6f203e3f91100e112011ff9eb02160c111217eae1
03e2f0e2e3f9f00ee8e30918111e0f05ec01181de5fee11f0efb1510ebf61aff
f30ff7ffe41e1a0ce7fa1bfdf3f314e019fcf81c02090cfd1fec0fe21006ea05
f2020be6f805eb0307fbe3fa171d1fece7e81e0d11f31d1916ee0ff41000f0fb
1606fdffe70c09e3f2f7e4eef0ff03eee6fb1d140916eb06f00916e9e31ffff5
1f12f9f3120eef04e6ee1f19f60005f3e90517f710eef3e51b190b16e2e707f6
e3f5eaf5e213fa1e16e8ee04e71903e017fc11e70e0e1efb06eee000feece0eb
01eaeb1bee0d06e4f3e7f6ee1eef1e02031202ff01f2f1f40aed1b1ce8ffe4e5
1319e10d05fee8170df114f8f2110be5e805ee0f0a16e211fb0de70de91aec17
0a11f0ec1fe410070f1911e60605fffc1c191e1ef3e61e07e3020d1703fb161a
1413f31cf302e415f0ed1f001f1fe9ea1f1d1de7f8e91de1f805f7f1f3ee1005
0e1ee31cf3fe010a071106eb1f170df3f3ff18faf8ecea0f17fef605f1170e1f
17e0fbfa1f04f10ce116e5e2fb0709e90cfc1a1ceee1f9ffed0504fa1fe81bfe
16eeeb0201ec1710f10febec09e3f81cedf40defeaf40eeef21711fe1df21602
e3e11ffdf01117ea07100315e803f112f903ebf4fce40e1a04e709eae51d1313
e4030dfee30ee005e4e71af51b05eb02ef0cf91407e2150ff4e9111bf0f2171e
01141e16e917f7ffeff71d03e306e3ff14e6ed10ff0d00110a06e3f7e30c09ed
0a11f2e4ff0614ef101b02e2f01a0d02e1fefd19fef9e40ae21aee1ff6ed18ee
0309f6fc1dfd061cf11fe0e3f4190af8031d11f2f6e118e9061f0c1cfdeb1ff4
f40efef80304fb0a0310e21c15f718e90df6ede1111a0a0a1b0600f2e119f11e
fff913010dfcf60d01eee2ea0dfdf7f7fef00bf6f8ebe8f2f1e91c0f1af7f5f3
110cf6f41e010e121803f3e4160de51a02f1ec1ee7f5fee4fef7eafbf7e7fa16
10fffe0517f0edf316efe809ed0ef410fc0d161506e617e31ee016111b0aebeb
fce8ecfa0c1eebf1f514181c140b0fea121ef1ffed0816eae1e604edf7f917f8
0113030b0af709f40cef04ea11f219f6fc0dfb17ffe416f1fdf7fa150d121616
f1fe141506ed13081908ebf812171d1e040ee21a10fde508ed0cedf6e0f7eee4
0910f8e0f90bfde3ef0dfbe602ec1c1f1f0f13e0071d07f2eee0e3f5e619e9e9
13111af00a12fb0ef4080e1114e606f5eaf611f514e31feb14e4e2070d0ae6ee
e6040f00e713e40f0f16f111e4060df3efe3ed110b13f2ed1200090df6fd10fc
0feaf2f3ede5e4151412e507f6f1f3eb14fde0ee13fbf40a0b03fc1afcf50116
0111f0ec0602f4fd14fa00f91deeec1703f7fcfbe913eae209e31805151efcfd
f4fcfd150bfaef03041f17e1e60aea05f5130310f2f60304f501e7e107f8ebec
13001af3edef0cf5f8f5ef0afafcf707f8eb0b0bf7e4ffe71df506eaf5eb1ef9
fde6e9f3fbfaf21f0a091ef0f506f3fd1bf5fbf90cff1107f1e714fce800fce7
e007e3ef16f3eae6f8e6f60a0817131d10f0030d02e614ef1fecf91601e71213
ecf1fcf61ce7141400fc08fa12f7030f0e16f31702f7e40e1907031afc0dfc0c
17fa0704e70fe8f313f710121fea1b0200ee14e8ed19f51e0214ec1fe9f9f8f7
10f6e4ee17eafde7fe161b18190ffa16fa00ecfeff04160e1013e1f00519e409
0f151514f1071e06f816191bf5f4f9f300e0190def19eefde6020314f80e0afe
eef903fc10fe1dfd04f3fb09fae0ec1f0bf7eff0f105131005fd1deb1910f616
0be9ea191516e90b0aede4e6f20ff711eaf61c010216e6eaede7f10df5e9f7f2
f3071bfff9f913e911e0eaf7e4e01d05ee03f01118f709f319f6021a1a171701
0ae00718e2001e1d1c1cff0419fbefe2e706ecf30513f904101e13ee0a001213
15eff7eaecfc110707f3e7f6e7e30817e21af00b10f2f507fdeb02e7171f1707
f3fde2e90112041be5e0fa171be5e3fd181e14fcec0403e7010de01ff3e5000d
1912f003f0e41fffed0fe4ec0cea021cfaebfd03fa161c10fdf70efbe107f006
f3f41005f717f71fe6fcf5f105fc0cfe05120ee3effc0cf50bec0ff91503e804
f4ed10fe1cea0ee1f91c1bf5f50e1df6e5181d1707090f1e1cfae7f7fdfae91e
1a1e181f03fc09e4070efc1dede608fffee2ed0df01be7fb140810eaed0bfd16
e0edf70bff1efd02efea07f70402f80ded1aec1fe109e507e7f2e5e9f4081105
1b16eafe1507ec1611f6ece0f5efecf000faf5f61c02151d0cfb171be6edec0f
fd0200010b09f817e80bf814eef6080917f61516f2e7f31805edfd09ee1403fe
1d04f3eb0aee0d12ecf7e2f1f3e4e20ff8f9f4f819f91fec10f30bf515fbe3e8
00f80516e91bfb1eebe2f7eef0fa05ee13e1e809fc19f5ee0ae9fff0e60c1307
e4ec1cf9fff81af3101ff0070317e9e8e301ecff1dec0bf0f0e3feecf7f1f206
efe0efeb1ef9e11e071318e81dfc16ef18eae3ec1de8f4f1e5f3fbf411160efa
ec1af00ffcfbe002fd141a18fce415e60818f91bf6f6e4f20f01ec051b111d0b
e3eb18ffe30f19f80ae8e01a14180ee312f20706f4e7f516ffec0bef0804fcf1
e2f9f5e50c0de404f1ffe71013f103f003ef0b0c12e8e7ec071ee90700e10b1d
07fcf11505eee6fefefee1ed1df8e7f9e3ed181bf4ed13181c1a16ecf1f6f3f2
e7e7ec1a0903e6ff1df90becffe61ff80e0c14e7ed1be6061801f71b1af50ce3
fa10f5e2e7f506fd0af1e0140f0d00fbfaedf817f205e5050114ec1e04071905
faf51affe90401f50717e2eff301ea0108f4fa150eee140c1d02e6e2171dfdfb
e9ff08e504fb1818ffe4171df21e00e7efebe81618edfae7f3fc19050df71b1c
f605fcebf6e6e21a04fc161ffeedf1e210fb0be9ec180e02e01706ffff0204ed
1defe1130cf4fe1df6100fe4ebe1f41ef21ee1fcf8f9f7fe1a1e031aeee91410
e5fe16f3ffe30a19e503f2f417fc121de00d09fe18121708e615141e0c1aedf8
f90ceb09fe040a1efffc1e0ce00af2ece00df9e3e3040df5f6e4f11e1f0aed06
e30feb03060c07151b08e1f0e0f10aec0004e91300f801f3ed13ff10ea071e11
1c11f5e71c13ec19ebe01ff7f8e11df013f2e7ecf909e3eeed09efe015f41100
0c0de11a150107e7fc0501e7eafd0e0d11f5fdf6eae1f00c12f1f6fa0b15f711
e5e300fb17ff0510e1051c0417f3ff06f7e6f3ec08ef0a1ae90be40e1c170df9
e3eefd1e0ef3e2f1e20b0a151c1d0ce1fde1e31607ecedef13f6e61ce215f5f8
15e7180d05fae6fc0014e111e41afaff0f0710ec1f03e306141eedfdf8ef03f0
eb02e60f14f61af4e3ec1afde7ec17f40c05140a0b13ebec19e60df1f3fae4fd
17041c1309fd14e80be7e0eefd19fa131aeb15f2e2150b0705e7fbf0f7051616
e7e9fbfde80f161300f6091fecfc19f6fff71214e0f3f9fee6e7ed0be2e5eae9
ebe7040b0902ece01ff3150ef6f4e6150d0aeae8100c1913fafde718edf8f100
171618ebec13e7eef6e4efff1ceb05e8170beeef12141401e01417eae604ea02
0c00e6fae71200e7100b0be7fb1af3180a1b1318fcf1fbede51cec0c191fe500
ee16031204001e1d1308ec09ed0bec07fcfb180a011705e012f415eb0c0a1c1d
ee1309191c0709ff1515e500e5f4f9f006e91bfe00fffe0af1e60a06e01210ea
fd0a11f50307f1e50d0706170dfc0df6f5e60107f0f7eff4fbe306f40d0902fc
f609f6e7e6f5f3150efd0112f30de01f1ffa010ce407ff04f10b1205f0101311
f5eb0cf4e7140310ea02fbf7f8f708ea0b0815121ce3f002e8050710e6160408
f808071ae317f2fb03f803060e06e7f2eaff10070a19041eeb1405e11604fc12
feff0605f9fd0fe1eb10e4fbf1ea0f05111b18170d120cf207e404e5fce801f0
0915f810e7e70cf9f9140ef51d131ee3e1fefc1302e5fd12f9e1110412190c16
ebe313f017efedff0df8fe19e202e113140315ec16fee819f61b0e03e8f71d0a
e713181beff7f419eb03f8f21d17e50d0fe60a1bff08f416f8ede40314ecec08
f6e8e709e2f4f3e0f91bf3fb11fb171af00b1617f415ff07040af60df7e80502
1002f1f70fec13e71cfef9eb0f1b091eea1f0a00f5061f071dffeb0ff70810f1
1d0f110ef70410e80a1503faeff20d0b12f0ef050d1a1be3130bf911fffc1eef
12030a0c17f3faedf707051606e5f9f7e500edfef8fffeeb15ebe017090c0bef
ef021a1518f0f91de1e90bf71f05e419101cf6e2e0031b0109e9fd1e12fb02f8
0dfc1cf2f3100ce9e5051d07e01d1f1f05e303f3e0ed05f907fee4e809130b09
e8e11c10ee1c09ef11e8edfae1ed0719fd03f4e2f1e104e4ebf5f0f707e4ffe2
17f5160e09e41df91ffc1e0b09fc0e14fd0e1008160211eb16ffe402e1e2e1ee
ebe9fce3081f15f6e10910eb05e3fbf3fbf511110214e9fefb0b1ff607e4f801
1aee06e110ebeef810070415e5e9e0e0fb08f90f1009e816ece1060ff0faf0f6
f2efe213f419f510fc1613f30ef113f8faf210f4f7f4fd191012efe20fe4f2fd
0e01f61ce916e905fd0e1313e8ed0d001cfee71c1c04f91d0c0015f4fe110ef5
01fafcf80ff0050d1bffe3eef8f8f31303f8eb0dece9e019130cff191e090cee
ebf5130a07e4ea10fa0908e5eb141fe403fe0b19fdf80318f50703f70af61bf4
fbf912f40e1a02f1f4f7e0fa08fee7e3e30201f61b05050e17e8fd0bf8edfc0f
090d0e07051c07e213fe001f081306f6e50c1307f1edeaf5ff1e1202f20beffb
e1e2f0eaf3f8f916f50eeee7e2e4e31011f2fc13f308f1f8efe208e906e6fc11
fced1a0416e7e116f3fee614f30c0c0cf9e6f719fa1de8e4e70df01fededf21c
05ec161af116e2e8190d0ce41616effcf5e713051be6e40cf7f8f11afe031817
fdecf7ea080118fdfd10eb12e8ee161b13ff01071d06fde0e8f316e1f8e70a0f
1fe717e7f106e31aeafc0aec0c0ae6f9ffe4ef06fa0ff3eb19faf80be8e4e7fb
eb0712fd1bebef190c0d02fbf1f815151fe9fb1c1015151cef0e131febfef71e
04111201f8161d0e1d15e6170e05f7f4e8141a19181feefee8020206e219e9e8
17ff01f5151af516e6e9e3e0110706ebe619fbf8ede2e613fdfefafeec031416
10f21d09f3ff0c1e03ec1218e01befe0f3eee9e0fd0d080e1deb0604191df207
05f80a021a130205f3f1f0f5f2f904f01ee4f5eef2f4f1f405f2e509fb15fa15
ee0b0715f4e3f2f0ede1f7f0eee3ee0e08e6fa1dfcf018e7eb1e14eff9efe70c
0913f10c1b0de2edfb1bf10f171913f0f507e005f50e02f0071116ec15e40af9
f3f312eeee130d1c031ce0e701e8040e0ee3feed1803f90df0f01002f7e5ebe5
14e9e317ed040414e6f8e9fe15e90610e8f0e1ec0215fffae3eaed1cf2f81f15
0b17e1f60ff1ff10f3f91a190fea13f50dff1ee4feff10e5e4ea041b0e1b0a02
1f11f1e508020ef3eff2e3f919e00ce40f06ff0ee8fcf8f9fae7f701e8f5fcf8
0df8f418ef0bfbf0f5e505e318fdf8f1fee6121108ea151f0717ea1a09e502e5
e306fdeefde90b161d18120b0a0c191f19f60be6f1e518ecf8e805ed161af2ed
0512e902f309fdf0111e0902090ae30bebe61a0e10e0fd0ae6e8f21efc0010f2
eb1a080bf509110f100ff8190718ffff0e0d0602ec18e6031be2e7f3faeb07f2
16f6e411e1fd190a06150de6fffa10f0100cf91cfc00151cf1f417f7f0eee707
e90c041f0de21b19e8fa0fe509e50cece0e1fc03fafaf3ff1111e902fbfaf4e0
ee0be3070ee9efe3e91a171d050f160e17ea11eef112fb0fe711e704081d09ed
18f71bf90beff10c08e215e3ea1a141d08e117eff3eaf2fbe71616ef0804001a
f1f410e71b1be215f8e113e2eefa15fe15eaf4e101fbe80ce40d1fff0bef05fb
f604e3e1180f060cf004ed0615e718e8e30808fe1be2100a171befeee0fff3f7
f1ebf41c020ae309010ef0060afae9121610030b0f0eed17ecfafae602fcefe7
ebe51b11e8e202f1f0f80c05e0fd05e9f704ebfd0718ef02e903fbef011b0d18
04e2fd1df3f0f00a11030e011be3fa1b0512e1060d0f0afce70d1f140d0cf4e4
1c151f1cf81ce61911130717eaf0ffe5e2f009fdf51a01e40816eaf6051cf80c
0febf609e0ec01ffe0ffe8e50ae10bf6e404ecfc01e8ece3fbecfa0b0e09e90d
06ee04e9ee17e604e61ef1e8e3fbe2ffec07f7191b08e5071fff0feef8feecf1
f4f7ec09e50113e2ef15111eeaedef1a0205f917f3e1ea0f17f704e5f21204f3
1b000bf0050805e3f3e8f31e171b15e312fafcff1a1515f0161df30ae102eeea
10e90d02ee1009e5f2e71d170bece2f5fb1009fff8e61fe4151c03f21a16e308
14f3e3ece4f303eafeedea16e8e6170f01fbe8f50614eff30105e4e012fefef5
150b0ded08f502f6100ee8ebfae0fd1b1f0415e8e6f8f6e2e71a1b091de60a1a
f0f112e90e02e7f6121603e810e31c08ed13181afef118100ef416f11003e000
0a1c16f6eb04141f1f14eb13ee051c0e0b1b14e419e1ec0e03fae01cff0ce4f2
1117110e0bebe90ff01ffc170be21c0c0108e70109e4ebfbe61a19f80aed10fd
f70d12fd04021519101e0d0df5e903181907ed090501e2edecf6e6e9e1fdecf8
f50b080ffa1a001308fd0d02090605eded09e4f8e41f0708eef2fa1ef9091116
12e0fcf5f51ff9f4f4e4e6f4e6f116ea1c08f5ea1bfb0802f30907e9091bfe01
e7f8f9e1fef0f61fe707eb1d1be1151fe317eef0020d1916ed1a0be619e5f20c
0be503efeaf5f5ea16140b1aec15f8150dea03f10b0c1309e91218180d0c1beb
12fefaeff5f0e7f91b0d001ae7f5e314fb02110204f4e6f1e21af612f20e0010
12fde909eaeef90f1f14000eee12010ef0eff10ae9f1150be8f71318e20419e5
eff71df9ebf0fae1e1faf61519ea1b06f01317e305ee05ecfd161e1bf6fee0eb
01e81a1e071c1de6e0ff18e7e5e01f1ef00af2ee15fde9fae9edfffae616f31a
09f6e0ec0df6e8ebf7fb131bec12fb0711e7f21eece40f0de3ff1716ff0de70e
e207e7031900f117f1ebe1f0190c101c18e6141eee1fe0f009f00e0af5f5e61d
ec1112151317ebfb1118eb03f809f2eff7e4e0f90e0ef7e4f60c02e7f11a0bf4
f41df7ed16ecf9efe7fd0ef6f50103fde9ee1e04fe0510eb00ff1c0ef60307fc
1a1ffbfc110d0d04e2f3e51c1ef6ec1bfe01fc13ed01f70c090de4e6e001e3e9
17fc11ec09effff2ede1f513e70a0f0d11fd1d0e05e210031ce1efeef5fbf0e2
ec0301fc07051b13090afd16e2f908faeb00f804ee10f01f1506ecf4f20ef209
0005f0ff08f0ebf50800efe1fc0f0403f818f31ee407f3e51b0119f8061516f3
f608e7f204f4e00cf5171cfde800ef03f3ed0315eee2fbe40bf91cf10ee003ef
f8e51703e2e4f8fc19fde7150419031d1ffb0d0a11e41aecede708011219f1f6
fc131b121a00fe06ffe213e8ecfbe303eff9150e05eb0f13f6fae21302f6eaf5
04ff00f3f3181918eaffedee0c01f80e00e71c131df31ae5050a160509eb17f2
08e807f608e403f3ebf80ee40501e7f1fbe8ec11f3e801e3eb0be5ff0cefe4e8
1d000d0be5e80bfce811e7e30bf80719f41fe1f5fce8ee04e81f1eea1c0afa1d
fee6f2e31de908e6e10e16fe071cf20911ecfae81ef9f709e70f1aecf4eb1701
e1f007f4f30b0918e21d100208ef111ffaef04feeb1709fd0be701091a0fe4f2
0f12f01afef0f7e1e4fce1ff171914141c1406feeaf815f203ede9fefd18f41c
e00ef7fff0111ff00af5fff7f4ede91bfe07f8e10d0fe0e112eae4e909e3e713
e7081cf71008ec0a0d1be3fe0f17e014e6e6190613f7fd0d05f500eff91fe0ef
e6ea0f0ee40515f9fa0aede6e7ee08e3f91b01f4ee02e31601f1f3eaf2e2e8e0
110cfbff1d11e5fb1ee20fea03f1fc0018f00ef0eae6eafee00a03ebf1e10111
fa1b1609e0e6f5e1eafdfae6e30efa09e70af41415f70ffb060ff20eebe8e1e0
f70003111a090d07e90fefea001ef9f9effe0af2faf3040be21a1fe3fdf51ff7
031bebfa0d0ee90906fae0e2f3e7e0eb02f4fce2f8edf90c161dfdea0ce0140a
e0f81a15f3ea1d1be10217e10e1a12efe4edff10fa08ebe11105e815f8001b10
16edf3e9190c1d1ce41414ffe4e11ff80415effbe602fe0500eb16f30df7e8fd
061805151fe0e50809e0e31700f503ecf205f6001b1b1307110ce109111e011b
ff1b0018fb02fef516fbe40c01e71eef06e2e415eff81104e0e6e90e171d0209
0e161cfff70008011f1511ef1b11f608fdea15faebe4090a13edfa11f915f1f3
e700e7f91700f2eb00fafce8f41cf50709eff8eb0de91de1f8f90ef81ae0f5f9
1bf3fc06e701f3f3f7eef60fe213ee01eee70918f40307ffff0b02e9e3e010e8
1efa17150c150df719081e03ecf31e1b0c1f15120d0811e0e7e7f2e10101f01b
eef402eeec08fdfc05fb1ce117fef4edee161218091006fe0207e5e1ebe213fa
fcfd0bf4e0f2e1f7e6f11306f0fde81c0a181df3f30e1cfbf7ee0a0403101aeb
ecfaf201f7e9efed000206f7f9f5fef1f61e1704f7e20bedeb14ea0df1e3efe9
1def060c1617f003fae2f5e5040ef71706f314f508f6f1ebfc0e09190af2f41f
fbe0f117061715031ef11f1c12050befe8060a1ee6e518ed1af2fcf5ebf91503
f4e919051208fef1fdee10f30d1c1003f6080b0c0d051f00eef104ffeaedeaf8
0cfef3e417e71a1af40805efe5fef01ae1ffff0ce0e801ffe00ee2f6eb1b00e2
eaffeeede408e7fe111e0e06f70df5ed0015f612021a0c07f3090af4090d1de3
00fbe91cee1b0cedf6f6fef60ae1fb0c07f715f0f2f203ef0fe309eb1af112e5
150e1515f4fe02080cfb0df0f80bf60bf01d1eee0213f7ff00f3ee0df71d16e6
05f8fbf6060be113040eeffafa1a080cf119ffe406f8e2011f1cf20b0bfcf90e
e31de414e0e2e3000405100afee3f3eeec1de8ede702f71ae9eafa1f1afbe207
f7f3e81de3ed1f150511f40de10510f2ed0af1fbfbe903f0f2fe150216eefdfe
06f616e4f0f40902f2f7fef31507f81a04170fecf905e307f01513ffeaf1eff6
0af0e7e101e6eff502f0fefeece20df8ef10051ef5e6e1e5edf81ffce3131ce8
1a0402e0f8ef041603f018e71de41ef819e9eafa03e3f11b1d04f3e4fb0d170c
1aef12151ce2ef0ef40817060de9feeaf41e12fff81d17f603f41b0bf0fe1ef3
040d0ef31efdfa02f0f9eaefff0516f9f6101815e8081ffc07fcefea1110e5f7
f11c00e0eee51c0e1919fd14f3120819f10def1eef1ee8e0161ce7e2f50ce60d
11f4f40ff013e8fcf701f0e70e04fde5fceb03f30c090ffc1d1112e107f7f7f0
fefbfd0bf4f8f5fa0a070ae400f916021dee181b010418e2fdfbee0002faeb12
0deae012ff1317e3edf91606e003ece8e11911f313fbe60cf2f818f311e4fceb
0c1717ec0fe702ece7e4000afee2fa0cf70efbfa1a11fc051e03fff21f1def15
eb071b0cfd1a07141d17e80e110a0813ee1ae5fbe8f714f5e41aed18e6f3f81b
e6e8e3f91606ff09edf10ce70004e71319fdefe7121d08f21be7f40af9f60ff5
e5e1f0e8eaf7e3fbe700fcecf507e10aecee0ff61a1e04f9e8e2fa12fb08ee0f
1902f4eef509f3eb1918f912fbe01606f5f9ea0feef9f0f206021917f6e614f3
0e1b1eeaf10f11faeb10140903e50af9ecefe7ea1bf60fedf1f2f916ebfa0ffe
f91de713e0f7e30d060febe51016051fe5f3edf21fe5110ae511ea01ea040b05
eb1611e7eff714071afe1f0205fff6e00707e4fbfdf7ff0907071510eeeaf205
0801f90604f6f1eaf3fbe1e6fd05e11704e5e70e1a0fef15021c1813f5e8e51a
f6f91aebee14170de51ce7051305fef913ef1feb10ff07f81ffe0de317f70d1c
0cf2f2eff0f6e2f71b1def14e5fb100de7fbf50409ede61411eb0e12fbeeff0a
170f0813f4f31f18edf2ee15131df015f5ec011ce41b02f8190505eceeefe718
ee07161914e5010d0df518e6e1f9f9100e1ef5ff05fc04ea00ec11e30c181e15
f107ed11fef503f6ea1e090ce019fcf6ec0b17080fea1515fe190dfb09eb0aea
171b1efcef010415f0f6e3f8001af2f9f81a01181805190ef409e20af504fefb
1ff2f1fb081903fdef04ee020913e9ed0ae20bede1e41c03f304fb00f6fc15f2
