2908c337c6ff3c36eaf2d4c4cbd3332ccdf41c3a1df61c31202c23dd2e070bf7
203137cae6c1f8f03cfbf42e3cfee01f3a39c8d10fc02c0007d03135201f27e0
d1ef12f017d5dbda1404dbfa380c0f1524da341821c2d0feff241dd9d8d83314
c3c0c1d4053ec1c0e204e13e2af1dc22c92de828373c0621d0020fe016dcf50c
ff3ae6c43f2d3f1ec80a2a0410da0710f1d4f11b1d1e32c5d30afbf6ce2edf2f
0110d209311ceae4f923cef4041c1b24d50c1cd6cef005f42905fbc23fe3d725
001ec8c0e1d0d72df43d190833161c0dfdf7fc14ff12f4d020fa101219c23d09
010af127eb34d3302013d100fac815fdf5cc1fc3dbee020c061412ec34fcf0f2
3fc70039eb2cf8d9c5ed26e6ddd2dc070407f81e1bf0cd1bccc128e1defde7df
103ee7001ae8d1cb0e0a3df1c5e92f3a141403c205f6e835392831f5c5f222e1
d7c719d0270ae7f80af4d23a202c1e1dd6e12b1dcfd9e1c4370de02bcd0904f5
e3edefcdde0cdb140820c4240110ec0e2be8fbd6c71e0dee3a240a3ee20e122f
3a3fda21c3f9f23bdec43effe229fde527f42826f6c411f20ed7280af4fed201
d70b29f22f3e1b1acec8250e242adbdde23bdf11d7c41821dbebe5f11900dbe5
29d4e50e08dd3b17332e1d20c3d410e5cce5303819e705f3f935e721273631fe
0b25d3dc33d308c4f2d8e8101c031ef2c6ca0c29df01d2360c07d2dd25c3133b
d034171302dc0d3b04170bd03d3b150917d30dd02df418f735d700c9e5e6dbc3
f5c9d83d14e9d00c1830d5013edcf8f4de2ddfc53a232ae1cbfdd00435c92b17
350a1ed6e03e0238c9cad82ed32b07321730ef0afd3aee2fd42330eae2e6ce2a
eed823c3e4d01ec7f2da17cfe3caed35263ad70ae623d81ed5f3fb0fe007dcf6
c326c2da3915cc021f13071f25d32c022922e1d8183de6f7f20d2bc3eecff127
12201fd4ca361dd2f90eecf2f1f91a39dad830fcecdde7f139dd02dfea25d01c
cc38db05d6f5f5d4c8e41ad5ed10cffc183dd2e90711f21b18171511ebff14c4
e035e7f01d000ae1242b2cedf41209191be202cb3535d828c80f3ac4de213ec0
3bec18ee0ce6e838d7e01bd9cad01c081213ffdaf0fdf7ec14c12619c01f340d
20d510ef2bfe0bfee8eff02a1fe2191dc23b34f7d42ee82ef0d2e815e0fed438
d827f722ffcd3230d5e228c70e23f5c01e083be3062134d9c0ead110cfe20efc
fc32e2cd3cc9f2152ccec0f71e17023ec91ec1eef5d72a0e3c3b16f3effc043c
cf35dad9ff1a012cf833fdc13628ec17c8c1c80d1e31df1602cc30dbde053119
18ed03d625ec062eef2ad4c2f6ded4c6e2d3333200dff5f7e512fafac924d2cd
1ae91be532c9dd391ec10dd1db2fdf2cc70dc53bc8f8d62eff26192ac23d0a2d
eeeae8db20d5f124fc06d636042ddf18da18f4fffed2ccce25ecc732c819da22
c9cb003d13161d19d616d815f6e1342617f805d0123307f8d020c4e6c5e32209
1a28ddc9ed19e6033916d8d8d735ec13170acecc2339d8d0fbf4d2d8dee8fbeb
fce02515c93f102ed5ced823d600282e3a0524d13fd9282ce6d900280ac7e002
2037fee9e0e9da12d0c01a2b2ec1fd30d6e7efe7fe15dfc7ce08f22ed6fbf8e1
fecd2dfad2dec621dbc8fdffe51a15d9260f0af31c3236c516222a2408e5c9e8
c12d05f4fcfa25e02fc62d38dbd4ce2414d1f7053ccc032c3fcde9fa1be9e7f7
190fed1de9e22ac33c21da2ffe37d5361dc8c605e7e10605f9ef29d4dace2ad5
17e124c825d22bf6ceff0ed7ec22f61e0e0de91d083b3ffdd63f0dfdef021b0a
3f0ce3d73b3deae3f22cd02429cf04e7c4ebcadec6062032cdf73bc2d4caf236
c11b170e1dd120c32a1a300a38eff61bd334e11325191d0125c800c5dceed41e
12e33afdebecf3f2f9cff725ebff09373de1f61d02c52b3039dec03511ebe2c5
16ed18ec07ecf5f23ac3fcd9d215f5c7c838ea0acec8c30ef72c10012d2bd5f8
f3d222132c2927d2f6c03b03121ce435370e35d9ef22d905f43f36c4043d3deb
04cdf2cddc11d819f5cdc8c0dd2532eec7e3d8cbfeced030fc3af2d3c1320020
12d5db0c3beb3f232ed83d3ee7c410cac1d0c73dd40cc7e4d618e6e50923f1ff
cc3101c4e229c0c9340a273716ebf2f11ec523c5cd040ee0d8c8f9c2c817072a
d63ec6130f132ec1ef00d4e712c508ccf3e4dbc13d2ec8ebccc6e6c9d0f917d6
39e12bced83b070add1f0bc802de0bd0c0f1e908ee363624e3cac5fe01f0e100
190906042d35dff0db10e41e190f2e1d0b16cde2292e2736dbe93ee538f9f7d7
3dedcd0afbdae1372e15c734df11310d28d4e7f137ccc02bfe38effb14e339fd
f8facdfffdfad5e72deb0ac0d1c526e221d5df22ee250a0bf43a3fe130f7d4c8
00e024240bd6e32813332fcae308df0708d1151c17c2d7ffcc0f2efbd3d0ebd5
fc160b1210c738c4eff8fce4eacd121413fb25e2e9251bdd0cee37fbf3dd19cd
d6db04e920d0f62c103202181b1c10c328292afdc527ddd9e2fec00dea0a1d3a
2610dbdf203f2ecdf6fa3227302be5e633f2270711cce9e7ee1729d124370818
d316e320c0f208ce3011d2feff2314d6caefd7200de7d9e5df05de3c3632eef2
d1cd33f4cbe6070dc8e70f012206f13624f8eb2e260ac4201a39c8d0fb320ad8
15f32a0230d816c52e38e005dd2dc7f2ca38ece6df0ecff2fae1282728cece27
202d162e0b05fcceeaee1d33e3e715fff1d73ae915fc1f07fbc504f2e0f139c6
3f2808dc0921c1e3d2fac3da2416e426fd10211dc8d027333e14d5e0defdd6dc
e4e4c9e0fe3303f607103ddaffdc3b24f43ceb3c0f0dc42000dd3df8e614eae5
01ef07092033f63a3e35d2c403f03ec9f60c2701d1240a15f41dc803c8d5d43d
343d372c18f1d823203a33eedc121cdec91617cc12fd2be5da18f43517d2eb20
3cc12cdce6203dc4caf40ec70cdbccdcc0d538ce25f4def7dadc3bf3e0e3d817
d9f3ca32e4e2001ec3dffddaf81410c105daceecf825cb0b28f10903faf0f8ee
13e9d6d3183fc804d9193dda003527eaf717c3d9ca2f3de3d005e7e3f1e6da32
2c3018d626def207faf3ecc5d519eae517efeb2728d0f70935c52c3dee3df0ca
e3ddde27d6d3e8cc292fe819e702c9cbdd2d212a32c1e9ed09f501193606c3ee
d70c2aea1f03c3fbf9212627c4e21e2e01cafb20dcc80318d90dec11c1c12bfd
c5240fe42ce82b370a023cc4f217f5032bf3fb2fd0ecd123daeadb2b2edf0d0b
d1e417c8db11ed391f1a3fded3c7e21b05302b30e7cc0c29e600c03ef5cdd707
29e2fbca2c32ce1517e7cde82ff2ede7daef2d0dfcc7dcdcd30b10f22cd31335
eff2f9e31602c62dea1fcd193cdecdd4fc241624dc3debeddf30c7c0332af5d6
faf6d932c412d2f60ffa0ff51ef1c7fe15c7ccc02bfc0bf816250b16df2924f5
f4e02009150f3cc8fec7e5f4cec41b0821daedee26e5cad4dbde37ced71d13e7
2adc3833252e22fedd00dfe21520f3e8dacd3ed9c1efd03409ecd9f80dc70df3
3bd8e11a18112c1137f8dfc618eae1c12c07dfe52b3be80a1dcfc619c9d202d8
29e9323a3313d32bc828e3faf93ff3ead60ada3f3304ced02bdf191afc0c21e1
c8ec0d342bfef205ea1fd4f33fd5c706d31ff0d8ede7f2d7ffcb04f5e4cff4f2
f8180ad9e11cd2d507cf332ad4e130fe070ed1dc1c0518f00ffcf4e02af31717
35c00d2836c8f41339fdd310edd30306c3222cf0e91dd514f632ff31c31ae8db
eff835273ff3e6fcc83a14fed519391b1c1221152ae40e35ceebd0d3e6ce02f0
2d02c9f2ff3d281625f6e31dd1eb2ccc0f18c61fd82be7c00cf21106c0cf1af0
df3e2df0f01029dc371ecaddf4c4c8df19312dfd252622120cfec3f7f5fc1f3a
0b06c3c0d01208d1d6231cd2d0d92de716e9dccf381921dd20f2e51cc91b11ec
3be8d4303015131bc812d935c6fe3001c7d32b3134cafceef60cd53206c83a0d
15d80dc7eed217c0da1c3ec3e7fd13fe032e23f2cf04d6e53ffcec1d26d82831
25fd3f12050fc50905f5d3c91fd1f3df0014fec232f4df26d314f0f61cdd3bdc
163c27dfe739dd1b3adb00f6c63ff8160c3d2f2028e20d3bc60d18e1e41de72d
003e1702f813ea36cdfdf1f8c62f03002831ecc7e8effd1c1d330dc6f70934f1
161a3a38dae61cf5d815e107c5cbff3cc128363eecc1e9faf2f43716fbe7f717
f8c7f5c7fc39cb2ecec50e1be7da1e2023f0dcf2edf5da02d107cc240c070c2e
0ecdfbed1bce2c37da2be5dff8263c0d3ddd1417fe00c81f0ee9dfe2d9343de1
28c913cdf4391914e4dd30f5ebc7e0e43104153325ed11033630efcf14c9092a
fc24fee0d52323c6e2dcd109c314d8c6d600f711253603ef1231c3f60bcbfa1e
e4d605dcd502f6e3201ee3d2ee32cd3cdf2e0e2fc60a10d219de2c14f5f8c8d6
153b0eca17c117d3df301a0411033bee29dee7c024c6e2c1f4f510112b223afb
14e506d304df11cbc803ec36d7ddd1161c31320221f3c5c113fafb3e0229d229
1c2e34f42fe53c211c1df3c8cd12361d06dac43f280ff3e5181ec3e4df08f9c4
ddfef210e31e35d707de052b033beb15393b2d39320d1533f8f117220b22dbeb
eeded21f0c03103f38d7fe1625c11f2d3c01c8fa3c080a37d016fcdd1e132a09
f227cf01cae8cae7fd1ff2c80408cacdc3f02c10c500cc323cda2f312c1a0a10
2b34092d15fd3c2ae5e205d5e3ec1635f7101c0802c42d2627cdc5d8e2ebe02c
ee25e3e405f52e16f0332a21eb33ec2c26cb28dcc6d3e1f9e11c1ad93cc108c3
3fc220e8d3d6d52310e728e9dee42f14c7d7283f2acf3cd112d41b05c4f5000a
f81ff20b142935393f191b25e6033cd827fe16e4cd1edcd0d1f228e106e83be5
04f9fdde2627dff803c008dae3ca2f14e3180115c210df29db08fe34f418c616
3ec8fbf4eaff1738e2d2f62cd9fb39cb00ef2221d830d0e7fb30321a1ff702c5
051a32fd22d51d1b27c5cb142bf4cbd916ceedd02ad626ecd2032bc9ec25e106
eff22e00fc2f052a3528d7f5ead1cb3b1ad710c1ccc536ff2ccaceedc4170a39
160a0fca23e820d4d13810dcfe0ff3d9051f1532da28ede3d7e012f4d5f20bf2
dc033a270cd0ebe6f8f620faf8d324302a1fdae31bcd1d3f2f2b28ca092715e7
e2cf31d52f14d23534ffcad7e9261a2e25ca10f6391e302133c505f5d03f2422
e939fd1203e3fcd3caf3e22ec73bdee305d82639f7c615e03b171df7fbc91804
e7d8d72ad80af12c34ca1d3a3fd11bfd18eeef10cdeafd2a172e3c33d817c622
193ec9e7d3fcfa0818e9c808db0ac5343927dd01051ac0d9dfd2f80815d1c121
35edf0d82f1018e9d9e90627f0fbe3eaf436c0fc3e18c41829ec16c0fa2ad4d0
37fbe5f2f117e0ebc0d9102b0ce6c424d3282d3111f0f0c2d3301fe2ffd4f4e6
0ef3fffad7312ceb10c926241c2809d2da241acbd7d91b21c118102505eb0d1d
c533353032ed2ff6f008cef8330201090afe14d0e3c6cbfc360cdbf02a15cf3a
e3d2ef1efb33d7c702e6c1121f392017350aee0fcafac5fdd6f210cbef241fee
3bc7d40719242205e3e1db0ff1f9c935f91e1524e8e6c6160210ec100e3a0ad4
cdf521283c170fd9f1332efaf8e1eecee5cb15cb3d0a341827021911ff2afed8
3f15e1d02c1dd206d6d834cff4e0d3c9cb0e2ddfcad720eeeb3ff6d931ed1f2c
de1ad10ec8f0efcd10d701c62a1d303939e40c15d1241b14ce0917d9eefaefd6
2b38e3fa38d70531ddc3df072ce5faeff10eeb320cdfd0c8fbe41ec6f2cae234
