f8eb0cf4f9e10e1ce7f9f4e71b03140a0e15f5ee1302e3fceb0a1d13ff01fc06
f50d0d14fd1d18f715f1f5eaeefef1eaf9f714f6070fe1f21202f8190710f606
18f409f718ece3e1ee101d14e5e5e6f5060000e215e41ef704f20b07f9020c03
fef3e4000e13f9f41ee1f31b0eecf41fe013e9e116fbfb0510e41dfdf5fa150b
e6f701faeaed1e10e5070bf80ef3120be1eff81ce6f610f5fcf5ed19ed02f1eb
1bf607eefde903ef19e8ea1beae91dfbeb12e71f0315fe0906fde91efc02041a
1b15e413e304fe160109e70b13fdf212feeeeb1de9e1ea0ef7111b1d14e1e01d
13f30be80b0718f40e0802e6fbe8ef12fc05ed04eb040ce2171de518f7081b1f
020a0719ee130011f01308ed1713091b111402f8120a09e3e305f5f1f0071806
0e0afb1b100df50e1d13f8fb0f0905f31bfbfbe1f9e1ea14e4f6fdf9ed1b0be8
04fcecf008e918ed0c010002e8ed0f0ef5ece3e71ee3091cfc081d0bff1d05e6
151b0a15e5030de50cf7e31defecece1e1fffde309fbef070e07e611e21f0703
1303f60be60ffaf9f7ff19f11816121ee8e405fc0ff2ff15f1f4efe3eb151409
f3f80dee0b1f130f1a0e1ffef9ef19ed0d19e30305f3071d0508f0e910e3e001
f813fef4f3e8f90716effe1debf4e318e5f5041b120b0ef6f2e8fdedf60711e7
17fa18f8fbf40ff9f615f3f7f4080414ea09e30ee51701f11ff0fe0c03e0faef
0aee0f0cedfce8eeebf8f4fc04f3fc08e607010cea0e011bfb06f81be70bf21b
eb02eae712ffe70b05f614e0e511f5f70c04eae81c04ffe6e4e01ff8f3f5e0e0
eae811021a00160216fae1e71414faf01207f512f0e2f4eae3fa1c1ee10905f7
0a1aecfbfd09f808060c1b19fbe408060d02ed09f214f7e4fb00111ae5111900
fe0d1116f0e5fc0ff80cec00f4151b0113ef13ebfff017e7f9fc00e8fc14f8e6
e6f40af503161707f7ffea0b1ae718020a190304f31f16f70b190e1deffce9f6
f9f20ae216f715ed18e2ff0efefd1a0402e71e021803f3e0ef0d06020300fffa
eaf9fbfa1e090306e1ed11ede5fefa1e1c09e116ef0ffcf918e3e4e4e2e2efe0
1303fe12fbfee5ec1018fb1be6e1fe09fc03f7f90d13f4ee150ee0eee5f1f1e8
12edf7e3e21110fff012f31cf01902131911fc10020bea0605f0e3ffe8eb1e1e
131bf2fce10bec0aea13e6ee09eefa0cfa1bf8061ff1fdf6030b190408f6e6fd
0106f7fb09e5ecf511fd0c12ea0d061af9ef1fe6f31414ff11fefaec1af2e403
14ff13fbfff8eae5fbe10b1402061f18eb0e061dee001a0cfff50a090ee00ae1
f3e8e61feaf2f5ea02fe071d041e1ffd0a0005f30fe3ee0b170b160bed1d14fb
e50a15e0fc0cfc000805081df1080c06fb16f5f805061dfbffe10716ee140519
eee605e2fcf8f608fae113ecf1090a13e002fa180df60f1d05efe5fa1af91518
11e31c0018fcee041cfdf11d0afb12e8e81af5fae2e0f5e70a0602e5e1e7fd06
18e00efff21d0d150bf5ff1a1102e7ee1e1fe2f7f60d120be4181409fe0f1f12
e1e0f91918e61510f0fce71dfdf6f4100701ee131319ec08eeffe5f7e4ef16ff
0509e604ede6fc1016f7fde21feb0de112e01f06e014ed1d1f13e5eb16021213
091918fbe00ff2e11ae310e1fcec0810e4ebe21ae9110cf01f0b0b17e80bee10
0ee2161d1df30df20204f9e008e4fc00f8f6f6ffe7f5ff04e816e3f6ed0d1615
f71a18161d17f5ffedea06e51cf3f6ff12010af91dece60be70bf41405f7f4e1
edfaf1051a0c021e1d1e11f01cf5f01afe010c17e219e0eaf412ed160cf1f3e3
f1e10d1ee908e7ea06f9fbf5020fe0e51be1fe0101feeb131805ffe4fe07e9f7
1200e9ef0f1f0de5e2f9f01af2fe041b06f50ce8f5f60200ec00f8eff7fd1a0f
16ed05f9e41ff9f2180117030d14fb1af312ea1bf7e4e2f3fb1d07e2ea101dfc
10e601080c03e713f8ffe6e6050aebfff9e20cf3191b00f2ef1b151ee3f8e7e2
0c1ae7ea0314f2e0f6140b070fede9f1e4ebfa0603e1f61f05e7e7071001eb00
12fe0d0900f9effdeafcf5fe0c1818f615e51711fdecf9f81c17ff18f7f0fffb
e4e21f13ee0103181b0f020ff11519f90ce9f8ef0814161b1ae2e1e6e2e81602
ee0cf1e4050f0eeb1705181df7f5f50f1fea1be01d0ae8e1e2e51310e7f70e1b
13ea06f2f905ec02e704fc08f6ea08e810effb1602f20f1a011414ff06e1ec04
03e40600e7050c1707edf81503f8f8f7fb18f1f30509e4e2f81ee8ef19f81b0f
0be2f00706e70505e9ecf50309001fe70fe5e610f5ea12eaf9f6121304fc0ff7
19e2e8f809fbe002100cf5f8f91ae91dffed0c0fe2fa1c02f407001dfb1e0ff3
12eb0c021100eb151cf10ee1ec19f1f1ee0cf30d090a171fe80febf1e1eb17fc
1e0ff1ed1c1cfb00e400f6e316f100000de90f03190916081ef4e31c06060eef
18efe4e2f90614e61ee115e706eef71ffdf005171ffaeff30de7f30ff3ed05f4
020611f5fe02ff12e2e1031af71bf1ebea030a0ff11c0c00eefdf21f08f9f1f0
1cfb02120402ed0c1af8180519f71805f7e1e6fd1e16fa0de0fee4f5e304ed16
05051e00e00cf3fdf9fe1df4eb18e0010f1418fa01f2edfa0716f7e704fd0915
1feb030f1812ff1c1a0d0b1b111b11e4fd1af5001ef5031f0b1efb0ef30f19fb
1efafc0b0df700f0eb09fd1f051d0c10e41f141fe619f202f20efee3e70012f2
1f0a1f1bfee21802020c0ae50a14ed14e7f1e40d141409fc18eee8fd10e104fb
f2e1e2fe17161014ede2e10d0dfd1910f40cedfc0d06e9f7131ce404e3141608
10ffebff02f5e3f4eee2081ceb01e01ef3e90413fafef3001a17e21b160fec02
05ea1f09eeeae7f8ff0808f10b03001f1c1bede2f101ec1fe41ae400f904f7f6
151b1211f800eff7f2e6ea0df10fe7070ef5f5e2120fe219f8fefa150f07f6fe
ebf80909e411e0fae1f0fe1e03fcebe1fbf0e6f61d140bf50bf0ef0efd11fdff
151b101513f51f0a0219fde8120fff00f9e20c071d03e3f0f2f20ff900fbe5e1
e1f6e711ef03f7020b16e2f9ef12ea16eb08f609eb08f5fcede5fc06fce7fc0f
001d1003e003ff18e1f3ebe6e207f519f403fb1b09ea02ecfcec09f7fd1813f8
ec1f0aedeb19f1ef05f3ff0d1314f91ff2090fe70604e9e0111b10f3ecfdf20c
101ff7fff8ef13e1f4101d01000614fbe7f104eef6e6f9f60219f71203f703eb
1bf90c1dea0ae21e0710ee1917110ef8f4e1f012e913e3f50ce9071ef4ea0af6
e911f209e9ef0613e0f01910e7eefdf5fce31a19f7e0f919f6e4f8f5e9fae41c
f30f19e7e5111b00f3ff0a0400e7e91be91e1b0afc151415ed02efeef2f513e5
