18
05
10
28
bb
6a
f9
c8
ed
04
ec
d0
1f
12
df
f2
ef
e5
4a
e3
1e
04
d9
05
f5
f2
32
a0
f8
e8
f5
e3
2d
f5
14
b5
4d
5a
d7
11
5b
03
25
ff
f1
48
08
cd
e9
cd
10
e7
0c
17
1a
28
2f
d9
fc
d3
ea
c5
e9
e8
a3
4b
e9
0a
f7
2c
ff
da
0c
a1
ca
10
03
f0
a3
c0
c6
e6
77
27
ac
0a
27
19
f7
c4
e5
24
42
05
0f
0b
cf
08
fd
2f
fe
3f
0f
fa
31
de
c7
b2
d4
f1
12
f0
37
09
bc
b8
e1
ed
24
0d
47
dd
12
b9
26
26
f5
ea
4b
0e
d4
c4
03
33
fe
0d
44
c0
bb
11
4c
00
bc
19
e6
ab
81
f5
1c
0e
