e5
18
0b
13
0f
1f
0f
01
ef
13
e6
bb
ef
ed
e7
10
f3
06
0a
ca
d9
aa
ea
01
18
18
0b
13
0f
e6
0f
01
ef
13
0c
bb
ef
ed
e7
fc
f3
06
0a
ca
12
aa
ea
01
18
ea
0b
13
0f
e6
fd
01
ef
13
0c
f2
ef
ed
e7
fc
02
06
0a
ca
12
dd
ea
01
18
ea
eb
13
0f
e6
fd
ba
ef
13
0c
f2
df
ed
e7
fc
02
13
0a
ca
12
dd
d6
01
18
ea
eb
27
0f
e6
fd
ba
ed
13
0c
f2
df
fe
e7
fc
02
13
15
ca
12
dd
d6
e5
18
ea
eb
27
ce
e6
fd
ba
ed
f7
0c
f2
df
fe
2b
fc
02
13
15
18
12
dd
d6
e5
1f
ea
eb
27
ce
fa
fd
ba
ed
f7
18
f2
df
fe
2b
04
02
13
15
18
1a
dd
d6
e5
1f
c4
eb
27
ce
fa
24
ba
ed
f7
18
13
df
fe
2b
04
01
13
15
18
1a
0a
d6
e5
1f
c4
18
27
ce
fa
24
e5
ed
f7
18
13
e4
fe
2b
04
01
10
15
18
1a
0a
02
e5
1f
c4
18
0d
ce
fa
24
e5
c6
f7
18
13
e4
e3
2b
04
01
10
12
18
1a
0a
02
23
1f
c4
18
0d
03
fa
24
e5
c6
40
18
13
e4
e3
31
04
01
10
12
09
1a
0a
02
23
1a
c4
18
0d
03
09
24
e5
c6
40
1e
13
e4
e3
31
f5
01
10
12
09
fe
0a
02
23
1a
c8
18
0d
03
09
f5
e5
c6
40
1e
1f
e4
e3
31
f5
04
10
12
09
fe
ed
02
23
1a
c8
fa
0d
03
09
f5
1a
c6
40
1e
1f
fd
e3
31
f5
04
1d
12
09
fe
ed
26
23
1a
c8
fa
bc
03
09
f5
1a
f0
40
1e
1f
fd
18
31
f5
04
1d
fd
09
fe
ed
26
f0
1a
c8
fa
bc
bc
09
f5
1a
f0
c3
1e
1f
fd
18
a2
f5
04
1d
fd
fa
fe
ed
26
f0
3b
c8
fa
bc
bc
ed
f5
1a
f0
c3
fd
1f
fd
18
a2
f0
04
1d
fd
fa
f4
ed
26
f0
3b
06
fa
bc
bc
ed
fb
1a
f0
c3
fd
1e
fd
18
a2
f0
24
1d
fd
fa
f4
ed
26
f0
3b
06
02
bc
bc
ed
fb
f0
f0
c3
fd
1e
12
18
a2
f0
24
cc
fd
fa
f4
ed
05
f0
3b
06
02
1d
bc
ed
fb
f0
bd
c3
fd
1e
12
44
a2
f0
24
cc
f3
fa
f4
ed
05
bc
3b
06
02
1d
e7
ed
fb
f0
bd
1d
fd
1e
12
44
f6
f0
24
cc
f3
0c
f4
ed
05
bc
f2
06
02
1d
e7
16
fb
f0
bd
1d
e5
1e
12
44
f6
fa
24
cc
f3
0c
e3
ed
05
bc
f2
14
02
1d
e7
16
04
f0
bd
1d
e5
12
12
44
f6
fa
f7
cc
f3
0c
e3
00
05
bc
f2
14
10
1d
e7
16
04
0f
bd
1d
e5
12
e6
44
f6
fa
f7
e3
f3
0c
e3
00
0e
bc
f2
14
10
35
e7
16
04
0f
e6
1d
e5
12
e6
ed
f6
fa
f7
e3
ee
0c
e3
00
0e
0b
1f
0f
01
ef
13
e6
bb
ef
ed
e7
10
f3
06
0a
ca
d9
aa
ea
01
18
f1
e1
0f
0d
0b
0f
01
ef
13
0c
bb
ef
ed
e7
fc
f3
06
0a
ca
12
aa
ea
01
18
ea
e1
0f
0d
0b
04
01
ef
13
0c
f2
ef
ed
e7
fc
02
06
0a
ca
12
dd
ea
01
18
ea
eb
0f
0d
0b
04
0d
ef
13
0c
f2
df
ed
e7
fc
02
13
0a
ca
12
dd
d6
01
18
ea
eb
27
0d
0b
04
0d
21
13
0c
f2
df
fe
e7
fc
02
13
15
ca
12
dd
d6
e5
18
ea
eb
27
ce
0b
04
0d
21
0c
0c
f2
df
fe
2b
fc
02
13
15
18
12
dd
d6
e5
1f
ea
eb
27
ce
fa
04
0d
21
0c
04
f2
df
fe
2b
04
02
13
15
18
1a
dd
d6
e5
1f
c4
eb
27
ce
fa
24
0d
21
0c
04
ec
df
fe
2b
04
01
13
15
18
1a
0a
d6
e5
1f
c4
18
27
ce
fa
24
e5
21
0c
04
ec
34
fe
2b
04
01
10
15
18
1a
0a
02
e5
1f
c4
18
0d
ce
fa
24
e5
c6
0c
04
ec
34
d6
2b
04
01
10
12
18
1a
0a
02
23
1f
c4
18
0d
03
fa
24
e5
c6
40
04
ec
34
d6
f8
04
01
10
12
09
1a
0a
02
23
1a
c4
18
0d
03
09
24
e5
c6
40
1e
ec
34
d6
f8
ed
01
10
12
09
fe
0a
02
23
1a
c8
18
0d
03
09
f5
e5
c6
40
1e
1f
34
d6
f8
ed
bb
10
12
09
fe
ed
02
23
1a
c8
fa
0d
03
09
f5
1a
c6
40
1e
1f
fd
d6
f8
ed
bb
0d
12
09
fe
ed
26
23
1a
c8
fa
bc
03
09
f5
1a
f0
40
1e
1f
fd
18
f8
ed
bb
0d
f8
09
fe
ed
26
f0
1a
c8
fa
bc
bc
09
f5
1a
f0
c3
1e
1f
fd
18
a2
ed
bb
0d
f8
01
fe
ed
26
f0
3b
c8
fa
bc
bc
ed
f5
1a
f0
c3
fd
1f
fd
18
a2
f0
bb
0d
f8
01
f9
ed
26
f0
3b
06
fa
bc
bc
ed
fb
1a
f0
c3
fd
1e
fd
18
a2
f0
24
0d
f8
01
f9
1c
26
f0
3b
06
02
bc
bc
ed
fb
f0
f0
c3
fd
1e
12
18
a2
f0
24
cc
f8
01
f9
1c
21
f0
3b
06
02
1d
bc
ed
fb
f0
bd
c3
fd
1e
12
44
a2
f0
24
cc
f3
01
f9
1c
21
d7
3b
06
02
1d
e7
ed
fb
f0
bd
1d
fd
1e
12
44
f6
f0
24
cc
f3
0c
f9
1c
21
d7
42
06
02
1d
e7
16
fb
f0
bd
1d
e5
1e
12
44
f6
fa
24
cc
f3
0c
e3
1c
21
d7
42
f7
02
1d
e7
16
04
f0
bd
1d
e5
12
12
44
f6
fa
f7
cc
f3
0c
e3
00
21
d7
42
f7
16
1d
e7
16
04
0f
bd
1d
e5
12
e6
44
f6
fa
f7
e3
f3
0c
e3
00
0e
d7
42
f7
16
07
e7
16
04
0f
e6
1d
e5
12
e6
ed
f6
fa
f7
e3
ee
0c
e3
00
0e
0b
42
f7
16
07
04
e6
bb
ef
ed
e7
10
f3
06
0a
ca
d9
aa
ea
01
18
f1
e1
0f
0d
0b
15
32
1d
f7
fd
bb
ef
ed
e7
fc
f3
06
0a
ca
12
aa
ea
01
18
ea
e1
0f
0d
0b
04
32
1d
f7
fd
eb
ef
ed
e7
fc
02
06
0a
ca
12
dd
ea
01
18
ea
eb
0f
0d
0b
04
0d
1d
f7
fd
eb
1b
ed
e7
fc
02
13
0a
ca
12
dd
d6
01
18
ea
eb
27
0d
0b
04
0d
21
f7
fd
eb
1b
16
e7
fc
02
13
15
ca
12
dd
d6
e5
18
ea
eb
27
ce
0b
04
0d
21
0c
fd
eb
1b
16
f3
fc
02
13
15
18
12
dd
d6
e5
1f
ea
eb
27
ce
fa
04
0d
21
0c
04
eb
1b
16
f3
32
02
13
15
18
1a
dd
d6
e5
1f
c4
eb
27
ce
fa
24
0d
21
0c
04
ec
1b
16
f3
32
28
13
15
18
1a
0a
d6
e5
1f
c4
18
27
ce
fa
24
e5
21
0c
04
ec
34
16
f3
32
28
45
15
18
1a
0a
02
e5
1f
c4
18
0d
ce
fa
24
e5
c6
0c
04
ec
34
d6
f3
32
28
45
e2
18
1a
0a
02
23
1f
c4
18
0d
03
fa
24
e5
c6
40
04
ec
34
d6
f8
32
28
45
e2
fc
1a
0a
02
23
1a
c4
18
0d
03
09
24
e5
c6
40
1e
ec
34
d6
f8
ed
28
45
e2
fc
f9
0a
02
23
1a
c8
18
0d
03
09
f5
e5
c6
40
1e
1f
34
d6
f8
ed
bb
45
e2
fc
f9
62
02
23
1a
c8
fa
0d
03
09
f5
1a
c6
40
1e
1f
fd
d6
f8
ed
bb
0d
e2
fc
f9
62
00
23
1a
c8
fa
bc
03
09
f5
1a
f0
40
1e
1f
fd
18
f8
ed
bb
0d
f8
fc
f9
62
00
30
1a
c8
fa
bc
bc
09
f5
1a
f0
c3
1e
1f
fd
18
a2
ed
bb
0d
f8
01
f9
62
00
30
27
c8
fa
bc
bc
ed
f5
1a
f0
c3
fd
1f
fd
18
a2
f0
bb
0d
f8
01
f9
62
00
30
27
fd
fa
bc
bc
ed
fb
1a
f0
c3
fd
1e
fd
18
a2
f0
24
0d
f8
01
f9
1c
00
30
27
fd
02
bc
bc
ed
fb
f0
f0
c3
fd
1e
12
18
a2
f0
24
cc
f8
01
f9
1c
21
30
27
fd
02
14
bc
ed
fb
f0
bd
c3
fd
1e
12
44
a2
f0
24
cc
f3
01
f9
1c
21
d7
27
fd
02
14
2f
ed
fb
f0
bd
1d
fd
1e
12
44
f6
f0
24
cc
f3
0c
f9
1c
21
d7
42
fd
02
14
2f
fa
fb
f0
bd
1d
e5
1e
12
44
f6
fa
24
cc
f3
0c
e3
1c
21
d7
42
f7
02
14
2f
fa
ed
f0
bd
1d
e5
12
12
44
f6
fa
f7
cc
f3
0c
e3
00
21
d7
42
f7
16
14
2f
fa
ed
23
bd
1d
e5
12
e6
44
f6
fa
f7
e3
f3
0c
e3
00
0e
d7
42
f7
16
07
2f
fa
ed
23
d5
1d
e5
12
e6
ed
f6
fa
f7
e3
ee
0c
e3
00
0e
0b
42
f7
16
07
04
fa
ed
23
d5
09
10
f3
06
0a
ca
d9
aa
ea
01
18
f1
e1
0f
0d
0b
15
32
1d
f7
fd
28
10
eb
da
2d
f3
06
0a
ca
12
aa
ea
01
18
ea
e1
0f
0d
0b
04
32
1d
f7
fd
eb
10
eb
da
2d
f9
06
0a
ca
12
dd
ea
01
18
ea
eb
0f
0d
0b
04
0d
1d
f7
fd
eb
1b
eb
da
2d
f9
de
0a
ca
12
dd
d6
01
18
ea
eb
27
0d
0b
04
0d
21
f7
fd
eb
1b
16
da
2d
f9
de
2b
ca
12
dd
d6
e5
18
ea
eb
27
ce
0b
04
0d
21
0c
fd
eb
1b
16
f3
2d
f9
de
2b
1e
12
dd
d6
e5
1f
ea
eb
27
ce
fa
04
0d
21
0c
04
eb
1b
16
f3
32
f9
de
2b
1e
d8
dd
d6
e5
1f
c4
eb
27
ce
fa
24
0d
21
0c
04
ec
1b
16
f3
32
28
de
2b
1e
d8
5e
d6
e5
1f
c4
18
27
ce
fa
24
e5
21
0c
04
ec
34
16
f3
32
28
45
2b
1e
d8
5e
ec
e5
1f
c4
18
0d
ce
fa
24
e5
c6
0c
04
ec
34
d6
f3
32
28
45
e2
1e
d8
5e
ec
1d
1f
c4
18
0d
03
fa
24
e5
c6
40
04
ec
34
d6
f8
32
28
45
e2
fc
d8
5e
ec
1d
4b
c4
18
0d
03
09
24
e5
c6
40
1e
ec
34
d6
f8
ed
28
45
e2
fc
f9
5e
ec
1d
4b
21
18
0d
03
09
f5
e5
c6
40
1e
1f
34
d6
f8
ed
bb
45
e2
fc
f9
62
ec
1d
4b
21
0a
0d
03
09
f5
1a
c6
40
1e
1f
fd
d6
f8
ed
bb
0d
e2
fc
f9
62
00
1d
4b
21
0a
ca
03
09
f5
1a
f0
40
1e
1f
fd
18
f8
ed
bb
0d
f8
fc
f9
62
00
30
4b
21
0a
ca
4d
09
f5
1a
f0
c3
1e
1f
fd
18
a2
ed
bb
0d
f8
01
f9
62
00
30
27
21
0a
ca
4d
21
f5
1a
f0
c3
fd
1f
fd
18
a2
f0
bb
0d
f8
01
f9
62
00
30
27
fd
0a
ca
4d
21
cb
1a
f0
c3
fd
1e
fd
18
a2
f0
24
0d
f8
01
f9
1c
00
30
27
fd
02
ca
4d
21
cb
3a
f0
c3
fd
1e
12
18
a2
f0
24
cc
f8
01
f9
1c
21
30
27
fd
02
14
4d
21
cb
3a
02
c3
fd
1e
12
44
a2
f0
24
cc
f3
01
f9
1c
21
d7
27
fd
02
14
2f
21
cb
3a
02
f6
fd
1e
12
44
f6
f0
24
cc
f3
0c
f9
1c
21
d7
42
fd
02
14
2f
fa
cb
3a
02
f6
eb
1e
12
44
f6
fa
24
cc
f3
0c
e3
1c
21
d7
42
f7
02
14
2f
fa
ed
3a
02
f6
eb
06
12
44
f6
fa
f7
cc
f3
0c
e3
00
21
d7
42
f7
16
14
2f
fa
ed
23
02
f6
eb
06
1e
44
f6
fa
f7
e3
f3
0c
e3
00
0e
d7
42
f7
16
07
2f
fa
ed
23
d5
f6
eb
06
1e
ed
f6
fa
f7
e3
ee
0c
e3
00
0e
0b
42
f7
16
07
04
fa
ed
23
d5
09
eb
06
1e
ed
05
d9
aa
ea
01
18
f1
e1
0f
0d
0b
15
32
1d
f7
fd
28
10
eb
da
2d
7f
12
24
dc
cd
aa
ea
01
18
ea
e1
0f
0d
0b
04
32
1d
f7
fd
eb
10
eb
da
2d
f9
12
24
dc
cd
37
ea
01
18
ea
eb
0f
0d
0b
04
0d
1d
f7
fd
eb
1b
eb
da
2d
f9
de
24
dc
cd
37
2c
01
18
ea
eb
27
0d
0b
04
0d
21
f7
fd
eb
1b
16
da
2d
f9
de
2b
dc
cd
37
2c
40
18
ea
eb
27
ce
0b
04
0d
21
0c
fd
eb
1b
16
f3
2d
f9
de
2b
1e
cd
37
2c
40
fd
ea
eb
27
ce
fa
04
0d
21
0c
04
eb
1b
16
f3
32
f9
de
2b
1e
d8
37
2c
40
fd
2f
eb
27
ce
fa
24
0d
21
0c
04
ec
1b
16
f3
32
28
de
2b
1e
d8
5e
2c
40
fd
2f
a0
27
ce
fa
24
e5
21
0c
04
ec
34
16
f3
32
28
45
2b
1e
d8
5e
ec
40
fd
2f
a0
14
ce
fa
24
e5
c6
0c
04
ec
34
d6
f3
32
28
45
e2
1e
d8
5e
ec
1d
fd
2f
a0
14
27
fa
24
e5
c6
40
04
ec
34
d6
f8
32
28
45
e2
fc
d8
5e
ec
1d
4b
2f
a0
14
27
e6
24
e5
c6
40
1e
ec
34
d6
f8
ed
28
45
e2
fc
f9
5e
ec
1d
4b
21
a0
14
27
e6
28
e5
c6
40
1e
1f
34
d6
f8
ed
bb
45
e2
fc
f9
62
ec
1d
4b
21
0a
14
27
e6
28
f9
c6
40
1e
1f
fd
d6
f8
ed
bb
0d
e2
fc
f9
62
00
1d
4b
21
0a
ca
27
e6
28
f9
fd
40
1e
1f
fd
18
f8
ed
bb
0d
f8
fc
f9
62
00
30
4b
21
0a
ca
4d
e6
28
f9
fd
f6
1e
1f
fd
18
a2
ed
bb
0d
f8
01
f9
62
00
30
27
21
0a
ca
4d
21
28
f9
fd
f6
3b
1f
fd
18
a2
f0
bb
0d
f8
01
f9
62
00
30
27
fd
0a
ca
4d
21
cb
f9
fd
f6
3b
ef
fd
18
a2
f0
24
0d
f8
01
f9
1c
00
30
27
fd
02
ca
4d
21
cb
3a
fd
f6
3b
ef
ea
18
a2
f0
24
cc
f8
01
f9
1c
21
30
27
fd
02
14
4d
21
cb
3a
02
f6
3b
ef
ea
e0
a2
f0
24
cc
f3
01
f9
1c
21
d7
27
fd
02
14
2f
21
cb
3a
02
f6
3b
ef
ea
e0
f2
f0
24
cc
f3
0c
f9
1c
21
d7
42
fd
02
14
2f
fa
cb
3a
02
f6
eb
ef
ea
e0
f2
07
24
cc
f3
0c
e3
1c
21
d7
42
f7
02
14
2f
fa
ed
3a
02
f6
eb
06
ea
e0
f2
07
18
cc
f3
0c
e3
00
21
d7
42
f7
16
14
2f
fa
ed
23
02
f6
eb
06
1e
e0
f2
07
18
e4
f3
0c
e3
00
0e
d7
42
f7
16
07
2f
fa
ed
23
d5
f6
eb
06
1e
ed
f2
07
18
e4
0e
0c
e3
00
0e
0b
42
f7
16
07
04
fa
ed
23
d5
09
eb
06
1e
ed
05
07
18
e4
0e
17
f1
e1
0f
0d
0b
15
32
1d
f7
fd
28
10
eb
da
2d
7f
12
24
dc
cd
dd
02
fd
03
ec
e1
0f
0d
0b
04
32
1d
f7
fd
eb
10
eb
da
2d
f9
12
24
dc
cd
37
02
fd
03
ec
fb
0f
0d
0b
04
0d
1d
f7
fd
eb
1b
eb
da
2d
f9
de
24
dc
cd
37
2c
fd
03
ec
fb
01
0d
0b
04
0d
21
f7
fd
eb
1b
16
da
2d
f9
de
2b
dc
cd
37
2c
40
03
ec
fb
01
46
0b
04
0d
21
0c
fd
eb
1b
16
f3
2d
f9
de
2b
1e
cd
37
2c
40
fd
ec
fb
01
46
02
04
0d
21
0c
04
eb
1b
16
f3
32
f9
de
2b
1e
d8
37
2c
40
fd
2f
fb
01
46
02
32
0d
21
0c
04
ec
1b
16
f3
32
28
de
2b
1e
d8
5e
2c
40
fd
2f
a0
01
46
02
32
35
21
0c
04
ec
34
16
f3
32
28
45
2b
1e
d8
5e
ec
40
fd
2f
a0
14
46
02
32
35
ce
0c
04
ec
34
d6
f3
32
28
45
e2
1e
d8
5e
ec
1d
fd
2f
a0
14
27
02
32
35
ce
f5
04
ec
34
d6
f8
32
28
45
e2
fc
d8
5e
ec
1d
4b
2f
a0
14
27
e6
32
35
ce
f5
35
ec
34
d6
f8
ed
28
45
e2
fc
f9
5e
ec
1d
4b
21
a0
14
27
e6
28
35
ce
f5
35
07
34
d6
f8
ed
bb
45
e2
fc
f9
62
ec
1d
4b
21
0a
14
27
e6
28
f9
ce
f5
35
07
fc
d6
f8
ed
bb
0d
e2
fc
f9
62
00
1d
4b
21
0a
ca
27
e6
28
f9
fd
f5
35
07
fc
1c
f8
ed
bb
0d
f8
fc
f9
62
00
30
4b
21
0a
ca
4d
e6
28
f9
fd
f6
35
07
fc
1c
28
ed
bb
0d
f8
01
f9
62
00
30
27
21
0a
ca
4d
21
28
f9
fd
f6
3b
07
fc
1c
28
ff
bb
0d
f8
01
f9
62
00
30
27
fd
0a
ca
4d
21
cb
f9
fd
f6
3b
ef
fc
1c
28
ff
f6
0d
f8
01
f9
1c
00
30
27
fd
02
ca
4d
21
cb
3a
fd
f6
3b
ef
ea
1c
28
ff
f6
a7
f8
01
f9
1c
21
30
27
fd
02
14
4d
21
cb
3a
02
f6
3b
ef
ea
e0
28
ff
f6
a7
02
01
f9
1c
21
d7
27
fd
02
14
2f
21
cb
3a
02
f6
3b
ef
ea
e0
f2
ff
f6
a7
02
f2
f9
1c
21
d7
42
fd
02
14
2f
fa
cb
3a
02
f6
eb
ef
ea
e0
f2
07
f6
a7
02
f2
da
1c
21
d7
42
f7
02
14
2f
fa
ed
3a
02
f6
eb
06
ea
e0
f2
07
18
a7
02
f2
da
f8
21
d7
42
f7
16
14
2f
fa
ed
23
02
f6
eb
06
1e
e0
f2
07
18
e4
02
f2
da
f8
f0
d7
42
f7
16
07
2f
fa
ed
23
d5
f6
eb
06
1e
ed
f2
07
18
e4
0e
f2
da
f8
f0
06
42
f7
16
07
04
fa
ed
23
d5
09
eb
06
1e
ed
05
07
18
e4
0e
17
da
f8
f0
06
f6
15
32
1d
f7
fd
28
10
eb
da
2d
7f
12
24
dc
cd
dd
02
fd
03
ec
11
07
30
ec
43
32
1d
f7
fd
eb
10
eb
da
2d
f9
12
24
dc
cd
37
02
fd
03
ec
fb
07
30
ec
43
28
1d
f7
fd
eb
1b
eb
da
2d
f9
de
24
dc
cd
37
2c
fd
03
ec
fb
01
30
ec
43
28
38
f7
fd
eb
1b
16
da
2d
f9
de
2b
dc
cd
37
2c
40
03
ec
fb
01
46
ec
43
28
38
09
fd
eb
1b
16
f3
2d
f9
de
2b
1e
cd
37
2c
40
fd
ec
fb
01
46
02
43
28
38
09
f5
eb
1b
16
f3
32
f9
de
2b
1e
d8
37
2c
40
fd
2f
fb
01
46
02
32
28
38
09
f5
ec
1b
16
f3
32
28
de
2b
1e
d8
5e
2c
40
fd
2f
a0
01
46
02
32
35
38
09
f5
ec
42
16
f3
32
28
45
2b
1e
d8
5e
ec
40
fd
2f
a0
14
46
02
32
35
ce
09
f5
ec
42
29
f3
32
28
45
e2
1e
d8
5e
ec
1d
fd
2f
a0
14
27
02
32
35
ce
f5
f5
ec
42
29
da
32
28
45
e2
fc
d8
5e
ec
1d
4b
2f
a0
14
27
e6
32
35
ce
f5
35
ec
42
29
da
25
28
45
e2
fc
f9
5e
ec
1d
4b
21
a0
14
27
e6
28
35
ce
f5
35
07
42
29
da
25
e1
45
e2
fc
f9
62
ec
1d
4b
21
0a
14
27
e6
28
f9
ce
f5
35
07
fc
29
da
25
e1
0c
e2
fc
f9
62
00
1d
4b
21
0a
ca
27
e6
28
f9
fd
f5
35
07
fc
1c
da
25
e1
0c
1f
fc
f9
62
00
30
4b
21
0a
ca
4d
e6
28
f9
fd
f6
35
07
fc
1c
28
25
e1
0c
1f
37
f9
62
00
30
27
21
0a
ca
4d
21
28
f9
fd
f6
3b
07
fc
1c
28
ff
e1
0c
1f
37
09
62
00
30
27
fd
0a
ca
4d
21
cb
f9
fd
f6
3b
ef
fc
1c
28
ff
f6
0c
1f
37
09
fb
00
30
27
fd
02
ca
4d
21
cb
3a
fd
f6
3b
ef
ea
1c
28
ff
f6
a7
1f
37
09
fb
02
30
27
fd
02
14
4d
21
cb
3a
02
f6
3b
ef
ea
e0
28
ff
f6
a7
02
37
09
fb
02
28
27
fd
02
14
2f
21
cb
3a
02
f6
3b
ef
ea
e0
f2
ff
f6
a7
02
f2
09
fb
02
28
1e
fd
02
14
2f
fa
cb
3a
02
f6
eb
ef
ea
e0
f2
07
f6
a7
02
f2
da
fb
02
28
1e
ff
02
14
2f
fa
ed
3a
02
f6
eb
06
ea
e0
f2
07
18
a7
02
f2
da
f8
02
28
1e
ff
ba
14
2f
fa
ed
23
02
f6
eb
06
1e
e0
f2
07
18
e4
02
f2
da
f8
f0
28
1e
ff
ba
a5
2f
fa
ed
23
d5
f6
eb
06
1e
ed
f2
07
18
e4
0e
f2
da
f8
f0
06
1e
ff
ba
a5
08
fa
ed
23
d5
09
eb
06
1e
ed
05
07
18
e4
0e
17
da
f8
f0
06
f6
ff
ba
a5
08
d4
28
10
eb
da
2d
7f
12
24
dc
cd
dd
02
fd
03
ec
11
07
30
ec
43
ec
f7
4e
05
1b
10
eb
da
2d
f9
12
24
dc
cd
37
02
fd
03
ec
fb
07
30
ec
43
28
f7
4e
05
1b
13
eb
da
2d
f9
de
24
dc
cd
37
2c
fd
03
ec
fb
01
30
ec
43
28
38
4e
05
1b
13
a5
da
2d
f9
de
2b
dc
cd
37
2c
40
03
ec
fb
01
46
ec
43
28
38
09
05
1b
13
a5
f1
2d
f9
de
2b
1e
cd
37
2c
40
fd
ec
fb
01
46
02
43
28
38
09
f5
1b
13
a5
f1
d2
f9
de
2b
1e
d8
37
2c
40
fd
2f
fb
01
46
02
32
28
38
09
f5
ec
13
a5
f1
d2
41
de
2b
1e
d8
5e
2c
40
fd
2f
a0
01
46
02
32
35
38
09
f5
ec
42
a5
f1
d2
41
bc
2b
1e
d8
5e
ec
40
fd
2f
a0
14
46
02
32
35
ce
09
f5
ec
42
29
f1
d2
41
bc
f0
1e
d8
5e
ec
1d
fd
2f
a0
14
27
02
32
35
ce
f5
f5
ec
42
29
da
d2
41
bc
f0
f6
d8
5e
ec
1d
4b
2f
a0
14
27
e6
32
35
ce
f5
35
ec
42
29
da
25
41
bc
f0
f6
db
5e
ec
1d
4b
21
a0
14
27
e6
28
35
ce
f5
35
07
42
29
da
25
e1
bc
f0
f6
db
04
ec
1d
4b
21
0a
14
27
e6
28
f9
ce
f5
35
07
fc
29
da
25
e1
0c
f0
f6
db
04
fe
1d
4b
21
0a
ca
27
e6
28
f9
fd
f5
35
07
fc
1c
da
25
e1
0c
1f
f6
db
04
fe
06
4b
21
0a
ca
4d
e6
28
f9
fd
f6
35
07
fc
1c
28
25
e1
0c
1f
37
db
04
fe
06
13
21
0a
ca
4d
21
28
f9
fd
f6
3b
07
fc
1c
28
ff
e1
0c
1f
37
09
04
fe
06
13
09
0a
ca
4d
21
cb
f9
fd
f6
3b
ef
fc
1c
28
ff
f6
0c
1f
37
09
fb
fe
06
13
09
0e
ca
4d
21
cb
3a
fd
f6
3b
ef
ea
1c
28
ff
f6
a7
1f
37
09
fb
02
06
13
09
0e
2a
4d
21
cb
3a
02
f6
3b
ef
ea
e0
28
ff
f6
a7
02
37
09
fb
02
28
13
09
0e
2a
c2
21
cb
3a
02
f6
3b
ef
ea
e0
f2
ff
f6
a7
02
f2
09
fb
02
28
1e
09
0e
2a
c2
1a
cb
3a
02
f6
eb
ef
ea
e0
f2
07
f6
a7
02
f2
da
fb
02
28
1e
ff
0e
2a
c2
1a
d9
3a
02
f6
eb
06
ea
e0
f2
07
18
a7
02
f2
da
f8
02
28
1e
ff
ba
2a
c2
1a
d9
e8
02
f6
eb
06
1e
e0
f2
07
18
e4
02
f2
da
f8
f0
28
1e
ff
ba
a5
c2
1a
d9
e8
05
f6
eb
06
1e
ed
f2
07
18
e4
0e
f2
da
f8
f0
06
1e
ff
ba
a5
08
1a
d9
e8
05
0f
eb
06
1e
ed
05
07
18
e4
0e
17
da
f8
f0
06
f6
ff
ba
a5
08
d4
d9
e8
05
0f
14
7f
12
24
dc
cd
dd
02
fd
03
ec
11
07
30
ec
43
ec
f7
4e
05
1b
dc
3d
f0
e5
d0
12
24
dc
cd
37
02
fd
03
ec
fb
07
30
ec
43
28
f7
4e
05
1b
13
3d
f0
e5
d0
cd
24
dc
cd
37
2c
fd
03
ec
fb
01
30
ec
43
28
38
4e
05
1b
13
a5
f0
e5
d0
cd
cb
dc
cd
37
2c
40
03
ec
fb
01
46
ec
43
28
38
09
05
1b
13
a5
f1
e5
d0
cd
cb
0c
cd
37
2c
40
fd
ec
fb
01
46
02
43
28
38
09
f5
1b
13
a5
f1
d2
d0
cd
cb
0c
17
37
2c
40
fd
2f
fb
01
46
02
32
28
38
09
f5
ec
13
a5
f1
d2
41
cd
cb
0c
17
e0
2c
40
fd
2f
a0
01
46
02
32
35
38
09
f5
ec
42
a5
f1
d2
41
bc
cb
0c
17
e0
d5
40
fd
2f
a0
14
46
02
32
35
ce
09
f5
ec
42
29
f1
d2
41
bc
f0
0c
17
e0
d5
f8
fd
2f
a0
14
27
02
32
35
ce
f5
f5
ec
42
29
da
d2
41
bc
f0
f6
17
e0
d5
f8
04
2f
a0
14
27
e6
32
35
ce
f5
35
ec
42
29
da
25
41
bc
f0
f6
db
e0
d5
f8
04
0a
a0
14
27
e6
28
35
ce
f5
35
07
42
29
da
25
e1
bc
f0
f6
db
04
d5
f8
04
0a
dc
14
27
e6
28
f9
ce
f5
35
07
fc
29
da
25
e1
0c
f0
f6
db
04
fe
f8
04
0a
dc
fa
27
e6
28
f9
fd
f5
35
07
fc
1c
da
25
e1
0c
1f
f6
db
04
fe
06
04
0a
dc
fa
3b
e6
28
f9
fd
f6
35
07
fc
1c
28
25
e1
0c
1f
37
db
04
fe
06
13
0a
dc
fa
3b
d3
28
f9
fd
f6
3b
07
fc
1c
28
ff
e1
0c
1f
37
09
04
fe
06
13
09
dc
fa
3b
d3
ff
f9
fd
f6
3b
ef
fc
1c
28
ff
f6
0c
1f
37
09
fb
fe
06
13
09
0e
fa
3b
d3
ff
13
fd
f6
3b
ef
ea
1c
28
ff
f6
a7
1f
37
09
fb
02
06
13
09
0e
2a
3b
d3
ff
13
dc
f6
3b
ef
ea
e0
28
ff
f6
a7
02
37
09
fb
02
28
13
09
0e
2a
c2
d3
ff
13
dc
17
3b
ef
ea
e0
f2
ff
f6
a7
02
f2
09
fb
02
28
1e
09
0e
2a
c2
1a
ff
13
dc
17
ce
ef
ea
e0
f2
07
f6
a7
02
f2
da
fb
02
28
1e
ff
0e
2a
c2
1a
d9
13
dc
17
ce
18
ea
e0
f2
07
18
a7
02
f2
da
f8
02
28
1e
ff
ba
2a
c2
1a
d9
e8
dc
17
ce
18
02
e0
f2
07
18
e4
02
f2
da
f8
f0
28
1e
ff
ba
a5
c2
1a
d9
e8
05
17
ce
18
02
cb
f2
07
18
e4
0e
f2
da
f8
f0
06
1e
ff
ba
a5
08
1a
d9
e8
05
0f
ce
18
02
cb
1a
07
18
e4
0e
17
da
f8
f0
06
f6
ff
ba
a5
08
d4
d9
e8
05
0f
14
18
02
cb
1a
de
dd
02
fd
03
ec
11
07
30
ec
43
ec
f7
4e
05
1b
dc
3d
f0
e5
d0
fa
18
dc
ec
2a
02
fd
03
ec
fb
07
30
ec
43
28
f7
4e
05
1b
13
3d
f0
e5
d0
cd
18
dc
ec
2a
b2
fd
03
ec
fb
01
30
ec
43
28
38
4e
05
1b
13
a5
f0
e5
d0
cd
cb
dc
ec
2a
b2
35
03
ec
fb
01
46
ec
43
28
38
09
05
1b
13
a5
f1
e5
d0
cd
cb
0c
ec
2a
b2
35
c9
ec
fb
01
46
02
43
28
38
09
f5
1b
13
a5
f1
d2
d0
cd
cb
0c
17
2a
b2
35
c9
e6
fb
01
46
02
32
28
38
09
f5
ec
13
a5
f1
d2
41
cd
cb
0c
17
e0
b2
35
c9
e6
0b
01
46
02
32
35
38
09
f5
ec
42
a5
f1
d2
41
bc
cb
0c
17
e0
d5
35
c9
e6
0b
17
46
02
32
35
ce
09
f5
ec
42
29
f1
d2
41
bc
f0
0c
17
e0
d5
f8
c9
e6
0b
17
0b
02
32
35
ce
f5
f5
ec
42
29
da
d2
41
bc
f0
f6
17
e0
d5
f8
04
e6
0b
17
0b
02
32
35
ce
f5
35
ec
42
29
da
25
41
bc
f0
f6
db
e0
d5
f8
04
0a
0b
17
0b
02
f0
35
ce
f5
35
07
42
29
da
25
e1
bc
f0
f6
db
04
d5
f8
04
0a
dc
17
0b
02
f0
3b
ce
f5
35
07
fc
29
da
25
e1
0c
f0
f6
db
04
fe
f8
04
0a
dc
fa
0b
02
f0
3b
1d
f5
35
07
fc
1c
da
25
e1
0c
1f
f6
db
04
fe
06
04
0a
dc
fa
3b
02
f0
3b
1d
2c
35
07
fc
1c
28
25
e1
0c
1f
37
db
04
fe
06
13
0a
dc
fa
3b
d3
f0
3b
1d
2c
f0
07
fc
1c
28
ff
e1
0c
1f
37
09
04
fe
06
13
09
dc
fa
3b
d3
ff
3b
1d
2c
f0
a9
fc
1c
28
ff
f6
0c
1f
37
09
fb
fe
06
13
09
0e
fa
3b
d3
ff
13
1d
2c
f0
a9
26
1c
28
ff
f6
a7
1f
37
09
fb
02
06
13
09
0e
2a
3b
d3
ff
13
dc
2c
f0
a9
26
0d
28
ff
f6
a7
02
37
09
fb
02
28
13
09
0e
2a
c2
d3
ff
13
dc
17
f0
a9
26
0d
07
ff
f6
a7
02
f2
09
fb
02
28
1e
09
0e
2a
c2
1a
ff
13
dc
17
ce
a9
26
0d
07
eb
f6
a7
02
f2
da
fb
02
28
1e
ff
0e
2a
c2
1a
d9
13
dc
17
ce
18
26
0d
07
eb
f3
a7
02
f2
da
f8
02
28
1e
ff
ba
2a
c2
1a
d9
e8
dc
17
ce
18
02
0d
07
eb
f3
e9
02
f2
da
f8
f0
28
1e
ff
ba
a5
c2
1a
d9
e8
05
17
ce
18
02
cb
07
eb
f3
e9
02
f2
da
f8
f0
06
1e
ff
ba
a5
08
1a
d9
e8
05
0f
ce
18
02
cb
1a
eb
f3
e9
02
d5
da
f8
f0
06
f6
ff
ba
a5
08
d4
d9
e8
05
0f
14
18
02
cb
1a
de
f3
e9
02
d5
1d
11
07
30
ec
43
ec
f7
4e
05
1b
dc
3d
f0
e5
d0
fa
18
dc
ec
2a
4d
ea
c4
fc
0c
07
30
ec
43
28
f7
4e
05
1b
13
3d
f0
e5
d0
cd
18
dc
ec
2a
b2
ea
c4
fc
0c
11
30
ec
43
28
38
4e
05
1b
13
a5
f0
e5
d0
cd
cb
dc
ec
2a
b2
35
c4
fc
0c
11
3c
ec
43
28
38
09
05
1b
13
a5
f1
e5
d0
cd
cb
0c
ec
2a
b2
35
c9
fc
0c
11
3c
1f
43
28
38
09
f5
1b
13
a5
f1
d2
d0
cd
cb
0c
17
2a
b2
35
c9
e6
0c
11
3c
1f
bc
28
38
09
f5
ec
13
a5
f1
d2
41
cd
cb
0c
17
e0
b2
35
c9
e6
0b
11
3c
1f
bc
d2
38
09
f5
ec
42
a5
f1
d2
41
bc
cb
0c
17
e0
d5
35
c9
e6
0b
17
3c
1f
bc
d2
0f
09
f5
ec
42
29
f1
d2
41
bc
f0
0c
17
e0
d5
f8
c9
e6
0b
17
0b
1f
bc
d2
0f
ef
f5
ec
42
29
da
d2
41
bc
f0
f6
17
e0
d5
f8
04
e6
0b
17
0b
02
bc
d2
0f
ef
39
ec
42
29
da
25
41
bc
f0
f6
db
e0
d5
f8
04
0a
0b
17
0b
02
f0
d2
0f
ef
39
dd
42
29
da
25
e1
bc
f0
f6
db
04
d5
f8
04
0a
dc
17
0b
02
f0
3b
0f
ef
39
dd
24
29
da
25
e1
0c
f0
f6
db
04
fe
f8
04
0a
dc
fa
0b
02
f0
3b
1d
ef
39
dd
24
e8
da
25
e1
0c
1f
f6
db
04
fe
06
04
0a
dc
fa
3b
02
f0
3b
1d
2c
39
dd
24
e8
0a
25
e1
0c
1f
37
db
04
fe
06
13
0a
dc
fa
3b
d3
f0
3b
1d
2c
f0
dd
24
e8
0a
e1
e1
0c
1f
37
09
04
fe
06
13
09
dc
fa
3b
d3
ff
3b
1d
2c
f0
a9
24
e8
0a
e1
15
0c
1f
37
09
fb
fe
06
13
09
0e
fa
3b
d3
ff
13
1d
2c
f0
a9
26
e8
0a
e1
15
28
1f
37
09
fb
02
06
13
09
0e
2a
3b
d3
ff
13
dc
2c
f0
a9
26
0d
0a
e1
15
28
0a
37
09
fb
02
28
13
09
0e
2a
c2
d3
ff
13
dc
17
f0
a9
26
0d
07
e1
15
28
0a
48
09
fb
02
28
1e
09
0e
2a
c2
1a
ff
13
dc
17
ce
a9
26
0d
07
eb
15
28
0a
48
e5
fb
02
28
1e
ff
0e
2a
c2
1a
d9
13
dc
17
ce
18
26
0d
07
eb
f3
28
0a
48
e5
04
02
28
1e
ff
ba
2a
c2
1a
d9
e8
dc
17
ce
18
02
0d
07
eb
f3
e9
0a
48
e5
04
20
28
1e
ff
ba
a5
c2
1a
d9
e8
05
17
ce
18
02
cb
07
eb
f3
e9
02
48
e5
04
20
dc
1e
ff
ba
a5
08
1a
d9
e8
05
0f
ce
18
02
cb
1a
eb
f3
e9
02
d5
e5
04
20
dc
02
ff
ba
a5
08
d4
d9
e8
05
0f
14
18
02
cb
1a
de
f3
e9
02
d5
1d
04
20
dc
02
19
ec
f7
4e
05
1b
dc
3d
f0
e5
d0
fa
18
dc
ec
2a
4d
ea
c4
fc
0c
23
2b
df
0b
cf
f7
4e
05
1b
13
3d
f0
e5
d0
cd
18
dc
ec
2a
b2
ea
c4
fc
0c
11
2b
df
0b
cf
e5
4e
05
1b
13
a5
f0
e5
d0
cd
cb
dc
ec
2a
b2
35
c4
fc
0c
11
3c
df
0b
cf
e5
f9
05
1b
13
a5
f1
e5
d0
cd
cb
0c
ec
2a
b2
35
c9
fc
0c
11
3c
1f
0b
cf
e5
f9
2b
1b
13
a5
f1
d2
d0
cd
cb
0c
17
2a
b2
35
c9
e6
0c
11
3c
1f
bc
cf
e5
f9
2b
14
13
a5
f1
d2
41
cd
cb
0c
17
e0
b2
35
c9
e6
0b
11
3c
1f
bc
d2
e5
f9
2b
14
02
a5
f1
d2
41
bc
cb
0c
17
e0
d5
35
c9
e6
0b
17
3c
1f
bc
d2
0f
f9
2b
14
02
11
f1
d2
41
bc
f0
0c
17
e0
d5
f8
c9
e6
0b
17
0b
1f
bc
d2
0f
ef
2b
14
02
11
14
d2
41
bc
f0
f6
17
e0
d5
f8
04
e6
0b
17
0b
02
bc
d2
0f
ef
39
14
02
11
14
0e
41
bc
f0
f6
db
e0
d5
f8
04
0a
0b
17
0b
02
f0
d2
0f
ef
39
dd
02
11
14
0e
ea
bc
f0
f6
db
04
d5
f8
04
0a
dc
17
0b
02
f0
3b
0f
ef
39
dd
24
11
14
0e
ea
dc
f0
f6
db
04
fe
f8
04
0a
dc
fa
0b
02
f0
3b
1d
ef
39
dd
24
e8
14
0e
ea
dc
f8
f6
db
04
fe
06
04
0a
dc
fa
3b
02
f0
3b
1d
2c
39
dd
24
e8
0a
0e
ea
dc
f8
e2
db
04
fe
06
13
0a
dc
fa
3b
d3
f0
3b
1d
2c
f0
dd
24
e8
0a
e1
ea
dc
f8
e2
17
04
fe
06
13
09
dc
fa
3b
d3
ff
3b
1d
2c
f0
a9
24
e8
0a
e1
15
dc
f8
e2
17
39
fe
06
13
09
0e
fa
3b
d3
ff
13
1d
2c
f0
a9
26
e8
0a
e1
15
28
f8
e2
17
39
15
06
13
09
0e
2a
3b
d3
ff
13
dc
2c
f0
a9
26
0d
0a
e1
15
28
0a
e2
17
39
15
bc
13
09
0e
2a
c2
d3
ff
13
dc
17
f0
a9
26
0d
07
e1
15
28
0a
48
17
39
15
bc
e8
09
0e
2a
c2
1a
ff
13
dc
17
ce
a9
26
0d
07
eb
15
28
0a
48
e5
39
15
bc
e8
01
0e
2a
c2
1a
d9
13
dc
17
ce
18
26
0d
07
eb
f3
28
0a
48
e5
04
15
bc
e8
01
ca
2a
c2
1a
d9
e8
dc
17
ce
18
02
0d
07
eb
f3
e9
0a
48
e5
04
20
bc
e8
01
ca
01
c2
1a
d9
e8
05
17
ce
18
02
cb
07
eb
f3
e9
02
48
e5
04
20
dc
e8
01
ca
01
12
1a
d9
e8
05
0f
ce
18
02
cb
1a
eb
f3
e9
02
d5
e5
04
20
dc
02
01
ca
01
12
35
d9
e8
05
0f
14
18
02
cb
1a
de
f3
e9
02
d5
1d
04
20
dc
02
19
ca
01
12
35
44
dc
3d
f0
e5
d0
fa
18
dc
ec
2a
4d
ea
c4
fc
0c
23
2b
df
0b
cf
d3
fc
fc
e5
04
3d
f0
e5
d0
cd
18
dc
ec
2a
b2
ea
c4
fc
0c
11
2b
df
0b
cf
e5
fc
fc
e5
04
fd
f0
e5
d0
cd
cb
dc
ec
2a
b2
35
c4
fc
0c
11
3c
df
0b
cf
e5
f9
fc
e5
04
fd
17
e5
d0
cd
cb
0c
ec
2a
b2
35
c9
fc
0c
11
3c
1f
0b
cf
e5
f9
2b
e5
04
fd
17
33
d0
cd
cb
0c
17
2a
b2
35
c9
e6
0c
11
3c
1f
bc
cf
e5
f9
2b
14
04
fd
17
33
05
cd
cb
0c
17
e0
b2
35
c9
e6
0b
11
3c
1f
bc
d2
e5
f9
2b
14
02
fd
17
33
05
ee
cb
0c
17
e0
d5
35
c9
e6
0b
17
3c
1f
bc
d2
0f
f9
2b
14
02
11
17
33
05
ee
d9
0c
17
e0
d5
f8
c9
e6
0b
17
0b
1f
bc
d2
0f
ef
2b
14
02
11
14
33
05
ee
d9
4d
17
e0
d5
f8
04
e6
0b
17
0b
02
bc
d2
0f
ef
39
14
02
11
14
0e
05
ee
d9
4d
22
e0
d5
f8
04
0a
0b
17
0b
02
f0
d2
0f
ef
39
dd
02
11
14
0e
ea
ee
d9
4d
22
0f
d5
f8
04
0a
dc
17
0b
02
f0
3b
0f
ef
39
dd
24
11
14
0e
ea
dc
d9
4d
22
0f
fa
f8
04
0a
dc
fa
0b
02
f0
3b
1d
ef
39
dd
24
e8
14
0e
ea
dc
f8
4d
22
0f
fa
3d
04
0a
dc
fa
3b
02
f0
3b
1d
2c
39
dd
24
e8
0a
0e
ea
dc
f8
e2
22
0f
fa
3d
fa
0a
dc
fa
3b
d3
f0
3b
1d
2c
f0
dd
24
e8
0a
e1
ea
dc
f8
e2
17
0f
fa
3d
fa
c0
dc
fa
3b
d3
ff
3b
1d
2c
f0
a9
24
e8
0a
e1
15
dc
f8
e2
17
39
fa
3d
fa
c0
0a
fa
3b
d3
ff
13
1d
2c
f0
a9
26
e8
0a
e1
15
28
f8
e2
17
39
15
3d
fa
c0
0a
d2
3b
d3
ff
13
dc
2c
f0
a9
26
0d
0a
e1
15
28
0a
e2
17
39
15
bc
fa
c0
0a
d2
0a
d3
ff
13
dc
17
f0
a9
26
0d
07
e1
15
28
0a
48
17
39
15
bc
e8
c0
0a
d2
0a
32
ff
13
dc
17
ce
a9
26
0d
07
eb
15
28
0a
48
e5
39
15
bc
e8
01
0a
d2
0a
32
c1
13
dc
17
ce
18
26
0d
07
eb
f3
28
0a
48
e5
04
15
bc
e8
01
ca
d2
0a
32
c1
de
dc
17
ce
18
02
0d
07
eb
f3
e9
0a
48
e5
04
20
bc
e8
01
ca
01
0a
32
c1
de
20
17
ce
18
02
cb
07
eb
f3
e9
02
48
e5
04
20
dc
e8
01
ca
01
12
32
c1
de
20
ed
ce
18
02
cb
1a
eb
f3
e9
02
d5
e5
04
20
dc
02
01
ca
01
12
35
c1
de
20
ed
10
18
02
cb
1a
de
f3
e9
02
d5
1d
04
20
dc
02
19
ca
01
12
35
44
de
20
ed
10
10
fa
18
dc
ec
2a
4d
ea
c4
fc
0c
23
2b
df
0b
cf
d3
fc
fc
e5
04
21
e8
a0
0f
c5
18
dc
ec
2a
b2
ea
c4
fc
0c
11
2b
df
0b
cf
e5
fc
fc
e5
04
fd
e8
a0
0f
c5
23
dc
ec
2a
b2
35
c4
fc
0c
11
3c
df
0b
cf
e5
f9
fc
e5
04
fd
17
a0
0f
c5
23
fe
ec
2a
b2
35
c9
fc
0c
11
3c
1f
0b
cf
e5
f9
2b
e5
04
fd
17
33
0f
c5
23
fe
f5
2a
b2
35
c9
e6
0c
11
3c
1f
bc
cf
e5
f9
2b
14
04
fd
17
33
05
c5
23
fe
f5
1a
b2
35
c9
e6
0b
11
3c
1f
bc
d2
e5
f9
2b
14
02
fd
17
33
05
ee
23
fe
f5
1a
bf
35
c9
e6
0b
17
3c
1f
bc
d2
0f
f9
2b
14
02
11
17
33
05
ee
d9
fe
f5
1a
bf
f8
c9
e6
0b
17
0b
1f
bc
d2
0f
ef
2b
14
02
11
14
33
05
ee
d9
4d
f5
1a
bf
f8
11
e6
0b
17
0b
02
bc
d2
0f
ef
39
14
02
11
14
0e
05
ee
d9
4d
22
1a
bf
f8
11
09
0b
17
0b
02
f0
d2
0f
ef
39
dd
02
11
14
0e
ea
ee
d9
4d
22
0f
bf
f8
11
09
ee
17
0b
02
f0
3b
0f
ef
39
dd
24
11
14
0e
ea
dc
d9
4d
22
0f
fa
f8
11
09
ee
ee
0b
02
f0
3b
1d
ef
39
dd
24
e8
14
0e
ea
dc
f8
4d
22
0f
fa
3d
11
09
ee
ee
3a
02
f0
3b
1d
2c
39
dd
24
e8
0a
0e
ea
dc
f8
e2
22
0f
fa
3d
fa
09
ee
ee
3a
22
f0
3b
1d
2c
f0
dd
24
e8
0a
e1
ea
dc
f8
e2
17
0f
fa
3d
fa
c0
ee
ee
3a
22
e7
3b
1d
2c
f0
a9
24
e8
0a
e1
15
dc
f8
e2
17
39
fa
3d
fa
c0
0a
ee
3a
22
e7
33
1d
2c
f0
a9
26
e8
0a
e1
15
28
f8
e2
17
39
15
3d
fa
c0
0a
d2
3a
22
e7
33
1c
2c
f0
a9
26
0d
0a
e1
15
28
0a
e2
17
39
15
bc
fa
c0
0a
d2
0a
22
e7
33
1c
12
f0
a9
26
0d
07
e1
15
28
0a
48
17
39
15
bc
e8
c0
0a
d2
0a
32
e7
33
1c
12
14
a9
26
0d
07
eb
15
28
0a
48
e5
39
15
bc
e8
01
0a
d2
0a
32
c1
33
1c
12
14
d5
26
0d
07
eb
f3
28
0a
48
e5
04
15
bc
e8
01
ca
d2
0a
32
c1
de
1c
12
14
d5
39
0d
07
eb
f3
e9
0a
48
e5
04
20
bc
e8
01
ca
01
0a
32
c1
de
20
12
14
d5
39
24
07
eb
f3
e9
02
48
e5
04
20
dc
e8
01
ca
01
12
32
c1
de
20
ed
14
d5
39
24
09
eb
f3
e9
02
d5
e5
04
20
dc
02
01
ca
01
12
35
c1
de
20
ed
10
d5
39
24
09
09
f3
e9
02
d5
1d
04
20
dc
02
19
ca
01
12
35
44
de
20
ed
10
10
39
24
09
09
fd
4d
ea
c4
fc
0c
23
2b
df
0b
cf
d3
fc
fc
e5
04
21
e8
a0
0f
c5
eb
14
e2
06
04
ea
c4
fc
0c
11
2b
df
0b
cf
e5
fc
fc
e5
04
fd
e8
a0
0f
c5
23
14
e2
06
04
0e
c4
fc
0c
11
3c
df
0b
cf
e5
f9
fc
e5
04
fd
17
a0
0f
c5
23
fe
e2
06
04
0e
23
fc
0c
11
3c
1f
0b
cf
e5
f9
2b
e5
04
fd
17
33
0f
c5
23
fe
f5
06
04
0e
23
0f
0c
11
3c
1f
bc
cf
e5
f9
2b
14
04
fd
17
33
05
c5
23
fe
f5
1a
04
0e
23
0f
1a
11
3c
1f
bc
d2
e5
f9
2b
14
02
fd
17
33
05
ee
23
fe
f5
1a
bf
0e
23
0f
1a
b7
3c
1f
bc
d2
0f
f9
2b
14
02
11
17
33
05
ee
d9
fe
f5
1a
bf
f8
23
0f
1a
b7
11
1f
bc
d2
0f
ef
2b
14
02
11
14
33
05
ee
d9
4d
f5
1a
bf
f8
11
0f
1a
b7
11
03
bc
d2
0f
ef
39
14
02
11
14
0e
05
ee
d9
4d
22
1a
bf
f8
11
09
1a
b7
11
03
0e
d2
0f
ef
39
dd
02
11
14
0e
ea
ee
d9
4d
22
0f
bf
f8
11
09
ee
b7
11
03
0e
ec
0f
ef
39
dd
24
11
14
0e
ea
dc
d9
4d
22
0f
fa
f8
11
09
ee
ee
11
03
0e
ec
2b
ef
39
dd
24
e8
14
0e
ea
dc
f8
4d
22
0f
fa
3d
11
09
ee
ee
3a
03
0e
ec
2b
09
39
dd
24
e8
0a
0e
ea
dc
f8
e2
22
0f
fa
3d
fa
09
ee
ee
3a
22
0e
ec
2b
09
e4
dd
24
e8
0a
e1
ea
dc
f8
e2
17
0f
fa
3d
fa
c0
ee
ee
3a
22
e7
ec
2b
09
e4
eb
24
e8
0a
e1
15
dc
f8
e2
17
39
fa
3d
fa
c0
0a
ee
3a
22
e7
33
2b
09
e4
eb
22
e8
0a
e1
15
28
f8
e2
17
39
15
3d
fa
c0
0a
d2
3a
22
e7
33
1c
09
e4
eb
22
fd
0a
e1
15
28
0a
e2
17
39
15
bc
fa
c0
0a
d2
0a
22
e7
33
1c
12
e4
eb
22
fd
00
e1
15
28
0a
48
17
39
15
bc
e8
c0
0a
d2
0a
32
e7
33
1c
12
14
eb
22
fd
00
f9
15
28
0a
48
e5
39
15
bc
e8
01
0a
d2
0a
32
c1
33
1c
12
14
d5
22
fd
00
f9
26
28
0a
48
e5
04
15
bc
e8
01
ca
d2
0a
32
c1
de
1c
12
14
d5
39
fd
00
f9
26
12
0a
48
e5
04
20
bc
e8
01
ca
01
0a
32
c1
de
20
12
14
d5
39
24
00
f9
26
12
d3
48
e5
04
20
dc
e8
01
ca
01
12
32
c1
de
20
ed
14
d5
39
24
09
f9
26
12
d3
db
e5
04
20
dc
02
01
ca
01
12
35
c1
de
20
ed
10
d5
39
24
09
09
26
12
d3
db
00
04
20
dc
02
19
ca
01
12
35
44
de
20
ed
10
10
39
24
09
09
fd
12
d3
db
00
e8
23
2b
df
0b
cf
d3
fc
fc
e5
04
21
e8
a0
0f
c5
eb
14
e2
06
04
af
e4
f6
f1
1b
2b
df
0b
cf
e5
fc
fc
e5
04
fd
e8
a0
0f
c5
23
14
e2
06
04
0e
e4
f6
f1
1b
ac
df
0b
cf
e5
f9
fc
e5
04
fd
17
a0
0f
c5
23
fe
e2
06
04
0e
23
f6
f1
1b
ac
e3
0b
cf
e5
f9
2b
e5
04
fd
17
33
0f
c5
23
fe
f5
06
04
0e
23
0f
f1
1b
ac
e3
1e
cf
e5
f9
2b
14
04
fd
17
33
05
c5
23
fe
f5
1a
04
0e
23
0f
1a
1b
ac
e3
1e
e7
e5
f9
2b
14
02
fd
17
33
05
ee
23
fe
f5
1a
bf
0e
23
0f
1a
b7
ac
e3
1e
e7
d2
f9
2b
14
02
11
17
33
05
ee
d9
fe
f5
1a
bf
f8
23
0f
1a
b7
11
e3
1e
e7
d2
e6
2b
14
02
11
14
33
05
ee
d9
4d
f5
1a
bf
f8
11
0f
1a
b7
11
03
1e
e7
d2
e6
11
14
02
11
14
0e
05
ee
d9
4d
22
1a
bf
f8
11
09
1a
b7
11
03
0e
e7
d2
e6
11
f6
02
11
14
0e
ea
ee
d9
4d
22
0f
bf
f8
11
09
ee
b7
11
03
0e
ec
d2
e6
11
f6
e5
11
14
0e
ea
dc
d9
4d
22
0f
fa
f8
11
09
ee
ee
11
03
0e
ec
2b
e6
11
f6
e5
12
14
0e
ea
dc
f8
4d
22
0f
fa
3d
11
09
ee
ee
3a
03
0e
ec
2b
09
11
f6
e5
12
0e
0e
ea
dc
f8
e2
22
0f
fa
3d
fa
09
ee
ee
3a
22
0e
ec
2b
09
e4
f6
e5
12
0e
d1
ea
dc
f8
e2
17
0f
fa
3d
fa
c0
ee
ee
3a
22
e7
ec
2b
09
e4
eb
e5
12
0e
d1
04
dc
f8
e2
17
39
fa
3d
fa
c0
0a
ee
3a
22
e7
33
2b
09
e4
eb
22
12
0e
d1
04
cf
f8
e2
17
39
15
3d
fa
c0
0a
d2
3a
22
e7
33
1c
09
e4
eb
22
fd
0e
d1
04
cf
2c
e2
17
39
15
bc
fa
c0
0a
d2
0a
22
e7
33
1c
12
e4
eb
22
fd
00
d1
04
cf
2c
2e
17
39
15
bc
e8
c0
0a
d2
0a
32
e7
33
1c
12
14
eb
22
fd
00
f9
04
cf
2c
2e
f5
39
15
bc
e8
01
0a
d2
0a
32
c1
33
1c
12
14
d5
22
fd
00
f9
26
cf
2c
2e
f5
28
15
bc
e8
01
ca
d2
0a
32
c1
de
1c
12
14
d5
39
fd
00
f9
26
12
2c
2e
f5
28
e4
bc
e8
01
ca
01
0a
32
c1
de
20
12
14
d5
39
24
00
f9
26
12
d3
2e
f5
28
e4
fb
e8
01
ca
01
12
32
c1
de
20
ed
14
d5
39
24
09
f9
26
12
d3
db
f5
28
e4
fb
ea
01
ca
01
12
35
c1
de
20
ed
10
d5
39
24
09
09
26
12
d3
db
00
28
e4
fb
ea
ff
ca
01
12
35
44
de
20
ed
10
10
39
24
09
09
fd
12
d3
db
00
e8
e4
fb
ea
ff
02
d3
fc
fc
e5
04
21
e8
a0
0f
c5
eb
14
e2
06
04
af
e4
f6
f1
1b
00
fd
05
2f
b4
fc
fc
e5
04
fd
e8
a0
0f
c5
23
14
e2
06
04
0e
e4
f6
f1
1b
ac
fd
05
2f
b4
48
fc
e5
04
fd
17
a0
0f
c5
23
fe
e2
06
04
0e
23
f6
f1
1b
ac
e3
05
2f
b4
48
f3
e5
04
fd
17
33
0f
c5
23
fe
f5
06
04
0e
23
0f
f1
1b
ac
e3
1e
2f
b4
48
f3
fd
04
fd
17
33
05
c5
23
fe
f5
1a
04
0e
23
0f
1a
1b
ac
e3
1e
e7
b4
48
f3
fd
32
fd
17
33
05
ee
23
fe
f5
1a
bf
0e
23
0f
1a
b7
ac
e3
1e
e7
d2
48
f3
fd
32
17
17
33
05
ee
d9
fe
f5
1a
bf
f8
23
0f
1a
b7
11
e3
1e
e7
d2
e6
f3
fd
32
17
14
33
05
ee
d9
4d
f5
1a
bf
f8
11
0f
1a
b7
11
03
1e
e7
d2
e6
11
fd
32
17
14
2f
05
ee
d9
4d
22
1a
bf
f8
11
09
1a
b7
11
03
0e
e7
d2
e6
11
f6
32
17
14
2f
fa
ee
d9
4d
22
0f
bf
f8
11
09
ee
b7
11
03
0e
ec
d2
e6
11
f6
e5
17
14
2f
fa
23
d9
4d
22
0f
fa
f8
11
09
ee
ee
11
03
0e
ec
2b
e6
11
f6
e5
12
14
2f
fa
23
d1
4d
22
0f
fa
3d
11
09
ee
ee
3a
03
0e
ec
2b
09
11
f6
e5
12
0e
2f
fa
23
d1
10
22
0f
fa
3d
fa
09
ee
ee
3a
22
0e
ec
2b
09
e4
f6
e5
12
0e
d1
fa
23
d1
10
15
0f
fa
3d
fa
c0
ee
ee
3a
22
e7
ec
2b
09
e4
eb
e5
12
0e
d1
04
23
d1
10
15
2b
fa
3d
fa
c0
0a
ee
3a
22
e7
33
2b
09
e4
eb
22
12
0e
d1
04
cf
d1
10
15
2b
1b
3d
fa
c0
0a
d2
3a
22
e7
33
1c
09
e4
eb
22
fd
0e
d1
04
cf
2c
10
15
2b
1b
08
fa
c0
0a
d2
0a
22
e7
33
1c
12
e4
eb
22
fd
00
d1
04
cf
2c
2e
15
2b
1b
08
f4
c0
0a
d2
0a
32
e7
33
1c
12
14
eb
22
fd
00
f9
04
cf
2c
2e
f5
2b
1b
08
f4
f4
0a
d2
0a
32
c1
33
1c
12
14
d5
22
fd
00
f9
26
cf
2c
2e
f5
28
1b
08
f4
f4
f4
d2
0a
32
c1
de
1c
12
14
d5
39
fd
00
f9
26
12
2c
2e
f5
28
e4
08
f4
f4
f4
cf
0a
32
c1
de
20
12
14
d5
39
24
00
f9
26
12
d3
2e
f5
28
e4
fb
f4
f4
f4
cf
41
32
c1
de
20
ed
14
d5
39
24
09
f9
26
12
d3
db
f5
28
e4
fb
ea
f4
f4
cf
41
26
c1
de
20
ed
10
d5
39
24
09
09
26
12
d3
db
00
28
e4
fb
ea
ff
f4
cf
41
26
0a
de
20
ed
10
10
39
24
09
09
fd
12
d3
db
00
e8
e4
fb
ea
ff
02
cf
41
26
0a
1f
21
e8
a0
0f
c5
eb
14
e2
06
04
af
e4
f6
f1
1b
00
fd
05
2f
b4
1c
db
18
30
e7
e8
a0
0f
c5
23
14
e2
06
04
0e
e4
f6
f1
1b
ac
fd
05
2f
b4
48
db
18
30
e7
c6
a0
0f
c5
23
fe
e2
06
04
0e
23
f6
f1
1b
ac
e3
05
2f
b4
48
f3
18
30
e7
c6
d4
0f
c5
23
fe
f5
06
04
0e
23
0f
f1
1b
ac
e3
1e
2f
b4
48
f3
fd
30
e7
c6
d4
fc
c5
23
fe
f5
1a
04
0e
23
0f
1a
1b
ac
e3
1e
e7
b4
48
f3
fd
32
e7
c6
d4
fc
d2
23
fe
f5
1a
bf
0e
23
0f
1a
b7
ac
e3
1e
e7
d2
48
f3
fd
32
17
c6
d4
fc
d2
fa
fe
f5
1a
bf
f8
23
0f
1a
b7
11
e3
1e
e7
d2
e6
f3
fd
32
17
14
d4
fc
d2
fa
e7
f5
1a
bf
f8
11
0f
1a
b7
11
03
1e
e7
d2
e6
11
fd
32
17
14
2f
fc
d2
fa
e7
00
1a
bf
f8
11
09
1a
b7
11
03
0e
e7
d2
e6
11
f6
32
17
14
2f
fa
d2
fa
e7
00
ed
bf
f8
11
09
ee
b7
11
03
0e
ec
d2
e6
11
f6
e5
17
14
2f
fa
23
fa
e7
00
ed
ff
f8
11
09
ee
ee
11
03
0e
ec
2b
e6
11
f6
e5
12
14
2f
fa
23
d1
e7
00
ed
ff
17
11
09
ee
ee
3a
03
0e
ec
2b
09
11
f6
e5
12
0e
2f
fa
23
d1
10
00
ed
ff
17
dc
09
ee
ee
3a
22
0e
ec
2b
09
e4
f6
e5
12
0e
d1
fa
23
d1
10
15
ed
ff
17
dc
0b
ee
ee
3a
22
e7
ec
2b
09
e4
eb
e5
12
0e
d1
04
23
d1
10
15
2b
ff
17
dc
0b
e0
ee
3a
22
e7
33
2b
09
e4
eb
22
12
0e
d1
04
cf
d1
10
15
2b
1b
17
dc
0b
e0
00
3a
22
e7
33
1c
09
e4
eb
22
fd
0e
d1
04
cf
2c
10
15
2b
1b
08
dc
0b
e0
00
fd
22
e7
33
1c
12
e4
eb
22
fd
00
d1
04
cf
2c
2e
15
2b
1b
08
f4
0b
e0
00
fd
0d
e7
33
1c
12
14
eb
22
fd
00
f9
04
cf
2c
2e
f5
2b
1b
08
f4
f4
e0
00
fd
0d
07
33
1c
12
14
d5
22
fd
00
f9
26
cf
2c
2e
f5
28
1b
08
f4
f4
f4
00
fd
0d
07
2f
1c
12
14
d5
39
fd
00
f9
26
12
2c
2e
f5
28
e4
08
f4
f4
f4
cf
fd
0d
07
2f
ff
12
14
d5
39
24
00
f9
26
12
d3
2e
f5
28
e4
fb
f4
f4
f4
cf
41
0d
07
2f
ff
e8
14
d5
39
24
09
f9
26
12
d3
db
f5
28
e4
fb
ea
f4
f4
cf
41
26
07
2f
ff
e8
23
d5
39
24
09
09
26
12
d3
db
00
28
e4
fb
ea
ff
f4
cf
41
26
0a
2f
ff
e8
23
0c
39
24
09
09
fd
12
d3
db
00
e8
e4
fb
ea
ff
02
cf
41
26
0a
1f
ff
e8
23
0c
21
eb
14
e2
06
04
af
e4
f6
f1
1b
00
fd
05
2f
b4
1c
db
18
30
e7
fb
cf
54
e9
d4
14
e2
06
04
0e
e4
f6
f1
1b
ac
fd
05
2f
b4
48
db
18
30
e7
c6
cf
54
e9
d4
1b
e2
06
04
0e
23
f6
f1
1b
ac
e3
05
2f
b4
48
f3
18
30
e7
c6
d4
54
e9
d4
1b
dc
06
04
0e
23
0f
f1
1b
ac
e3
1e
2f
b4
48
f3
fd
30
e7
c6
d4
fc
e9
d4
1b
dc
f1
04
0e
23
0f
1a
1b
ac
e3
1e
e7
b4
48
f3
fd
32
e7
c6
d4
fc
d2
d4
1b
dc
f1
05
0e
23
0f
1a
b7
ac
e3
1e
e7
d2
48
f3
fd
32
17
c6
d4
fc
d2
fa
1b
dc
f1
05
fb
23
0f
1a
b7
11
e3
1e
e7
d2
e6
f3
fd
32
17
14
d4
fc
d2
fa
e7
dc
f1
05
fb
f2
0f
1a
b7
11
03
1e
e7
d2
e6
11
fd
32
17
14
2f
fc
d2
fa
e7
00
f1
05
fb
f2
3c
1a
b7
11
03
0e
e7
d2
e6
11
f6
32
17
14
2f
fa
d2
fa
e7
00
ed
05
fb
f2
3c
fc
b7
11
03
0e
ec
d2
e6
11
f6
e5
17
14
2f
fa
23
fa
e7
00
ed
ff
fb
f2
3c
fc
de
11
03
0e
ec
2b
e6
11
f6
e5
12
14
2f
fa
23
d1
e7
00
ed
ff
17
f2
3c
fc
de
25
03
0e
ec
2b
09
11
f6
e5
12
0e
2f
fa
23
d1
10
00
ed
ff
17
dc
3c
fc
de
25
e5
0e
ec
2b
09
e4
f6
e5
12
0e
d1
fa
23
d1
10
15
ed
ff
17
dc
0b
fc
de
25
e5
fc
ec
2b
09
e4
eb
e5
12
0e
d1
04
23
d1
10
15
2b
ff
17
dc
0b
e0
de
25
e5
fc
de
2b
09
e4
eb
22
12
0e
d1
04
cf
d1
10
15
2b
1b
17
dc
0b
e0
00
25
e5
fc
de
08
09
e4
eb
22
fd
0e
d1
04
cf
2c
10
15
2b
1b
08
dc
0b
e0
00
fd
e5
fc
de
08
01
e4
eb
22
fd
00
d1
04
cf
2c
2e
15
2b
1b
08
f4
0b
e0
00
fd
0d
fc
de
08
01
ff
eb
22
fd
00
f9
04
cf
2c
2e
f5
2b
1b
08
f4
f4
e0
00
fd
0d
07
de
08
01
ff
06
22
fd
00
f9
26
cf
2c
2e
f5
28
1b
08
f4
f4
f4
00
fd
0d
07
2f
08
01
ff
06
1f
fd
00
f9
26
12
2c
2e
f5
28
e4
08
f4
f4
f4
cf
fd
0d
07
2f
ff
01
ff
06
1f
1a
00
f9
26
12
d3
2e
f5
28
e4
fb
f4
f4
f4
cf
41
0d
07
2f
ff
e8
ff
06
1f
1a
d9
f9
26
12
d3
db
f5
28
e4
fb
ea
f4
f4
cf
41
26
07
2f
ff
e8
23
06
1f
1a
d9
e7
26
12
d3
db
00
28
e4
fb
ea
ff
f4
cf
41
26
0a
2f
ff
e8
23
0c
1f
1a
d9
e7
23
12
d3
db
00
e8
e4
fb
ea
ff
02
cf
41
26
0a
1f
ff
e8
23
0c
21
1a
d9
e7
23
e3
af
e4
f6
f1
1b
00
fd
05
2f
b4
1c
db
18
30
e7
fb
cf
54
e9
d4
12
20
c2
f1
1f
e4
f6
f1
1b
ac
fd
05
2f
b4
48
db
18
30
e7
c6
cf
54
e9
d4
1b
20
c2
f1
1f
fa
f6
f1
1b
ac
e3
05
2f
b4
48
f3
18
30
e7
c6
d4
54
e9
d4
1b
dc
c2
f1
1f
fa
f1
f1
1b
ac
e3
1e
2f
b4
48
f3
fd
30
e7
c6
d4
fc
e9
d4
1b
dc
f1
f1
1f
fa
f1
1f
1b
ac
e3
1e
e7
b4
48
f3
fd
32
e7
c6
d4
fc
d2
d4
1b
dc
f1
05
1f
fa
f1
1f
29
ac
e3
1e
e7
d2
48
f3
fd
32
17
c6
d4
fc
d2
fa
1b
dc
f1
05
fb
fa
f1
1f
29
e7
e3
1e
e7
d2
e6
f3
fd
32
17
14
d4
fc
d2
fa
e7
dc
f1
05
fb
f2
f1
1f
29
e7
42
1e
e7
d2
e6
11
fd
32
17
14
2f
fc
d2
fa
e7
00
f1
05
fb
f2
3c
1f
29
e7
42
bd
e7
d2
e6
11
f6
32
17
14
2f
fa
d2
fa
e7
00
ed
05
fb
f2
3c
fc
29
e7
42
bd
c7
d2
e6
11
f6
e5
17
14
2f
fa
23
fa
e7
00
ed
ff
fb
f2
3c
fc
de
e7
42
bd
c7
ef
e6
11
f6
e5
12
14
2f
fa
23
d1
e7
00
ed
ff
17
f2
3c
fc
de
25
42
bd
c7
ef
f3
11
f6
e5
12
0e
2f
fa
23
d1
10
00
ed
ff
17
dc
3c
fc
de
25
e5
bd
c7
ef
f3
f5
f6
e5
12
0e
d1
fa
23
d1
10
15
ed
ff
17
dc
0b
fc
de
25
e5
fc
c7
ef
f3
f5
ec
e5
12
0e
d1
04
23
d1
10
15
2b
ff
17
dc
0b
e0
de
25
e5
fc
de
ef
f3
f5
ec
e5
12
0e
d1
04
cf
d1
10
15
2b
1b
17
dc
0b
e0
00
25
e5
fc
de
08
f3
f5
ec
e5
f8
0e
d1
04
cf
2c
10
15
2b
1b
08
dc
0b
e0
00
fd
e5
fc
de
08
01
f5
ec
e5
f8
ea
d1
04
cf
2c
2e
15
2b
1b
08
f4
0b
e0
00
fd
0d
fc
de
08
01
ff
ec
e5
f8
ea
1a
04
cf
2c
2e
f5
2b
1b
08
f4
f4
e0
00
fd
0d
07
de
08
01
ff
06
e5
f8
ea
1a
01
cf
2c
2e
f5
28
1b
08
f4
f4
f4
00
fd
0d
07
2f
08
01
ff
06
1f
f8
ea
1a
01
f8
2c
2e
f5
28
e4
08
f4
f4
f4
cf
fd
0d
07
2f
ff
01
ff
06
1f
1a
ea
1a
01
f8
fd
2e
f5
28
e4
fb
f4
f4
f4
cf
41
0d
07
2f
ff
e8
ff
06
1f
1a
d9
1a
01
f8
fd
2a
f5
28
e4
fb
ea
f4
f4
cf
41
26
07
2f
ff
e8
23
06
1f
1a
d9
e7
01
f8
fd
2a
ee
28
e4
fb
ea
ff
f4
cf
41
26
0a
2f
ff
e8
23
0c
1f
1a
d9
e7
23
f8
fd
2a
ee
d0
e4
fb
ea
ff
02
cf
41
26
0a
1f
ff
e8
23
0c
21
1a
d9
e7
23
e3
fd
2a
ee
d0
db
00
fd
05
2f
b4
1c
db
18
30
e7
fb
cf
54
e9
d4
12
20
c2
f1
1f
f7
12
21
3e
1c
fd
05
2f
b4
48
db
18
30
e7
c6
cf
54
e9
d4
1b
20
c2
f1
1f
fa
12
21
3e
1c
df
05
2f
b4
48
f3
18
30
e7
c6
d4
54
e9
d4
1b
dc
c2
f1
1f
fa
f1
21
3e
1c
df
f8
2f
b4
48
f3
fd
30
e7
c6
d4
fc
e9
d4
1b
dc
f1
f1
1f
fa
f1
1f
3e
1c
df
f8
af
b4
48
f3
fd
32
e7
c6
d4
fc
d2
d4
1b
dc
f1
05
1f
fa
f1
1f
29
1c
df
f8
af
f4
48
f3
fd
32
17
c6
d4
fc
d2
fa
1b
dc
f1
05
fb
fa
f1
1f
29
e7
df
f8
af
f4
e9
f3
fd
32
17
14
d4
fc
d2
fa
e7
dc
f1
05
fb
f2
f1
1f
29
e7
42
f8
af
f4
e9
a9
fd
32
17
14
2f
fc
d2
fa
e7
00
f1
05
fb
f2
3c
1f
29
e7
42
bd
af
f4
e9
a9
4f
32
17
14
2f
fa
d2
fa
e7
00
ed
05
fb
f2
3c
fc
29
e7
42
bd
c7
f4
e9
a9
4f
f2
17
14
2f
fa
23
fa
e7
00
ed
ff
fb
f2
3c
fc
de
e7
42
bd
c7
ef
e9
a9
4f
f2
b1
14
2f
fa
23
d1
e7
00
ed
ff
17
f2
3c
fc
de
25
42
bd
c7
ef
f3
a9
4f
f2
b1
f6
2f
fa
23
d1
10
00
ed
ff
17
dc
3c
fc
de
25
e5
bd
c7
ef
f3
f5
4f
f2
b1
f6
3e
fa
23
d1
10
15
ed
ff
17
dc
0b
fc
de
25
e5
fc
c7
ef
f3
f5
ec
f2
b1
f6
3e
48
23
d1
10
15
2b
ff
17
dc
0b
e0
de
25
e5
fc
de
ef
f3
f5
ec
e5
b1
f6
3e
48
02
d1
10
15
2b
1b
17
dc
0b
e0
00
25
e5
fc
de
08
f3
f5
ec
e5
f8
f6
3e
48
02
04
10
15
2b
1b
08
dc
0b
e0
00
fd
e5
fc
de
08
01
f5
ec
e5
f8
ea
3e
48
02
04
2e
15
2b
1b
08
f4
0b
e0
00
fd
0d
fc
de
08
01
ff
ec
e5
f8
ea
1a
48
02
04
2e
fa
2b
1b
08
f4
f4
e0
00
fd
0d
07
de
08
01
ff
06
e5
f8
ea
1a
01
02
04
2e
fa
11
1b
08
f4
f4
f4
00
fd
0d
07
2f
08
01
ff
06
1f
f8
ea
1a
01
f8
04
2e
fa
11
20
08
f4
f4
f4
cf
fd
0d
07
2f
ff
01
ff
06
1f
1a
ea
1a
01
f8
fd
2e
fa
11
20
d8
f4
f4
f4
cf
41
0d
07
2f
ff
e8
ff
06
1f
1a
d9
1a
01
f8
fd
2a
fa
11
20
d8
3a
f4
f4
cf
41
26
07
2f
ff
e8
23
06
1f
1a
d9
e7
01
f8
fd
2a
ee
11
20
d8
3a
df
f4
cf
41
26
0a
2f
ff
e8
23
0c
1f
1a
d9
e7
23
f8
fd
2a
ee
d0
20
d8
3a
df
e8
cf
41
26
0a
1f
ff
e8
23
0c
21
1a
d9
e7
23
e3
fd
2a
ee
d0
db
d8
3a
df
e8
04
1c
db
18
30
e7
fb
cf
54
e9
d4
12
20
c2
f1
1f
f7
12
21
3e
1c
23
19
fe
0b
28
db
18
30
e7
c6
cf
54
e9
d4
1b
20
c2
f1
1f
fa
12
21
3e
1c
df
19
fe
0b
28
00
18
30
e7
c6
d4
54
e9
d4
1b
dc
c2
f1
1f
fa
f1
21
3e
1c
df
f8
fe
0b
28
00
e1
30
e7
c6
d4
fc
e9
d4
1b
dc
f1
f1
1f
fa
f1
1f
3e
1c
df
f8
af
0b
28
00
e1
e9
e7
c6
d4
fc
d2
d4
1b
dc
f1
05
1f
fa
f1
1f
29
1c
df
f8
af
f4
28
00
e1
e9
22
c6
d4
fc
d2
fa
1b
dc
f1
05
fb
fa
f1
1f
29
e7
df
f8
af
f4
e9
00
e1
e9
22
e2
d4
fc
d2
fa
e7
dc
f1
05
fb
f2
f1
1f
29
e7
42
f8
af
f4
e9
a9
e1
e9
22
e2
c5
fc
d2
fa
e7
00
f1
05
fb
f2
3c
1f
29
e7
42
bd
af
f4
e9
a9
4f
e9
22
e2
c5
f5
d2
fa
e7
00
ed
05
fb
f2
3c
fc
29
e7
42
bd
c7
f4
e9
a9
4f
f2
22
e2
c5
f5
fd
fa
e7
00
ed
ff
fb
f2
3c
fc
de
e7
42
bd
c7
ef
e9
a9
4f
f2
b1
e2
c5
f5
fd
20
e7
00
ed
ff
17
f2
3c
fc
de
25
42
bd
c7
ef
f3
a9
4f
f2
b1
f6
c5
f5
fd
20
c9
00
ed
ff
17
dc
3c
fc
de
25
e5
bd
c7
ef
f3
f5
4f
f2
b1
f6
3e
f5
fd
20
c9
0d
ed
ff
17
dc
0b
fc
de
25
e5
fc
c7
ef
f3
f5
ec
f2
b1
f6
3e
48
fd
20
c9
0d
2b
ff
17
dc
0b
e0
de
25
e5
fc
de
ef
f3
f5
ec
e5
b1
f6
3e
48
02
20
c9
0d
2b
e1
17
dc
0b
e0
00
25
e5
fc
de
08
f3
f5
ec
e5
f8
f6
3e
48
02
04
c9
0d
2b
e1
03
dc
0b
e0
00
fd
e5
fc
de
08
01
f5
ec
e5
f8
ea
3e
48
02
04
2e
0d
2b
e1
03
af
0b
e0
00
fd
0d
fc
de
08
01
ff
ec
e5
f8
ea
1a
48
02
04
2e
fa
2b
e1
03
af
21
e0
00
fd
0d
07
de
08
01
ff
06
e5
f8
ea
1a
01
02
04
2e
fa
11
e1
03
af
21
1e
00
fd
0d
07
2f
08
01
ff
06
1f
f8
ea
1a
01
f8
04
2e
fa
11
20
03
af
21
1e
ff
fd
0d
07
2f
ff
01
ff
06
1f
1a
ea
1a
01
f8
fd
2e
fa
11
20
d8
af
21
1e
ff
ce
0d
07
2f
ff
e8
ff
06
1f
1a
d9
1a
01
f8
fd
2a
fa
11
20
d8
3a
21
1e
ff
ce
19
07
2f
ff
e8
23
06
1f
1a
d9
e7
01
f8
fd
2a
ee
11
20
d8
3a
df
1e
ff
ce
19
f7
2f
ff
e8
23
0c
1f
1a
d9
e7
23
f8
fd
2a
ee
d0
20
d8
3a
df
e8
ff
ce
19
f7
98
ff
e8
23
0c
21
1a
d9
e7
23
e3
fd
2a
ee
d0
db
d8
3a
df
e8
04
ce
19
f7
98
1d
fb
cf
54
e9
d4
12
20
c2
f1
1f
f7
12
21
3e
1c
23
19
fe
0b
28
2c
32
d0
b8
f1
cf
54
e9
d4
1b
20
c2
f1
1f
fa
12
21
3e
1c
df
19
fe
0b
28
00
32
d0
b8
f1
13
54
e9
d4
1b
dc
c2
f1
1f
fa
f1
21
3e
1c
df
f8
fe
0b
28
00
e1
d0
b8
f1
13
dd
e9
d4
1b
dc
f1
f1
1f
fa
f1
1f
3e
1c
df
f8
af
0b
28
00
e1
e9
b8
f1
13
dd
c4
d4
1b
dc
f1
05
1f
fa
f1
1f
29
1c
df
f8
af
f4
28
00
e1
e9
22
f1
13
dd
c4
1b
1b
dc
f1
05
fb
fa
f1
1f
29
e7
df
f8
af
f4
e9
00
e1
e9
22
e2
13
dd
c4
1b
f3
dc
f1
05
fb
f2
f1
1f
29
e7
42
f8
af
f4
e9
a9
e1
e9
22
e2
c5
dd
c4
1b
f3
17
f1
05
fb
f2
3c
1f
29
e7
42
bd
af
f4
e9
a9
4f
e9
22
e2
c5
f5
c4
1b
f3
17
01
05
fb
f2
3c
fc
29
e7
42
bd
c7
f4
e9
a9
4f
f2
22
e2
c5
f5
fd
1b
f3
17
01
fa
fb
f2
3c
fc
de
e7
42
bd
c7
ef
e9
a9
4f
f2
b1
e2
c5
f5
fd
20
f3
17
01
fa
fe
f2
3c
fc
de
25
42
bd
c7
ef
f3
a9
4f
f2
b1
f6
c5
f5
fd
20
c9
17
01
fa
fe
f3
3c
fc
de
25
e5
bd
c7
ef
f3
f5
4f
f2
b1
f6
3e
f5
fd
20
c9
0d
01
fa
fe
f3
ef
fc
de
25
e5
fc
c7
ef
f3
f5
ec
f2
b1
f6
3e
48
fd
20
c9
0d
2b
fa
fe
f3
ef
d7
de
25
e5
fc
de
ef
f3
f5
ec
e5
b1
f6
3e
48
02
20
c9
0d
2b
e1
fe
f3
ef
d7
12
25
e5
fc
de
08
f3
f5
ec
e5
f8
f6
3e
48
02
04
c9
0d
2b
e1
03
f3
ef
d7
12
2f
e5
fc
de
08
01
f5
ec
e5
f8
ea
3e
48
02
04
2e
0d
2b
e1
03
af
ef
d7
12
2f
ed
fc
de
08
01
ff
ec
e5
f8
ea
1a
48
02
04
2e
fa
2b
e1
03
af
21
d7
12
2f
ed
46
de
08
01
ff
06
e5
f8
ea
1a
01
02
04
2e
fa
11
e1
03
af
21
1e
12
2f
ed
46
0e
08
01
ff
06
1f
f8
ea
1a
01
f8
04
2e
fa
11
20
03
af
21
1e
ff
2f
ed
46
0e
0a
01
ff
06
1f
1a
ea
1a
01
f8
fd
2e
fa
11
20
d8
af
21
1e
ff
ce
ed
46
0e
0a
19
ff
06
1f
1a
d9
1a
01
f8
fd
2a
fa
11
20
d8
3a
21
1e
ff
ce
19
46
0e
0a
19
25
06
1f
1a
d9
e7
01
f8
fd
2a
ee
11
20
d8
3a
df
1e
ff
ce
19
f7
0e
0a
19
25
ef
1f
1a
d9
e7
23
f8
fd
2a
ee
d0
20
d8
3a
df
e8
ff
ce
19
f7
98
0a
19
25
ef
15
1a
d9
e7
23
e3
fd
2a
ee
d0
db
d8
3a
df
e8
04
ce
19
f7
98
1d
19
25
ef
15
27
12
20
c2
f1
1f
f7
12
21
3e
1c
23
19
fe
0b
28
2c
32
d0
b8
f1
f2
00
e3
ed
f3
20
c2
f1
1f
fa
12
21
3e
1c
df
19
fe
0b
28
00
32
d0
b8
f1
13
00
e3
ed
f3
de
c2
f1
1f
fa
f1
21
3e
1c
df
f8
fe
0b
28
00
e1
d0
b8
f1
13
dd
e3
ed
f3
de
fe
f1
1f
fa
f1
1f
3e
1c
df
f8
af
0b
28
00
e1
e9
b8
f1
13
dd
c4
ed
f3
de
fe
0c
1f
fa
f1
1f
29
1c
df
f8
af
f4
28
00
e1
e9
22
f1
13
dd
c4
1b
f3
de
fe
0c
10
fa
f1
1f
29
e7
df
f8
af
f4
e9
00
e1
e9
22
e2
13
dd
c4
1b
f3
de
fe
0c
10
e2
f1
1f
29
e7
42
f8
af
f4
e9
a9
e1
e9
22
e2
c5
dd
c4
1b
f3
17
fe
0c
10
e2
e9
1f
29
e7
42
bd
af
f4
e9
a9
4f
e9
22
e2
c5
f5
c4
1b
f3
17
01
0c
10
e2
e9
20
29
e7
42
bd
c7
f4
e9
a9
4f
f2
22
e2
c5
f5
fd
1b
f3
17
01
fa
10
e2
e9
20
e9
e7
42
bd
c7
ef
e9
a9
4f
f2
b1
e2
c5
f5
fd
20
f3
17
01
fa
fe
e2
e9
20
e9
1f
42
bd
c7
ef
f3
a9
4f
f2
b1
f6
c5
f5
fd
20
c9
17
01
fa
fe
f3
e9
20
e9
1f
e4
bd
c7
ef
f3
f5
4f
f2
b1
f6
3e
f5
fd
20
c9
0d
01
fa
fe
f3
ef
20
e9
1f
e4
0e
c7
ef
f3
f5
ec
f2
b1
f6
3e
48
fd
20
c9
0d
2b
fa
fe
f3
ef
d7
e9
1f
e4
0e
1c
ef
f3
f5
ec
e5
b1
f6
3e
48
02
20
c9
0d
2b
e1
fe
f3
ef
d7
12
1f
e4
0e
1c
9c
f3
f5
ec
e5
f8
f6
3e
48
02
04
c9
0d
2b
e1
03
f3
ef
d7
12
2f
e4
0e
1c
9c
21
f5
ec
e5
f8
ea
3e
48
02
04
2e
0d
2b
e1
03
af
ef
d7
12
2f
ed
0e
1c
9c
21
31
ec
e5
f8
ea
1a
48
02
04
2e
fa
2b
e1
03
af
21
d7
12
2f
ed
46
1c
9c
21
31
f4
e5
f8
ea
1a
01
02
04
2e
fa
11
e1
03
af
21
1e
12
2f
ed
46
0e
9c
21
31
f4
0d
f8
ea
1a
01
f8
04
2e
fa
11
20
03
af
21
1e
ff
2f
ed
46
0e
0a
21
31
f4
0d
e0
ea
1a
01
f8
fd
2e
fa
11
20
d8
af
21
1e
ff
ce
ed
46
0e
0a
19
31
f4
0d
e0
0e
1a
01
f8
fd
2a
fa
11
20
d8
3a
21
1e
ff
ce
19
46
0e
0a
19
25
f4
0d
e0
0e
5c
01
f8
fd
2a
ee
11
20
d8
3a
df
1e
ff
ce
19
f7
0e
0a
19
25
ef
0d
e0
0e
5c
ad
f8
fd
2a
ee
d0
20
d8
3a
df
e8
ff
ce
19
f7
98
0a
19
25
ef
15
e0
0e
5c
ad
ed
fd
2a
ee
d0
db
d8
3a
df
e8
04
ce
19
f7
98
1d
19
25
ef
15
27
0e
5c
ad
ed
1e
