d3
fe
fd
20
dc
fa
18
37
0c
22
f2
27
e5
e9
e9
c9
10
0c
e8
41
15
e6
00
ff
ff
07
1e
fd
11
2b
1b
f9
e9
16
f7
1d
fb
0f
08
ec
0d
22
f1
12
f8
fd
04
07
09
0a
f5
07
f3
ef
eb
08
ca
ed
e3
2b
cf
ee
27
f7
f5
16
ef
f2
32
39
24
21
00
20
05
fa
e9
de
f7
08
3a
cc
ee
d3
0e
fb
1c
07
1d
0d
01
2b
1e
e9
13
f7
3a
f6
21
01
d5
1a
22
27
37
d1
16
cc
11
16
29
2f
eb
06
21
f7
f6
da
2a
03
cb
e8
f1
42
08
f1
02
1d
25
42
48
f7
0e
09
df
00
e5
f3
f5
ce
c7
04
04
0e
1a
de
cc
07
ef
f1
de
1b
f5
f8
12
03
e3
21
de
d5
32
0c
17
0e
e2
fa
b6
f7
17
21
e7
18
c7
e9
fa
08
ff
30
0e
0a
e8
0d
f6
f6
05
33
e4
06
10
e9
f7
1d
e9
fe
ea
f5
18
03
21
1a
f6
03
d6
00
e6
0f
ef
e2
1a
07
0c
0d
1a
17
cd
0a
e5
03
13
1a
12
f7
dc
0b
2b
33
f7
13
07
e1
f1
fe
f0
16
d9
de
0b
e4
ff
fb
35
1a
d5
06
e8
1d
20
ed
fa
19
ff
f2
31
bc
1f
d3
1f
f6
08
16
09
09
02
e9
43
e5
07
0f
f7
2f
e7
e4
30
df
b3
ed
00
1b
3a
14
30
ff
cb
01
02
e5
26
e4
ff
fd
f1
01
fa
1b
2e
1f
f7
ea
12
08
f9
2f
04
04
19
f3
21
03
fd
1a
e4
3a
fb
f1
24
cd
0a
e2
e6
e4
e5
08
d9
fa
fe
16
cd
1c
f0
06
1e
13
05
f6
d8
e2
05
d9
fc
f2
16
fa
e1
e5
10
e0
b9
0e
b5
e8
bd
ef
34
22
11
d7
02
13
f5
1b
0b
f0
09
e6
ee
d8
f5
01
1b
1b
d8
2d
fd
27
f0
ed
06
08
fe
e6
f8
d6
da
28
d8
f1
19
dd
07
e6
e1
ea
fe
0c
00
d8
e1
0e
f3
09
f6
f4
f1
05
ea
08
ec
09
06
15
fa
e3
ee
de
fa
ef
1b
0a
fb
1d
ff
e1
03
14
18
0b
fc
ef
ed
00
e2
24
02
ed
06
14
de
fc
08
08
0b
1f
ee
d5
01
2c
02
22
0e
0d
f9
0d
22
14
22
e9
fb
ea
1e
dd
ef
da
08
fd
dd
05
0d
ed
ff
1e
fa
ea
05
f0
17
3e
1e
c7
23
c5
e7
fd
32
d4
e9
e4
e1
ff
2e
04
fc
dd
09
13
01
e6
07
df
10
ff
e8
11
10
f9
fd
f8
d7
29
03
e3
d6
e3
fb
1f
f3
ff
c9
e0
13
e0
47
08
f2
cb
0d
40
09
21
27
13
14
ec
06
13
dc
14
0a
15
27
f0
ed
0e
01
f6
25
e5
0f
02
ae
fe
15
e9
0c
09
1b
2f
e9
ec
29
14
dd
34
ec
00
08
0f
22
e3
e0
0e
27
d5
e5
f6
f9
ed
19
f7
eb
0a
fd
3b
03
e5
0b
d2
3c
f6
f9
e6
e3
de
26
28
da
da
0b
0a
3a
27
0f
ee
01
07
e2
f5
28
d3
25
fc
0f
e0
1b
d5
1b
17
f6
f6
da
f9
eb
26
12
db
df
1e
e6
cb
01
ce
04
02
e5
15
e2
2b
15
45
16
eb
01
2d
d2
f5
05
f2
fa
f3
0d
dc
f4
00
03
e1
ed
e8
11
f2
f9
1b
1a
0f
ee
0b
18
18
0c
1c
eb
21
01
04
2b
f5
e2
ee
2c
e8
ec
2c
31
1a
e4
f9
08
08
2d
f8
0d
3e
0a
de
1f
0a
05
0d
03
e2
ec
f2
c4
45
fe
f3
08
da
f5
0d
ee
fe
f2
50
07
2a
10
30
e5
da
3c
35
b5
31
06
1f
3c
23
fd
e5
e1
f3
2f
e1
e9
d6
f2
03
eb
e8
eb
f4
fa
fb
13
05
2d
df
22
ed
eb
f3
21
e1
ca
1f
f0
f7
10
d8
fc
e8
e5
07
2a
ed
08
f4
db
e5
06
2a
e9
23
02
17
e5
38
0a
02
f7
f5
38
e8
fc
00
07
19
12
05
14
29
12
f6
f3
f0
1d
fd
e6
c4
f8
37
28
0c
0b
0f
49
f3
fd
1c
04
fa
bc
f2
ea
f1
20
05
04
25
e8
16
1c
ea
10
14
0f
19
d6
1a
15
3a
e2
28
f3
f9
19
e8
f2
e7
f5
1f
00
f7
14
0d
26
0b
06
f0
f9
e9
ef
fe
0a
2f
ff
dc
0a
e7
fd
00
9a
27
1b
e8
ef
f6
0f
fd
f8
f2
fb
ed
fb
fa
f0
16
0d
1b
11
eb
ee
3d
d9
ed
2f
10
e2
05
e5
d8
f6
0c
0f
00
0a
e9
e6
1a
13
d6
05
26
fb
1b
f4
44
d4
06
1b
f9
11
3a
10
f3
1e
0c
1a
04
42
02
fb
13
0f
02
df
ed
01
00
0b
fb
19
12
23
f2
00
fc
b5
e8
10
00
14
23
e6
1c
2d
1d
13
ce
14
1c
d2
ed
11
00
e5
16
01
d8
f8
c4
09
34
dc
00
36
e5
23
c6
f6
ed
d3
0c
eb
eb
00
19
f1
c4
36
e0
ec
fb
11
13
d7
1b
ee
0c
00
0f
d5
ec
09
f3
ff
18
25
0c
07
f7
c0
e7
ef
11
ff
f0
e5
da
13
1a
ea
ea
de
26
e7
e7
22
ec
fc
e4
02
f8
00
fb
f5
0e
ef
ec
12
17
c7
1f
db
ed
08
31
f2
dd
0d
20
e7
fb
f3
f0
1c
1c
0f
d8
f8
dd
dc
d9
00
d4
01
14
e8
16
d3
13
21
fd
d9
06
fb
07
31
12
0c
02
35
31
3d
f2
f9
0d
26
07
e3
16
1a
17
30
ef
dd
f7
e3
01
0e
da
17
15
19
e8
13
d7
34
26
fd
1d
e7
18
f4
3f
12
f7
22
2d
d9
07
18
f9
1f
eb
d9
f8
ed
df
d8
f8
2e
ff
1a
e8
15
13
1f
ed
09
d5
e6
12
0c
20
08
10
17
2f
02
10
18
f5
1b
fe
e7
15
f7
38
04
0a
e0
fb
f4
06
e9
06
00
fb
f2
b4
f4
d7
37
1a
22
1b
f9
fc
3b
ff
18
fb
c7
0f
e7
0b
15
05
ea
e3
2a
2d
f2
eb
3a
15
0f
f3
1d
18
ed
0f
ee
f7
05
13
f3
20
03
2f
e3
0e
06
e1
02
ef
11
f9
13
fe
d9
49
04
c0
11
09
dc
ed
1f
cd
0f
c1
fe
ea
31
0d
22
cb
f3
de
30
d6
c0
fe
09
25
d7
fc
f7
ee
2d
f5
12
ef
3a
ec
fc
23
24
11
d2
f5
f4
29
eb
02
1a
d9
b9
e5
cb
3c
32
f5
00
f3
e8
ee
25
00
e3
19
0b
d8
ff
06
08
f1
17
2c
f8
01
ce
c1
0e
e1
0f
e8
e6
35
1a
fb
15
0a
0a
f8
13
01
08
04
dd
0a
f5
0b
0c
1e
31
20
e3
fe
28
0d
1a
de
10
15
cf
0a
e2
2c
02
0a
2e
18
db
ec
ef
d1
e8
d0
f4
c0
08
f6
fa
e9
2c
21
01
0f
e9
45
03
09
13
fc
08
f2
0b
f5
ee
02
e0
fe
27
ae
fe
fe
ef
eb
e3
e1
e1
c5
25
34
f1
02
01
35
02
19
06
29
c4
09
24
37
00
2e
01
0f
e8
fb
14
0f
0c
d1
f7
06
e9
dd
14
09
11
05
c4
fa
f0
eb
0b
0a
02
fe
ee
15
fe
1f
1c
1c
09
16
17
0c
11
e3
e5
2a
de
ec
19
03
f8
15
f8
ed
17
cc
f3
1d
fa
ec
05
16
e4
d2
0c
0d
f1
d8
e6
0b
eb
1a
ec
1c
fc
0b
02
05
f9
11
ea
fa
02
f6
fd
1e
f2
f7
fa
2a
03
ce
06
07
e6
c4
dc
f5
f2
23
f0
06
08
dd
f6
25
f3
fa
fa
fc
13
f8
21
0a
e6
cb
cd
fa
f0
48
1b
04
09
06
0c
1c
cc
22
1c
1a
f5
ea
eb
f5
22
18
1f
ec
f4
07
eb
13
07
d8
d7
fc
d4
f9
1d
de
fa
ce
2f
12
1d
11
e3
f1
0f
13
f3
08
f0
e9
d3
c0
ed
dd
2a
b9
24
c8
44
d8
14
45
02
c6
e0
f1
d7
c6
21
ed
eb
05
14
1d
07
c9
34
d4
e6
d9
02
14
c7
ff
fe
f0
14
14
f5
0e
08
dc
f9
df
2c
f8
1c
0d
0c
fa
f4
01
21
ce
0f
04
00
fc
17
e6
e8
ec
db
05
03
0c
08
e1
f7
ee
22
cd
d0
f9
1b
f6
dd
df
04
e1
2a
fd
dd
26
ee
26
e9
e7
ff
03
26
fd
f5
f7
1c
e5
f4
f0
11
d7
02
05
27
0d
e3
26
f0
e6
c2
e0
14
f7
0e
01
1f
e3
f5
ea
e6
d6
04
fa
c1
e8
d6
e7
16
03
18
00
f1
e7
ee
fc
0e
ff
d6
ec
c6
d9
dc
13
0b
33
e7
f8
16
2d
23
2e
d5
06
29
04
14
ef
3b
d8
d6
0f
18
e1
fb
06
1c
c8
12
e7
28
13
08
08
24
e4
2e
2c
fc
fc
1f
e9
fe
f9
20
f7
e5
0f
42
02
07
ef
2a
05
15
11
d7
17
f8
e2
0f
2e
0b
f5
da
04
dd
ee
05
16
ed
05
f6
f7
e7
f0
22
d0
29
36
1d
e9
eb
eb
e1
fc
1d
1d
ec
0f
ed
0f
17
04
10
db
f2
29
fb
1b
4a
04
ae
e1
11
f1
fb
01
0f
fb
f3
f0
08
29
15
c5
f5
c8
f3
ff
26
05
01
0d
cd
01
f4
18
10
10
f5
17
ea
f7
f1
f1
ed
ee
e3
d5
07
26
ee
49
11
d4
1a
08
3b
ee
e7
d4
fb
2d
dd
ea
f1
26
fd
ea
23
0a
ef
be
2d
21
ce
3e
0b
e5
db
f1
22
18
f0
f7
f1
eb
fd
c5
ed
19
fa
f2
e2
07
fb
23
f1
e1
06
f6
08
f1
e3
1a
f8
16
21
00
ee
1d
1c
23
46
06
12
d9
00
dc
21
e2
fa
db
02
e5
16
df
c9
1c
fd
e8
df
c8
ec
23
f6
06
06
1b
02
0b
ff
fe
f1
05
fa
f2
0a
25
10
da
1c
b3
2d
d7
e4
ff
07
28
1e
1f
26
11
02
57
f8
e6
f6
0d
36
fe
19
32
27
01
f2
d7
3f
e1
fd
f6
1b
03
26
29
da
16
0c
1b
35
08
cc
31
1c
0e
fa
0d
fc
03
0e
27
0e
d2
0c
34
33
fd
f1
e1
ea
27
00
fc
f0
de
fe
f2
07
f7
f0
02
0d
35
e2
fd
f9
1a
06
d4
df
f6
d2
cc
f2
2d
f2
27
fa
d8
f6
bb
37
eb
f2
04
21
1f
bd
ea
ed
f2
32
de
e1
f0
18
de
f4
0b
12
10
fe
e9
25
f9
04
00
19
f1
ee
c8
f0
1a
e1
17
12
d8
f9
da
11
f3
19
13
f7
27
00
30
07
1d
e7
09
b3
ff
0a
d8
0f
0d
02
15
f3
08
d5
1e
fc
05
12
02
e6
02
f2
0b
f3
e2
24
d3
f7
21
e8
fc
08
dc
08
0d
03
05
e5
01
1a
02
0b
f1
ff
ff
f2
1c
e6
f1
1f
1d
eb
f5
12
0a
13
db
ec
0d
c1
f8
ff
f1
10
fa
3c
f5
e1
f7
f5
44
2d
fb
0e
2c
04
f2
32
f0
25
0f
14
fc
29
00
db
dc
bc
eb
e8
0e
fc
ed
f9
08
e6
27
e9
25
d3
0c
19
f9
0e
17
e5
1e
18
ff
22
d9
41
fc
fe
09
20
dd
04
18
16
d3
ea
f4
ec
07
22
0d
f9
0c
93
1d
df
0f
d6
11
0c
13
17
01
1a
fb
ec
11
e0
09
f6
0f
f5
02
eb
2f
01
ed
de
26
fb
f7
f9
fb
ec
f0
2b
0c
f1
24
13
0b
3b
f8
b8
f6
ed
f5
e7
10
eb
eb
03
fb
47
02
f7
f0
d9
18
d9
e1
03
ea
db
d9
d5
07
07
02
08
e2
e1
05
e9
19
ff
1e
0e
eb
f4
04
33
10
de
f2
04
14
06
1d
3c
14
d2
ef
13
fe
e2
c1
13
f6
dd
fc
f9
30
04
fc
d6
d7
07
e9
b0
07
03
01
f0
1f
e7
05
e6
ee
e5
e6
fa
e5
23
01
f7
2a
05
f4
f2
d6
00
16
0c
eb
16
e5
07
fd
ee
11
06
30
e9
0e
1d
f0
f9
36
fd
f1
de
46
f0
fb
00
06
2e
38
06
10
f2
ee
0e
17
0e
1f
34
05
e3
a5
06
dc
ff
0d
16
fc
f6
0e
1d
33
e2
1f
d2
2f
e0
fd
ea
1a
33
0e
0c
06
35
f3
e1
1a
09
19
d3
01
fd
d9
ec
00
e9
13
db
d4
3a
f1
ff
17
fd
1b
03
07
16
c8
ed
de
01
23
c8
0e
24
f1
f8
08
00
ef
0c
26
b0
01
15
0c
dc
0c
f4
f3
0c
20
f1
e7
1f
f5
f2
d8
1a
22
f0
f5
f7
da
14
dd
ed
fd
ea
f4
29
44
27
cc
de
00
ed
09
e7
e6
da
f7
ec
0e
0c
20
08
06
ca
30
df
17
f3
ef
fd
05
1a
08
14
f2
17
df
f7
f9
e2
30
e2
e4
0e
0f
1d
ff
f8
fb
f1
51
fd
07
e7
fe
e5
06
27
f8
0e
fe
c9
fa
37
f2
1a
04
ff
1b
d0
15
17
14
fd
f4
1b
c6
00
0b
07
dc
eb
07
e7
1c
d7
fe
e0
33
21
0e
26
22
fd
e3
18
d5
27
1f
0d
fd
fa
ec
eb
08
ef
17
e9
2d
10
2a
ee
08
0c
25
1c
cb
2d
25
16
0b
20
17
12
d6
f7
0f
01
dc
2e
f8
cc
0e
00
ee
2c
11
1f
f7
f7
21
03
e8
02
ef
fd
08
0d
e2
f4
0a
1b
28
09
01
17
e5
f1
e3
1d
fc
36
e9
18
37
e0
36
f5
f1
0c
0b
03
25
f0
d4
e4
13
2c
0f
e8
24
eb
f7
bc
fb
fe
23
df
fe
03
f4
e7
00
20
0b
e6
21
11
18
07
e8
e0
09
e7
ea
f8
1b
fb
14
e4
25
fa
ef
f3
da
0b
da
16
fe
fc
cd
0b
c6
09
ea
2a
1c
f5
eb
12
ed
ce
d6
e9
c7
0f
0e
2c
10
36
ee
2d
2f
06
00
05
e4
10
02
1a
d6
1e
c4
ef
f6
05
c9
f2
e0
d4
05
0b
f1
09
fc
1a
f2
e7
d3
07
d7
22
f9
1b
fc
bf
f9
0b
e1
26
ea
da
e3
1b
18
10
e8
fa
10
fa
04
ea
c7
08
c5
0a
0b
ee
d5
2d
c7
f8
f7
f3
1c
0e
0b
05
05
04
16
f9
10
f5
f0
04
e6
32
f0
e8
bf
e4
f4
ba
0b
ff
f6
09
f9
1d
e1
07
3b
31
0c
0d
c2
cf
b8
e6
09
14
db
f6
fe
fb
00
f3
c3
04
26
01
25
df
ec
ea
e0
1a
d2
00
d3
13
07
fe
00
15
f0
2b
e6
fe
f5
ec
3c
f5
f2
04
0c
0d
fe
1b
d5
54
fb
f7
09
00
13
22
25
f4
0c
0f
d7
0f
38
fc
1f
0b
ed
00
01
fd
11
f2
da
fe
cf
fd
26
f2
0c
f8
fb
f9
f0
02
16
d2
e1
0e
35
ec
fd
03
13
be
0a
fa
d4
0f
0f
09
00
1d
ff
2b
04
09
e3
f2
2f
16
05
04
2c
4a
d0
fe
e3
0a
f6
20
f1
e7
ed
d3
ec
ef
fc
03
0a
07
01
15
d5
12
d8
11
0d
0f
17
ff
fb
d7
0e
01
e5
aa
16
0c
1c
d4
13
25
e0
10
08
bd
ac
fc
fd
22
f0
f7
ed
d0
20
38
e7
1a
32
e0
e3
fe
e5
0e
f8
1a
e0
20
0f
e3
19
eb
10
27
1e
1b
f0
02
32
cf
eb
db
12
f0
f8
f1
e0
28
f3
fb
2f
fd
d3
20
0d
e1
e4
f8
14
f6
f4
ea
11
f5
c7
f5
fe
f0
12
e6
f0
fb
25
fd
0c
da
0a
04
d7
13
1e
07
d1
e0
e6
23
23
fa
fc
ea
01
16
1b
01
05
2c
1e
d4
ed
ed
e0
e6
12
29
1c
d4
e1
e9
e6
13
22
05
12
da
00
2d
1a
e4
28
2b
09
0b
d7
ef
0d
24
26
0e
ee
19
e6
fa
3c
0a
f1
fe
f8
14
10
e8
df
05
fb
e7
f7
10
15
e4
f5
fc
0e
02
0f
f4
d1
e6
e0
ea
f2
2d
07
ff
e4
fd
16
fa
f2
2b
1a
02
1b
1e
cb
f6
dc
f3
cd
03
03
25
e8
06
de
18
e9
21
c7
da
30
c8
e0
dc
e8
02
06
fb
f2
eb
f6
e5
44
40
1a
2a
2c
c9
e5
e9
d8
2c
ed
0a
1c
0e
03
29
e7
04
dc
0a
fe
01
32
1d
f8
e1
1c
f7
09
02
f2
10
ed
13
fd
17
04
3d
2c
2d
1d
e8
fe
03
14
02
14
2b
13
10
f9
1a
e3
21
b9
20
26
fb
ef
d9
3b
16
0e
2a
01
16
e4
fb
3b
d1
03
04
d1
20
ec
f7
eb
f1
df
0b
07
06
00
1f
e6
e8
18
f4
0a
ce
26
b0
20
fc
08
bd
1f
1a
e7
f1
1c
e9
52
08
3a
ba
f1
e5
09
f5
13
9c
f3
02
fd
18
01
08
cd
3c
04
0e
fa
1c
f8
04
2e
ec
11
d5
06
24
27
15
04
1b
f5
19
2a
04
e2
13
4f
d8
d9
0a
f5
05
ff
fc
08
12
f7
f9
d8
39
2d
f6
05
01
f3
ed
f9
10
0d
0c
0f
03
1a
11
2b
fc
04
21
ff
2f
f8
11
0c
f9
09
d3
f7
10
0d
eb
25
d8
bf
0c
0d
e6
f6
f7
ec
3a
13
f4
f2
04
43
f3
fe
de
da
2b
08
d0
09
fc
00
ef
fd
06
f0
f3
c8
05
f4
f6
ee
2b
1e
d2
ef
f5
02
1e
ef
d7
13
f8
f7
ed
dd
19
09
ef
e8
e1
09
f2
fb
08
f9
cc
f8
3a
eb
2e
cf
ed
e8
ec
d8
fb
fb
dd
0e
1b
ea
c5
03
0d
26
12
11
08
12
21
06
fd
ef
f4
05
23
06
f7
12
26
1e
13
f4
e0
00
e9
ef
04
fe
ef
3f
1d
11
13
00
1d
32
19
d5
07
e8
f9
25
1e
0b
ee
3f
f6
16
fb
f5
e1
f2
05
b8
06
2f
29
04
2a
09
08
d2
f4
06
e9
1f
c3
ee
f5
f1
cf
f8
e8
e1
fa
0a
3c
11
15
f5
e0
0f
02
24
bd
16
ed
e1
14
13
08
5a
e4
e7
13
23
1c
32
1c
e9
de
0f
32
f7
16
2d
00
fa
f5
f1
eb
0d
ed
17
02
ae
d5
fa
16
18
3c
16
18
3c
12
28
09
fa
db
ff
df
03
ff
1b
2d
d8
f6
27
f0
1f
1e
fe
24
ee
eb
0c
01
07
35
04
2c
12
e0
15
00
29
2e
1e
f3
17
2b
d5
0a
f6
15
d0
d0
14
ff
01
ed
ea
e0
10
fb
15
fe
14
04
e9
09
e9
eb
d6
f5
0f
07
d4
ff
e3
de
fb
eb
f8
db
17
20
12
d8
0c
bd
df
e9
ef
07
e4
f3
20
df
0c
26
11
e4
1c
f2
16
2c
08
2b
f2
fd
ea
0b
36
fd
13
16
f3
f9
e1
1f
12
f0
07
fc
2f
2d
e0
01
07
f8
ce
19
ff
ea
de
fc
f7
0f
f4
ed
22
01
e0
19
0a
ee
ee
cb
1f
10
e1
29
0b
0e
ec
33
c3
01
1c
18
fe
09
39
12
f0
1c
d6
f1
df
28
20
17
18
ea
e1
15
0f
22
fc
3a
e9
e1
f9
e5
25
db
1d
06
d7
e6
3f
ff
09
eb
33
13
f2
1d
e1
44
e0
20
05
e2
f8
0e
13
e8
09
db
1b
e6
f8
16
0b
f7
0a
2a
1b
01
20
0a
ef
d9
ed
f8
eb
03
fc
0d
df
0b
2e
0c
fc
ea
ea
ca
04
0c
f3
0f
15
20
e6
ef
e9
e7
00
c7
2b
e0
3d
e4
f0
f5
27
d1
0b
21
ea
19
24
26
07
eb
1f
ea
ed
36
f4
ec
35
44
06
f6
f4
09
01
0f
f9
13
f5
db
e0
02
fa
04
e1
18
13
e7
fa
29
16
16
05
f3
ef
f4
cd
15
fd
0e
1c
07
e2
04
f8
0b
07
ed
f6
eb
05
02
08
3a
17
11
0c
f0
07
fa
ed
e5
eb
eb
e7
0b
f2
d5
0f
da
2a
ee
2f
00
28
1c
16
15
fd
11
e0
1a
ff
ea
21
f2
cd
fe
3f
e8
f1
ea
00
f3
1c
d4
ea
1d
ca
e7
0e
20
25
ed
19
04
16
ed
03
f2
fe
5a
fd
e8
e6
f2
1c
11
d4
39
ef
f1
08
31
fb
2e
0f
05
1d
1c
e6
ff
1c
ee
e3
09
0d
cd
e8
ea
ff
db
07
f2
e9
0f
f0
f2
ed
f7
0f
16
10
f9
22
23
dc
19
26
1d
18
17
e5
10
fd
f8
fb
ce
0e
01
06
fe
f3
13
0f
1b
fc
22
1e
0a
07
fc
e6
02
15
fd
fa
12
03
dd
ee
ec
c6
02
cb
f3
18
17
d6
de
30
fa
f0
eb
17
02
23
23
fb
24
f6
1f
fa
e3
12
f1
2e
f4
09
e9
fe
fc
04
f0
0e
01
f2
1c
f5
07
2c
1a
17
de
de
04
ea
fc
3c
06
10
d9
1a
d6
07
0d
f6
12
0f
24
2b
29
f4
e6
2a
19
08
e0
df
ef
21
04
1d
09
2f
2f
e6
26
d6
0e
16
01
19
01
d8
f3
19
01
03
19
f6
ff
f7
f2
c1
ec
33
e2
d9
fd
09
e9
08
dd
fe
fe
eb
11
25
e7
00
0e
06
f6
0f
15
d0
20
0b
d0
d4
e7
1a
c8
be
f6
0d
f5
18
14
d3
e5
fd
f9
37
36
f5
1f
08
1e
0c
da
f5
ef
bd
0b
06
1a
de
1d
24
fb
f0
f7
29
fe
23
ea
ee
2a
ed
0c
fa
16
23
e2
e8
16
f4
d3
d1
ea
05
00
d9
e8
d1
f1
1d
fb
d3
04
eb
0e
ee
03
f9
19
06
40
f2
07
03
20
f9
36
c5
2c
1c
3c
f0
e7
eb
cc
43
19
fc
dd
f4
f9
04
2a
13
fa
ec
16
f5
2e
25
f3
fc
13
f9
f6
0e
16
ef
d4
0a
08
1c
e9
16
f7
05
0e
dd
3c
e9
02
08
28
f9
04
31
1e
0a
1f
db
14
f3
f4
15
1f
d6
f5
10
ee
d5
11
02
f4
eb
fc
3a
18
12
04
f5
ff
0c
0c
0e
08
f3
1c
f9
f8
2e
c6
ef
f9
2f
fe
15
0a
17
0b
04
f7
1c
37
25
01
2d
db
f3
0e
f5
ef
23
20
41
06
2c
1c
d4
19
0e
e9
1a
14
12
13
bb
fc
e9
df
00
ec
38
e9
08
f8
19
1a
f2
01
10
0a
f4
16
dc
17
08
ea
fd
07
fb
f8
18
30
0c
11
04
ce
dd
0f
0f
04
b5
25
00
ed
f4
ee
0c
d6
e0
f6
de
13
f6
fe
da
ba
d7
09
1a
f3
12
02
f7
de
da
cb
f2
db
2a
fc
ef
01
09
1b
08
ed
e9
fc
0f
27
f9
e7
e9
14
f4
15
f3
2d
ea
fa
0e
f3
ed
00
02
f3
1a
f4
ca
0b
e7
15
06
f1
00
f5
e2
05
f2
ea
01
e6
34
ea
25
11
f3
d4
f1
e9
22
26
ff
19
22
e5
1e
07
06
02
03
2b
fb
ba
ce
1b
00
24
1e
2f
fa
e2
ef
08
f1
f3
1c
06
16
ec
07
c1
e4
0e
1b
1d
f4
0f
03
01
e6
e4
2a
e2
f4
f2
1d
16
e7
f8
e9
23
ea
db
e1
00
0a
02
e2
fd
2e
cd
06
cc
1f
19
df
fa
df
10
fb
03
2f
06
ea
ad
dd
fa
03
ed
e7
04
2b
ff
db
08
0d
ff
15
da
f0
fc
ef
e1
2f
1e
18
fc
fe
02
e4
1a
d6
f3
08
15
08
d6
eb
f2
f2
fa
0d
d7
11
f6
df
17
16
e2
ea
fd
ff
1f
f7
f8
fe
f4
1e
1e
dd
29
e1
ef
fa
0b
21
31
08
1e
02
f0
ef
fd
1b
02
f5
f8
1b
0b
16
fe
05
1c
1b
e9
f9
0c
16
ee
10
ee
01
11
fa
f5
13
18
f1
f6
1a
29
1a
02
f8
f5
fd
a1
1d
06
fb
12
07
0a
29
09
12
e9
06
ec
02
fb
04
09
04
0f
f0
15
e8
fe
17
f5
26
00
f4
0d
e2
eb
f0
d1
04
08
2b
f8
f8
16
db
fc
06
dd
fd
21
29
02
f0
34
09
0d
fc
c6
05
2a
20
dc
34
19
ed
03
0d
10
ed
3c
02
08
cc
58
21
ec
f2
1b
f9
03
14
18
fb
27
00
f7
14
ea
14
06
1b
d8
d4
27
eb
ff
df
3a
1b
e4
ee
fd
e2
f1
f4
fc
0e
da
01
f0
00
f6
dd
35
12
f0
f9
e4
35
bd
11
f5
d1
27
0f
e9
00
ef
01
02
f7
10
01
d0
09
fe
e1
18
c4
0b
1c
e1
05
dd
fc
09
00
e6
cb
db
f3
04
1b
fd
1d
e7
f3
1b
d4
cb
f3
ea
26
f2
f3
0e
fe
d2
0c
34
e5
f0
da
0c
d1
e1
f4
eb
15
ed
c1
22
3f
03
01
16
01
04
14
ce
fb
fc
f7
d4
ee
08
d9
f7
de
f1
f0
0d
0b
0b
0f
d1
fc
b8
0c
d1
0f
2a
13
05
c0
f4
19
e7
0c
d6
d4
f6
08
0e
02
e5
fe
30
15
15
13
12
ff
14
fe
e6
1d
20
e4
0a
e0
fa
f5
f1
fe
d5
f0
d9
e7
1c
eb
38
81
0c
f9
23
ef
2f
0d
14
d9
e7
ed
c7
e2
41
d5
00
12
0a
ee
f1
25
32
e2
09
1d
0f
3f
d4
2d
0b
05
fc
17
f6
f0
eb
05
ce
24
d8
ef
21
16
1b
22
f0
27
fc
ea
ef
fb
fd
0a
ee
e6
1f
04
0c
d0
ea
0f
f3
14
20
02
f1
2d
27
d6
ef
e4
31
e8
18
fe
08
fb
0a
1a
ed
1a
0f
e5
0f
d8
0b
0e
e0
fb
32
d1
09
fe
26
3d
12
07
e9
23
e0
19
36
f4
e1
02
08
eb
ef
05
01
e5
0f
16
12
2d
ff
04
11
f1
d9
eb
e4
09
f3
e8
1e
e4
15
04
33
06
b0
00
e8
21
d6
e1
f9
b6
e6
1b
d6
e2
da
f5
0d
da
ee
19
e4
e3
f0
01
f5
e5
17
eb
dd
fd
06
06
f9
e0
ed
f3
fb
09
07
f3
f6
e9
f2
32
12
f2
13
ed
e9
ea
f5
0b
d8
ec
0d
09
f9
ed
ec
f1
01
01
d2
ee
f8
03
17
02
ce
26
1c
1b
f8
e5
03
d9
01
e3
0b
2c
02
04
02
07
fd
f1
1d
fc
cd
da
ed
19
18
08
f1
0e
de
f4
20
14
f3
f9
1a
1b
03
fe
02
df
03
14
fc
0a
0d
e5
ff
ef
eb
df
e4
e1
eb
ef
17
d0
0f
fa
f2
24
fc
d6
ce
cd
04
e6
f9
f5
1a
f7
06
fc
26
34
d8
e2
38
20
2d
f2
e9
21
1e
13
12
2c
fb
e9
04
e7
e4
f9
29
cb
05
f1
18
bb
d9
f6
ca
07
f1
33
04
e5
f7
f9
29
0e
06
e9
e2
fd
0a
0a
1b
eb
e1
0c
1d
f7
05
d4
fe
04
df
38
13
f0
0b
d7
e3
11
d9
1b
e7
29
fe
f7
1f
e0
fa
f5
fe
17
06
04
ec
f0
eb
05
07
08
d6
ad
e2
f6
27
eb
f6
16
21
e6
36
1e
02
f1
0a
d0
f8
d6
2f
f5
04
e0
f1
20
d7
05
de
da
ec
1f
02
16
09
20
f2
ff
f9
cd
d0
1c
e8
0d
1b
01
1a
e0
f3
20
19
05
17
ff
27
37
0a
02
f4
f2
e0
40
1c
16
f6
07
e9
fe
fa
f9
15
e8
de
fd
0f
2a
f8
f3
26
1d
00
eb
08
36
08
f0
00
13
1a
de
db
09
ff
ef
07
20
14
18
29
03
2a
db
03
11
0d
da
fb
42
f3
f7
fc
1e
e3
00
27
e0
e7
37
e2
1f
fe
f6
fc
f4
09
1a
ea
16
2b
e0
03
05
fb
25
18
f0
db
cd
22
eb
f9
ed
fa
13
e7
f1
14
12
2d
04
0d
cc
17
ef
25
2d
f4
36
2a
ff
e9
fd
06
ec
ea
2c
1e
fa
f7
0c
e9
0a
c8
dd
0e
f3
00
34
03
b8
eb
f4
19
09
01
01
27
d4
d7
fc
0a
01
fd
ed
f6
ba
02
ef
e8
04
53
e7
e5
29
e7
27
f9
d5
0e
df
24
ed
08
3d
ba
3b
06
28
00
17
d6
f4
1b
1b
eb
17
0e
2c
e2
5a
15
36
06
22
1f
00
28
f1
d7
f8
0d
f5
f4
cb
d8
d6
1e
f4
3e
f9
fa
36
1f
16
c0
18
10
da
19
22
00
d7
27
11
00
f1
14
02
19
f7
ec
19
e8
da
13
12
3e
da
d6
03
30
15
09
33
10
f1
fe
1e
f3
0e
dd
f6
f4
e0
e1
04
f0
26
01
0b
ea
20
0a
25
ee
05
fa
16
fb
f7
14
ec
c9
d4
0c
20
f4
ca
18
27
34
1a
10
11
02
39
03
e1
ed
cc
07
d8
f8
e2
0c
f6
ff
c9
ce
41
9d
00
f1
e8
e5
29
cc
0e
eb
f9
f4
f7
fe
fa
d2
04
14
f5
f7
c0
f1
07
1b
07
e2
b8
df
1a
f6
eb
16
28
dd
f5
ef
e1
0d
ec
d9
1b
1e
04
12
f5
04
ea
cf
ce
1b
da
f9
f6
cf
ef
ec
ed
f9
38
eb
21
f4
f5
04
2c
03
f4
cf
00
06
0c
f8
0e
1b
0a
e3
0d
c8
1a
24
0f
2e
eb
11
10
2f
0e
22
f2
01
e8
df
d4
12
fb
28
16
14
11
0f
ed
01
d0
d6
04
25
2d
f1
1f
05
f3
26
f4
26
28
d8
03
f4
f0
f9
f2
16
07
25
f2
f5
ca
e0
02
31
fd
15
14
fd
e4
ea
16
fc
2e
1a
05
e2
1e
13
f7
ec
21
da
fc
1e
17
ef
17
d5
02
06
06
cb
37
0a
07
24
11
2e
e3
53
19
26
e8
f7
f8
0d
14
04
ff
21
f2
15
15
2b
2d
db
18
f7
11
0b
17
f3
18
01
c7
2c
2a
08
f5
ef
e0
f0
17
2c
2d
39
2c
24
e3
fd
0b
fc
b1
20
f2
29
19
23
03
c5
0d
04
25
ff
19
05
0e
ed
28
fc
da
25
fe
f1
f5
fb
e6
f5
06
fd
0f
ea
01
d9
ee
1a
f8
e7
13
ed
04
e9
0f
ed
12
0b
c0
fa
00
25
e2
30
10
07
05
ec
2d
f9
26
0f
e8
f7
d9
ec
f3
18
fe
39
2c
22
23
df
f1
c8
d5
fd
0f
d9
e3
fb
ec
47
13
cf
0e
0f
da
08
df
f8
02
00
0c
04
ed
06
bc
1a
27
04
d2
f9
29
ec
03
12
14
de
fd
0b
23
e4
14
e8
ea
15
ec
fc
cf
e6
fd
e5
ff
d5
f7
f4
0d
f5
24
17
a1
e4
e6
e4
51
e4
17
c7
17
e3
d8
04
f4
e3
16
14
1a
d0
17
de
00
fd
e7
de
df
0c
df
00
13
e6
14
f3
17
fd
1c
fd
dc
c6
03
eb
c6
29
1c
de
09
29
fa
e2
06
28
19
e5
21
ef
3e
dc
f2
09
24
f2
f1
f8
05
01
fa
f5
17
ff
f5
e0
12
01
05
37
0f
e1
21
2a
df
dd
09
cc
e4
19
17
f3
e3
02
02
22
de
f2
ef
c2
e0
14
17
bb
2e
0a
12
0d
21
03
e7
16
de
e0
09
ec
01
f7
eb
1a
00
e1
08
fc
1b
d4
24
e5
d4
eb
0a
e9
fa
2c
bf
d3
de
e7
f9
f6
00
ce
0f
4e
15
00
eb
dc
e9
10
20
db
fe
2c
ed
17
07
e7
0c
f3
05
e5
03
24
fe
fe
05
f9
e6
3d
1f
1b
34
1d
f2
ef
01
d9
db
f5
06
d5
15
12
39
cb
ec
f7
0b
36
09
fe
09
d2
12
08
f5
ee
21
fe
ca
1c
d6
dc
3c
fb
e4
c6
10
3a
16
e8
1c
14
16
0a
1f
02
fb
e4
05
19
08
f6
ec
e8
2c
1a
f3
13
b4
f0
fa
25
f1
04
d8
e5
30
03
0b
f4
0c
fb
23
23
e3
c7
17
08
18
0a
01
f9
e2
ea
04
1a
f9
14
f2
f2
df
f7
c1
10
e7
ef
0d
06
e7
fe
d1
ed
11
fd
0b
09
eb
dd
21
15
e3
ff
24
d0
0a
f4
f1
12
c9
22
19
fe
1b
25
df
37
ef
13
22
f8
01
21
ea
12
f9
de
04
e5
05
0a
f1
f9
1a
c5
c8
50
0b
eb
fc
20
ed
21
e8
29
15
f0
eb
ec
1e
e1
f9
ce
2a
fe
df
0d
3e
f0
e0
0c
d5
fe
02
df
ed
1b
da
2b
f8
37
f1
f1
e4
15
ef
f0
ef
1d
fb
46
ed
05
14
ee
f2
e8
d1
d8
14
f1
21
3d
0a
f4
b0
dc
10
01
fd
dc
eb
25
00
2b
06
1f
2d
11
f5
f8
f9
1e
e5
24
04
02
33
eb
de
e6
3a
d8
17
21
fb
f6
e3
16
f9
24
dd
d2
f7
01
11
f3
fa
e2
e3
b7
02
f1
e7
ee
21
0b
fe
e8
cc
19
18
f9
f2
fd
f0
db
e5
0c
d9
e0
e4
43
f7
05
02
1e
24
fd
0e
4e
06
91
07
1e
cc
18
29
f9
de
03
e2
e7
28
08
03
15
02
14
1a
08
11
ec
dc
da
01
06
e1
f4
e3
f5
e3
ff
09
dd
fb
17
23
04
d8
1a
ec
17
cd
17
ef
24
e1
29
e3
f5
f5
28
f9
d4
e2
03
c6
f6
cc
f1
f3
38
0e
e8
e1
27
07
db
ea
ff
11
0e
d7
ca
01
e5
17
24
e6
f3
dc
d5
f2
07
f4
42
1d
2c
00
02
d4
17
04
de
06
07
de
16
e7
00
da
12
df
00
df
01
e9
21
1a
e9
ce
f5
f6
00
cf
16
e4
f8
c9
f9
da
08
f9
07
35
f8
d1
e0
2e
13
0d
04
08
fb
01
fc
e9
08
ef
18
ff
cd
05
34
eb
0f
0e
da
d8
f7
01
16
dd
14
0c
26
e6
0f
11
2d
ef
0d
e7
e0
28
1c
01
16
1d
0d
fe
1b
e0
1c
e1
19
fb
16
19
28
fc
05
ff
cf
43
46
39
1b
21
fe
1b
e8
2c
d1
19
31
23
d1
de
08
f0
0c
0b
fe
e1
e4
f1
1b
11
cf
ec
13
0c
ee
f1
fa
29
d4
fe
12
e6
01
08
17
01
05
03
ff
16
22
03
db
f4
2e
e6
1a
fd
c9
fc
c9
34
d8
d0
03
d8
ca
0b
f2
1e
f1
00
0e
d2
3d
07
f1
e2
13
3d
fd
12
10
2b
09
18
d3
ed
dd
4a
fb
21
23
04
0a
12
13
e1
1c
09
09
f2
ef
ec
2c
1c
27
07
13
ea
ef
1d
fa
0d
04
0b
2a
0d
f4
21
e2
f0
f1
d9
04
f2
dc
05
03
00
fa
ff
10
b2
1e
f3
e3
ef
e6
fe
02
29
dc
2e
fa
e2
d0
e6
13
e3
08
15
db
fc
fb
0e
eb
33
ee
0f
2e
e5
12
e9
1c
de
26
be
24
e7
fc
33
f4
12
d7
f2
e4
f0
f7
df
2a
22
fa
fe
09
05
f2
00
e0
00
d8
0c
13
0e
01
d7
eb
ec
13
f9
f8
f8
d2
f4
0d
ed
00
ea
db
e0
fc
2e
e9
11
e4
19
10
07
d8
f9
03
21
e2
f9
da
f2
fc
0b
d2
e0
18
14
08
31
f3
fd
fb
16
20
18
09
d5
ea
f4
35
0c
04
f9
46
dc
f5
e4
19
3d
36
f8
19
f6
17
14
13
f2
35
18
0c
cf
25
05
f8
01
05
e1
2b
f5
ef
e1
1e
d0
11
c2
0b
1f
14
f1
f2
1a
0a
2f
1f
ea
c1
4c
00
1b
dc
fe
2e
e4
19
fa
11
fa
f7
17
fd
02
01
17
fc
05
14
30
bd
df
33
03
d5
46
e6
04
2f
ed
eb
11
fd
06
ef
0e
0e
f1
ea
17
f7
29
dc
17
fc
e3
25
e7
d0
25
0f
f8
42
f4
f2
06
f8
17
e8
01
dc
b4
16
1b
06
09
0a
d2
22
f6
25
3e
0f
ee
04
27
ec
db
e9
f1
1d
f8
f8
02
14
f7
e9
09
f8
ca
e5
10
15
0b
eb
fa
18
1e
fe
08
25
24
c1
13
2f
e3
ee
fb
09
1b
3d
26
fc
fd
f2
0d
e1
f3
d8
03
10
f7
d2
36
e5
15
0f
1c
ea
f5
2d
1b
00
b0
23
eb
e2
f9
23
15
db
28
df
d8
1c
04
05
d9
0f
ef
11
fd
01
03
ee
e2
2a
0f
04
01
1a
13
fb
07
16
ec
30
14
15
d8
fe
f8
31
10
02
0f
e2
10
19
f9
38
f1
f9
f4
f7
32
fa
11
0b
1a
24
06
5b
bf
00
09
e8
e9
d2
07
fb
fb
ff
dd
f7
d4
f8
ed
03
fa
00
4e
e7
e5
04
f3
ad
f7
0c
0c
dc
fd
19
0c
f2
f8
f9
04
d5
0e
f7
17
ea
fb
e5
23
ed
c0
f9
20
ef
dd
0b
07
06
0f
12
09
e6
1d
0b
0e
ef
f8
f0
e8
e8
10
e0
24
f7
e9
d3
0a
fb
0a
29
08
29
3a
14
db
fc
15
04
d7
f0
0a
1e
08
d8
23
de
0c
08
0a
0c
e4
e0
1d
da
17
04
1b
fe
f0
fb
cf
25
ce
e8
dd
14
f0
e9
01
06
d1
23
24
29
41
09
e6
e1
04
2b
00
28
ee
f4
fe
1a
fc
33
ed
fe
fc
02
c8
05
eb
fb
ff
da
06
0d
e8
06
0d
06
de
24
f7
ef
e5
15
18
b5
1e
e5
04
e0
13
f6
d3
1b
0a
df
07
2c
24
05
e8
00
22
f5
21
13
38
05
f1
eb
0d
0f
ed
db
ed
17
03
10
54
e0
c4
dd
dd
fa
c8
07
06
ee
15
1d
1a
f0
31
12
0f
09
00
c8
e3
e2
e1
33
bb
e3
3c
f4
17
d5
f8
d1
f1
ed
e5
ec
18
1d
25
f9
02
e4
0c
e5
25
ff
02
10
45
ff
d7
07
d7
e6
de
1e
0d
f2
13
ee
0b
08
fe
d4
16
dc
1a
0f
e2
eb
eb
2f
fb
ff
de
05
33
f8
10
f9
e1
12
e8
0e
0e
0c
14
0b
e7
07
dc
09
1b
e3
23
b3
f8
f4
0e
e0
fd
2c
06
fb
ce
ed
0a
f9
1b
18
c8
e4
0a
08
f0
fc
1c
30
e9
0e
2a
22
cc
e9
cc
04
14
e8
c8
fc
e1
00
14
27
10
d5
f3
e0
e3
06
f7
03
eb
fd
2f
f7
03
1b
2c
e5
f5
fe
f9
f0
46
f5
eb
f6
f3
03
f7
ee
e9
18
ee
2d
06
0c
30
1d
15
c3
1f
07
13
0b
f7
fc
14
ec
00
f5
2e
fe
e7
f6
13
13
ef
c0
04
05
e5
d9
cf
cb
df
34
12
28
07
e0
e7
f6
eb
08
11
fd
0a
e9
06
dc
ff
01
3f
fc
1c
01
f6
cf
31
07
f6
26
1e
24
db
c9
3e
0a
f2
d9
1a
01
17
e7
f9
00
fe
0d
e9
32
17
e7
e9
f9
15
ef
f1
e7
01
16
c4
22
f9
05
07
f6
01
0e
0c
e5
19
26
01
ff
dd
1d
0b
34
da
f5
f0
f6
f7
1e
f5
c4
2c
fd
ef
1b
ed
06
02
07
09
0a
de
ff
b8
0c
ef
e5
f2
e0
0b
fc
00
00
fc
f2
f8
f2
03
1a
f0
03
04
05
2b
08
d5
fe
3d
0c
04
0b
ee
d8
55
fa
0f
fc
3d
f6
e9
f1
fc
2a
1e
f4
ea
f0
db
d7
e1
29
06
1f
c0
f5
09
ec
47
f2
b9
33
e6
f3
f7
e7
f5
1a
df
1a
f4
e9
e9
f5
01
ea
f0
01
29
be
27
03
03
f0
f6
f4
22
22
00
13
02
f0
da
ec
21
0c
18
19
db
08
f1
f3
ff
3f
1d
dc
da
df
fb
0d
05
11
06
ed
14
2a
ee
34
de
00
0f
11
f4
e7
00
05
f1
05
f3
31
f4
1f
cc
fa
25
d4
06
1b
db
15
ee
04
1d
eb
e5
21
48
f3
03
11
ec
16
d6
66
e4
00
23
15
22
0a
ca
07
18
f8
f5
e4
ce
d6
16
f2
ee
f8
0f
c0
06
00
10
da
f3
08
04
f4
e9
1e
f7
fb
14
ed
ee
0c
01
03
2c
f7
15
f3
e4
1e
09
01
e3
ee
34
08
19
06
2b
f2
0e
d7
f7
02
fc
f0
fc
2a
15
15
e3
01
f8
f4
20
06
ed
08
fa
13
13
1d
11
fc
39
28
2e
ff
fa
1c
1a
f9
00
f5
ff
20
12
f4
e2
f9
f2
fe
23
37
31
e9
10
07
1a
0a
fc
20
cf
06
14
03
32
f2
ff
07
05
cb
e5
1e
e7
fb
f7
11
ee
ca
06
fc
f5
fe
fd
f0
26
10
ed
24
00
f8
d5
1e
f0
fa
36
03
22
01
36
05
fa
2a
de
e1
12
03
ec
f0
cd
fe
ef
f0
16
eb
16
df
24
f6
11
09
05
e1
1d
f2
e2
e9
f2
e5
1c
fa
07
26
2e
ea
fe
fc
f1
c7
1c
08
44
ec
14
04
e1
e9
f8
ff
2d
d3
0d
e4
11
1b
4b
b1
32
eb
fd
18
c8
db
fe
2e
18
fc
03
04
0c
f4
48
05
fa
e0
e5
fd
e8
cf
f0
1d
f4
2f
df
fd
d7
ff
34
12
ea
de
15
13
15
15
44
13
0d
25
1d
0d
1c
20
f5
f3
25
33
ee
f2
d4
f6
e4
29
fe
58
f6
d1
ff
f5
f9
29
e4
24
0d
09
38
f8
d8
00
1d
e9
09
ef
0f
16
0d
cd
09
c0
15
f1
10
22
e6
f9
0b
22
07
02
eb
14
1e
fc
17
e7
13
04
1a
1a
11
fd
e7
de
40
f6
06
ec
dc
f7
f1
02
ff
f0
d7
09
eb
fa
d9
18
0a
14
0f
1b
02
e3
e9
fe
ec
e5
d4
20
f5
fc
4d
fd
15
f4
27
23
dd
0c
cf
cf
f5
07
fd
17
21
07
19
3b
fa
3a
de
27
f2
eb
c5
02
1f
f2
28
02
0f
14
2f
db
03
dc
0e
f0
de
29
fe
00
fa
4d
2e
60
d9
1c
d0
e4
05
d4
04
bd
db
ee
24
0b
f1
0c
23
e6
24
14
19
fb
ef
df
0d
f1
45
d6
e8
e8
e7
fc
0a
ad
ff
fe
e6
14
e0
39
df
fc
27
08
fd
ee
1b
e6
ea
fa
12
e1
e4
1b
f4
29
ef
f5
cc
01
25
f7
f7
f8
03
21
44
e3
1d
fb
1c
04
fa
ff
0e
e0
13
f4
0f
e4
32
0e
16
09
3b
e5
02
2c
05
23
f7
0d
f1
fb
0c
05
e2
fa
0d
02
ef
f4
f0
fb
14
eb
19
fc
09
cb
f6
fb
18
e1
1c
08
17
e0
08
0f
1a
13
f7
db
eb
1d
fc
06
fa
2d
d7
0e
f7
14
0d
d3
c7
18
fd
06
fb
fc
27
e7
e7
04
ff
20
f2
f7
c9
ef
f2
26
00
32
fe
df
2e
de
1f
f3
ed
f3
f1
d2
04
27
f1
f0
0e
df
dd
2b
0c
e0
fb
1e
10
f9
15
23
11
df
e6
07
e1
01
f1
3b
09
e7
1c
df
0b
d7
fa
e0
f1
e6
ff
e3
18
07
e8
13
f9
f1
e7
bd
05
fd
b1
1c
c0
00
e2
fd
35
0d
ff
fd
e9
e4
0c
1c
ed
ee
11
fc
14
02
ef
41
ec
c8
e2
fe
f0
06
ec
f4
1e
de
fa
ee
17
05
f9
1f
1d
ec
f8
04
22
d7
11
06
f6
00
4c
fa
ee
16
bc
08
23
0e
99
f7
eb
df
fb
0a
1e
19
e8
f8
e7
22
f9
d6
08
f6
0e
13
df
35
07
3b
14
37
2d
d4
fd
0d
e7
f3
2e
0a
2c
f2
0b
e6
d4
f0
ec
1b
fb
f5
f0
05
dd
01
04
ce
0d
18
16
12
f1
f6
e5
ee
1f
08
f8
f3
ee
eb
04
f4
f0
20
0e
ee
cc
f2
e5
29
e6
ff
02
ff
0b
fa
fe
2f
28
00
ef
ce
21
35
04
0d
ff
ff
f7
11
3f
e2
e8
10
13
cb
23
30
04
0d
d5
06
0d
2d
ec
01
db
ff
f6
d8
ef
ee
28
38
0a
ef
df
16
3b
f6
f1
ff
05
14
1b
10
fe
e6
ca
1e
30
00
0c
f0
f1
0b
f0
e7
f7
f1
ea
ee
e3
f6
33
06
f5
2d
17
f2
59
e2
e4
fb
2c
d4
2f
e0
f4
05
18
26
05
ea
13
e9
c7
32
fc
19
2e
db
fa
e3
34
07
cf
d1
17
e4
34
0d
f8
0b
ec
f9
df
e7
f7
14
e5
cf
18
e9
f0
0f
e2
e8
0d
06
fe
09
d1
df
f5
1e
36
05
f6
14
09
cb
ef
fe
05
f4
d5
d4
e9
36
08
fd
2a
0d
fc
ff
00
ed
18
2e
31
06
0d
27
fc
29
bc
25
10
14
f6
f5
00
f4
2d
38
1e
d7
00
18
d5
01
14
36
e0
10
d7
fe
42
0d
c8
11
ff
1d
11
f6
d9
03
2e
18
29
e9
e5
26
23
02
ef
06
e0
f5
00
07
ee
ab
0e
c5
1d
1b
fa
f7
17
fb
01
ec
06
13
df
fa
29
fc
18
fd
fb
1d
cb
eb
1c
08
f2
16
ed
2a
04
e0
fc
f2
b9
01
f2
f3
22
e2
d6
2d
dc
fe
21
13
ee
fc
e8
e3
11
f3
2e
0b
ef
ef
03
e4
f8
06
0c
1a
0d
0a
f7
da
0a
f2
fe
02
cd
da
f0
e0
d8
e9
ea
f7
e5
14
15
cf
ce
0e
13
19
30
25
32
db
20
2a
fa
e5
fa
f3
fe
04
0d
05
e4
fb
e6
12
00
23
fa
df
1a
eb
ff
f9
14
da
0b
ef
2d
16
01
09
f5
e7
f3
1f
49
ec
f9
f4
02
04
cd
f7
fd
06
f5
0c
c4
e6
e9
fe
fa
c4
35
13
ec
fc
d5
02
08
01
d3
07
2f
ee
06
12
f3
fa
0a
31
04
f5
fb
31
26
e3
23
ee
2f
03
00
1d
e3
f3
17
17
0d
36
fd
f3
ec
04
f4
35
13
ee
08
0f
d1
ff
eb
18
16
07
a4
f6
e0
28
eb
13
0e
0f
1a
c8
46
f1
11
08
f6
d6
ec
10
f8
de
1a
f4
12
0a
ed
b1
d7
e6
f2
2e
07
fd
ef
23
db
e8
13
ef
ed
d6
1d
14
01
05
d7
17
2f
f1
25
0c
c5
ff
bb
e8
28
f7
d8
ed
db
f0
a8
f2
05
13
0a
0b
ee
f9
11
e6
ce
f2
2c
28
fb
0d
e9
06
e5
02
11
d2
07
0a
fe
0f
01
04
11
18
01
30
0d
11
3b
28
11
05
19
f7
f3
0a
06
e5
27
f6
d2
13
0d
03
06
f7
17
d7
0e
0c
cd
ed
ff
07
3c
ca
f2
e9
00
1f
d5
fe
11
18
22
05
15
ef
f5
0e
fd
26
ef
02
00
22
c9
0c
e7
33
f8
d4
01
f8
e4
02
03
2c
de
f0
35
ce
b9
ff
0e
e9
1f
f8
fe
d8
d1
df
06
f9
f8
2c
f1
1b
25
f3
24
0c
f2
12
12
0c
fd
05
17
e3
eb
a9
06
02
f1
f3
ef
0c
c1
1b
fe
16
2e
00
07
0e
db
1e
ef
f5
ec
fe
de
10
09
07
07
0b
ff
20
07
01
01
20
e9
05
0d
07
f4
03
e0
e9
10
11
26
bd
c6
fb
09
f4
21
ef
db
fe
06
59
14
05
ea
dc
da
01
e7
d3
06
d5
01
1f
06
19
ef
17
f1
02
1d
db
e8
19
dc
13
e5
e5
25
f9
37
23
f7
e6
0a
18
09
2b
16
ea
05
16
1e
c9
09
31
16
10
f5
1f
fd
df
14
01
f6
d2
e2
06
2d
01
d9
fb
03
19
df
29
f8
ce
23
10
0e
10
e7
e8
c4
e3
fe
f4
f7
0e
c9
e2
fc
c9
ee
eb
17
ed
17
1f
1c
15
17
e9
f2
06
0e
16
14
03
1d
e5
0c
dc
11
06
02
f3
1f
e4
ef
fa
09
08
e2
f2
ff
f3
c9
db
e6
fc
ca
ea
0f
0b
f6
1f
07
0d
13
eb
fc
20
ec
05
ff
05
22
fc
0a
0d
e1
08
f8
ea
ec
d0
28
12
02
3e
13
e6
d0
33
1d
10
0a
0a
1b
fc
e5
07
26
e2
f2
ea
45
e2
19
16
ff
0a
07
0a
24
09
0a
f3
13
db
f7
1b
0e
f9
d1
f1
07
04
cc
e9
f3
28
ef
0d
38
0c
26
f8
f6
17
1f
f6
e8
fd
0f
1c
e8
09
2c
ee
f9
28
fb
f7
f4
f5
f4
e8
db
ef
ce
00
01
00
ed
0a
ef
16
14
1a
06
09
e6
27
c1
14
e0
19
0d
1d
fc
0c
13
eb
34
16
1e
cf
fa
15
d4
1f
fe
21
14
d5
f7
f8
f5
15
e5
06
2d
ff
39
02
f5
1a
e9
2c
1b
0c
11
da
d2
17
f5
fb
e7
e5
22
f7
eb
19
f1
0e
fd
e9
3c
d7
dc
0a
10
c9
da
0a
01
14
11
09
db
13
26
04
c8
ed
e9
e7
1b
f9
1a
14
0d
f8
d9
10
d8
cc
c1
e5
c2
06
f1
11
18
04
f2
b9
c9
24
ea
08
14
08
07
2c
1e
14
f7
23
12
0b
fc
30
06
0a
e5
f1
05
10
2f
04
ff
10
0b
1b
44
15
05
dd
32
00
43
dd
e8
36
e8
f3
e0
49
c0
01
eb
fe
d1
f9
e0
31
02
fc
0c
02
f2
df
0c
19
e6
fc
d2
19
1e
de
c3
24
39
1b
20
ef
f2
02
0e
fe
41
15
e0
dd
07
c9
0b
30
1b
f7
01
01
13
22
25
12
f1
fa
2c
f6
e8
ff
03
01
fb
14
d7
19
03
f3
b2
18
0e
0d
11
f4
27
14
2c
e6
15
ff
fd
f2
0f
f2
db
f9
ef
15
24
f1
e6
ea
08
06
09
ff
ed
fc
41
e4
f0
0e
f7
02
d2
f2
d5
0e
0a
17
f1
fd
14
ed
12
1c
e0
fc
20
f4
fa
04
0d
f6
25
c8
06
ec
ec
fe
1f
f7
f3
0c
0d
19
1d
fc
e1
34
1a
dc
e2
f7
02
11
0e
f2
21
f2
11
fb
18
d0
0f
c9
e2
de
10
e6
15
1a
05
16
3d
f4
f8
df
d9
cd
f7
00
14
06
1c
03
21
03
ec
13
03
ff
ed
fe
f5
07
ea
f2
f2
c4
2a
e9
eb
17
e1
1f
20
31
fa
fa
11
db
ed
22
25
08
00
27
10
31
25
13
ed
b9
f0
0b
e1
14
d7
fe
e2
1f
e5
fd
e6
01
2c
e0
ba
23
d6
fe
05
14
22
35
02
22
07
1e
f1
ec
19
ea
1d
fa
25
05
0e
e6
e0
e0
02
38
04
04
0a
e6
12
e6
17
07
07
c1
f9
f2
07
1f
f7
0a
ff
02
05
e8
c5
f0
0d
29
d5
1d
fb
dc
fc
e9
05
3f
dd
e4
e5
01
fb
1d
fc
31
15
f0
fd
f3
21
0a
19
04
f2
af
f4
e2
0c
08
f1
fd
40
04
d8
f8
24
18
f3
ee
da
02
f3
e7
01
e9
f8
e6
e2
01
03
fb
ee
29
00
0c
16
fd
e1
03
25
d3
df
d8
10
1d
fc
f0
02
06
1e
0f
30
0d
fb
0b
f8
fe
3e
ed
ee
f5
f0
fb
e2
f6
f9
0c
0a
1b
e6
d4
f7
d6
da
24
04
23
fa
fe
05
f1
fd
18
41
ea
16
08
17
15
04
d1
fb
2a
01
e9
28
0a
e3
18
e8
0e
f7
be
0d
00
0d
31
3f
20
d9
00
35
0f
06
26
f7
ed
f2
d9
f6
ff
f9
05
dc
e4
f0
ff
17
0d
27
ef
f5
0a
06
f9
1b
07
0f
ff
32
ef
3a
d1
f7
fa
ed
e4
f2
09
2a
fe
20
d9
f9
0b
f0
de
0c
f1
13
0b
2c
e4
df
db
20
04
0e
03
f2
1a
03
10
f9
dc
e7
e3
12
11
08
2c
05
0c
fc
1d
08
ef
12
1d
ea
35
23
0e
2e
30
ea
d5
ee
07
c4
eb
f4
00
0f
e0
fc
e6
c8
38
eb
0f
e1
05
01
dd
09
ce
2e
29
28
36
03
23
e8
1c
09
fd
e2
eb
0e
0b
dc
20
ea
1c
f4
04
ef
1b
e4
29
de
09
e4
28
fe
0c
ff
06
f5
0c
0e
00
1d
1c
e6
f9
00
10
09
f6
e9
00
04
e2
dc
14
f1
17
f7
c1
f9
f6
0e
01
28
1a
fa
f0
f2
e0
19
07
42
bf
0d
2c
30
07
da
d3
f8
21
21
e8
17
fc
04
ea
09
10
28
1d
09
ec
23
18
2d
f4
d9
20
09
09
19
e2
f4
f6
20
0b
13
02
07
d2
d3
13
de
0b
06
05
ca
c7
e9
11
13
f7
04
b7
17
21
23
05
fb
e8
11
27
23
ec
19
f4
de
18
11
2e
f0
49
1f
f9
b7
fe
19
a5
c9
e5
19
2a
16
1c
f9
09
0b
0d
10
c5
e8
ec
e0
f0
23
ef
d8
c5
3c
de
bc
33
f0
f3
3c
eb
1d
fa
06
20
df
19
fc
0e
d0
17
2e
f8
31
eb
25
fa
df
1b
10
02
1b
06
f5
dc
f2
20
17
c1
0e
03
f1
f5
0d
d6
e9
0f
18
e7
09
09
f2
d9
0a
df
29
11
40
fe
3b
05
3c
27
05
0b
eb
f9
2f
0c
01
ef
23
09
36
19
e8
df
d2
be
fe
11
01
fd
c7
32
ce
ff
f4
06
ea
e0
05
1e
10
10
fa
fc
07
31
0a
d5
10
23
e7
eb
09
0f
ff
eb
1d
30
04
ec
06
05
d5
d4
0a
2a
1c
cc
f3
1c
01
f8
cc
30
d8
e8
b1
02
f8
18
f2
21
ff
ed
13
41
0e
ed
cc
f5
0f
60
00
0d
fc
0f
0b
dc
ff
fb
d5
01
10
09
03
ff
f5
de
16
21
e9
00
e7
e5
d7
04
fd
db
25
04
df
eb
0b
f4
23
b4
04
f9
b6
33
f0
fe
ee
f8
0c
c8
06
01
26
07
e4
12
0c
fb
dc
26
24
e0
04
f1
f2
10
db
0b
17
fb
04
de
34
d2
5f
03
10
f3
1e
17
16
0f
03
1a
0c
ff
f2
16
ef
f0
fb
1e
c4
ec
fd
3f
fd
fb
e8
ec
d8
f4
03
08
d9
27
11
e7
3b
ee
fb
04
0c
e2
e3
fb
0b
0a
15
e3
d7
1a
f1
08
f4
0f
19
04
39
f2
07
db
22
30
db
e2
f6
f0
3e
17
25
ed
d8
0d
4e
2e
fc
fb
07
f1
e9
1c
e8
fd
e2
21
c5
d1
d6
e1
1b
fe
dd
f5
04
fc
e9
00
f9
01
fe
fc
f6
05
e3
fc
e6
07
f5
fe
d3
34
df
cf
19
16
34
e6
dd
f5
e6
ea
28
fe
e1
03
dd
18
bc
0f
04
fa
20
cc
29
ff
e3
ea
0d
ec
2e
05
16
fd
0c
f6
fe
f2
03
e3
11
1d
30
ea
27
22
1d
04
ff
14
31
e5
fd
eb
cf
eb
01
d4
ee
17
04
23
de
f0
26
fe
d2
23
03
15
f2
c1
0c
1a
24
ff
37
e8
f4
ff
f5
fe
f9
e6
02
f9
17
09
fb
23
39
ea
eb
f8
1b
e7
2c
2a
bd
e9
0a
f0
af
0b
ec
f0
f5
e7
05
0c
0c
fc
13
eb
ec
ff
26
e9
17
f1
eb
e6
25
f7
d5
1e
dc
30
f8
d1
dd
30
cc
39
ee
f3
02
f9
03
fb
fe
c6
22
1a
02
e1
f5
f9
06
ee
eb
1b
06
e7
b8
eb
10
e5
f2
13
fa
f6
e1
36
04
ff
e6
ed
fe
ee
03
42
fe
16
e2
1b
26
0c
c6
db
07
d1
0c
ef
ff
f1
48
0c
f7
d0
ff
17
00
ee
f3
fa
15
f1
e6
f8
c8
33
10
35
f0
1a
12
e4
20
ed
0f
16
05
f4
ef
05
e8
f8
02
1b
15
09
fe
02
fb
02
0a
2c
0d
fe
f0
ff
f5
10
de
16
0f
0c
c5
1b
f9
f8
e4
f8
e1
03
c8
fb
ee
f1
0f
13
dc
03
17
f2
f5
00
d3
c7
04
d9
fe
1e
de
1f
d0
23
ed
0b
ea
e3
0e
18
13
0b
1b
fb
cd
e9
02
e8
1c
02
18
fe
f9
11
11
fd
15
d8
f5
d6
f7
22
16
37
0a
04
19
20
e0
29
06
f2
ef
f0
0e
f9
ec
17
fc
0b
01
ff
23
f3
0c
0f
f5
03
f8
07
28
0e
e8
db
1d
f6
e5
df
f5
0b
f2
fb
ea
e2
19
ec
df
fa
1c
e4
f6
0e
13
25
d7
0a
20
e6
08
0b
00
16
ec
d9
16
f5
3f
14
18
07
f4
04
dd
02
02
e1
0b
f1
ea
e8
fa
1a
e6
e4
ff
e9
e8
ec
38
10
e7
15
04
0c
01
11
e6
0b
6f
f6
04
09
fe
0e
c1
e5
eb
1a
28
e3
23
35
08
0e
1b
00
03
db
26
1e
06
df
00
e4
02
1c
33
3a
0c
08
ff
01
fd
be
16
11
ff
18
0e
05
c6
e9
ef
e8
ed
11
e5
2f
fa
01
f3
1b
12
0e
25
1b
df
1d
3f
17
1b
0e
04
f4
f1
e9
f2
05
03
45
dc
44
1f
2e
04
da
0d
08
16
fa
1f
21
02
e0
f6
08
e2
15
26
d8
eb
24
31
f4
f7
10
20
1f
df
fe
f3
e5
f5
11
14
ee
f2
06
2d
d4
e8
e8
1b
02
eb
1e
f9
33
c5
ae
fa
22
35
00
06
d7
32
f7
ee
18
0a
0f
14
17
1b
ca
ed
25
eb
f1
1d
de
06
ea
10
c5
d9
07
fb
f0
ac
03
cb
f9
f3
15
be
09
f4
0d
db
d6
1e
cf
0e
d1
f8
06
fc
e8
2f
e9
e8
20
e0
e3
24
09
fb
0b
e2
e8
27
e9
1d
17
0b
1c
27
27
bd
03
0f
13
f3
ea
04
d8
10
13
ef
10
e8
fd
fa
01
d0
10
01
f9
ff
03
cd
22
20
1c
ff
fc
d1
f5
1b
2e
be
d6
31
f8
fb
16
c8
13
f4
fa
43
fb
e7
fd
00
fa
31
f5
3a
dc
06
09
f0
f2
1d
f2
f8
0b
ef
f7
c7
09
1e
d6
c0
14
eb
f5
f3
06
08
ec
fa
fa
ff
11
f2
f9
2e
f3
0e
1d
0e
13
0c
c4
e8
e3
11
c5
f7
20
e8
03
f9
f5
e8
21
e7
e9
d2
fe
ea
02
e3
ea
0a
fd
08
03
1e
ec
02
d2
22
ec
18
05
e5
2b
c9
ff
0e
1d
ec
ec
26
fd
d9
11
2b
13
07
f3
d7
f5
1b
10
e1
eb
e5
06
e7
15
3f
26
00
df
f8
fc
eb
fd
e5
ff
14
15
e3
1d
20
39
e1
21
17
d8
da
e8
f8
e3
ed
15
f6
33
f0
fe
eb
04
e3
0b
1c
d8
e7
53
ee
0a
06
e3
3c
e0
e7
12
0b
04
f4
f0
f8
1d
0b
2f
0e
f8
e1
f5
f7
08
fd
e3
11
0a
0b
fc
03
1c
f5
45
22
2c
21
0f
29
01
f6
f3
20
cc
35
14
1b
fc
01
05
1a
fa
fb
c5
e9
11
30
2d
33
0a
e2
2e
eb
00
17
fd
0f
0f
08
f3
2e
19
08
08
1a
ef
34
13
f5
11
d7
16
cf
0a
08
3f
14
19
e7
51
e1
00
f1
13
27
11
c0
f0
22
05
1a
20
0d
13
03
ee
08
d2
f5
11
d2
f6
14
07
da
16
fa
f4
00
0b
f7
e3
f8
eb
ea
11
1c
0b
d7
f8
cc
e2
39
ec
0c
f8
f8
f9
09
26
03
01
14
fa
f6
05
fc
fa
32
f4
2e
dc
36
da
14
0c
e3
12
06
d5
20
04
ef
e1
b2
ef
1a
1b
00
07
f7
31
15
f6
c6
01
21
22
f7
fd
fc
ed
ef
0a
06
c0
01
fc
fe
f0
14
2e
ec
16
ef
48
08
cb
ff
c4
f8
0a
da
e8
10
1d
1b
11
15
ec
f8
f4
fd
08
fa
ff
f7
0d
fb
0b
ec
12
16
05
10
e1
ff
dd
38
fc
f9
08
21
1b
f5
44
ff
0d
13
18
14
cf
16
1e
e9
2a
bc
46
0e
13
f7
0c
d6
0b
06
05
e1
ec
fe
27
f1
0c
05
0f
06
04
01
08
26
ed
e2
04
f4
fe
07
ee
09
f2
25
f8
13
02
d5
0b
28
15
07
0d
f1
02
f7
ed
f1
d7
f2
39
f5
02
16
04
04
e7
2f
f1
eb
16
ea
06
1c
16
2c
f5
12
fb
fb
ff
fb
14
12
25
f4
fa
1c
06
d9
03
f3
da
0b
07
bf
ce
e4
21
e2
31
de
f6
05
ef
e0
02
12
02
d6
ea
f4
03
e8
0a
f6
f2
f8
0f
0c
17
13
f9
c3
ee
47
f5
f1
1b
f2
ff
f0
16
27
ec
d6
18
15
20
f6
db
4f
ed
05
07
e1
e3
0e
e5
d7
fa
1f
eb
f9
25
06
e6
e9
37
00
0d
0c
18
36
07
00
07
0f
e4
0e
f8
fb
02
f0
0a
0a
2f
f8
d8
1d
fa
02
09
c4
dd
18
ef
23
01
fe
c6
f2
10
f3
f0
04
fc
be
f3
16
fb
fe
f9
23
26
f2
1a
e5
16
ef
14
f8
fd
f7
f6
05
ce
1c
f7
01
14
e9
19
e9
f7
e0
f6
e7
dc
f1
f5
f0
26
f0
1d
1b
e8
f6
fb
07
21
1f
10
0d
08
fa
d4
00
14
31
4a
cd
e7
24
c4
24
0f
f0
fc
f3
04
f2
f0
ef
da
e9
12
ea
e8
37
0a
fd
ef
0d
e8
0c
f9
21
1f
e2
f8
e5
1a
e0
33
f4
b8
f0
f1
03
cf
39
ff
e1
3e
fc
18
13
10
d3
14
e7
2b
e3
09
01
0f
a3
bf
12
13
17
f5
f9
ff
16
e3
f3
f6
fc
ec
eb
fb
f9
22
35
0a
0b
ef
0f
00
0a
f0
f6
ea
1a
eb
fe
07
39
06
1f
f7
d0
2b
04
14
1c
fa
10
d8
09
09
fc
19
0d
ef
0e
fa
24
f2
eb
ca
ee
f6
d8
d6
0b
34
44
cf
e5
20
14
f4
fe
ce
f6
06
e0
0e
c1
ef
11
0f
06
2e
e9
02
fd
00
00
21
f7
28
0f
f6
e2
f1
c2
c8
02
ed
24
0b
f5
e2
33
0e
fb
e4
fd
0a
0e
49
19
0b
ff
19
df
00
f9
e5
da
c8
01
ea
21
18
10
db
d5
dd
fc
27
23
dc
04
bf
06
07
ea
bd
36
21
de
e5
f8
03
fe
cc
fd
d3
e6
1e
fd
0f
03
0a
e5
10
ce
f0
33
03
e6
e1
f8
de
e1
00
d5
ef
18
e0
df
f2
da
0e
16
e3
c8
f4
2f
fb
0b
e4
16
fe
06
14
a7
f7
12
02
fb
1c
f7
03
1c
0f
e8
dc
db
2c
dc
fb
1b
05
fc
03
ef
e2
3a
2e
f3
f4
ec
06
03
1b
e6
d8
d8
12
03
e8
08
f0
36
f4
f3
f3
ed
ee
18
15
36
16
04
d9
02
2f
fa
e8
07
fc
fe
33
0e
f5
1f
08
03
23
00
06
f6
08
0f
06
0d
2a
fb
fe
fd
e4
17
fc
05
ed
17
d8
15
e1
0e
08
12
07
19
f5
04
ff
be
fe
ef
e7
1a
0e
f7
1a
15
0d
06
17
05
0a
06
24
1b
02
ff
31
12
b9
25
e6
ce
12
f3
21
fc
27
30
f8
19
1b
e9
00
0d
1e
dc
e0
05
27
eb
e0
fe
cc
e5
ee
0c
e4
21
c9
3b
39
10
00
17
1f
27
10
e2
21
e2
04
05
17
14
27
ee
17
1b
be
11
00
14
1f
fd
f1
fe
fa
45
03
f9
d3
ec
e2
03
0f
f8
22
f5
09
02
ea
cc
de
f4
00
fb
05
18
fd
0a
04
f9
2f
e9
e5
0c
dc
f6
ed
f1
00
fe
24
26
fe
04
da
cc
00
f4
d7
fc
f4
1f
e6
f4
f3
db
fe
13
43
10
04
09
03
08
ea
07
fa
03
e5
14
ef
df
19
e0
17
09
df
0c
18
10
e1
1a
ea
17
e8
10
15
13
fe
08
0d
01
1c
0a
ff
05
03
db
f4
1b
eb
fd
34
e0
d3
e9
e5
f6
05
f6
06
e6
1a
cf
e1
fa
11
b8
24
12
23
11
19
26
2b
0d
22
02
0e
e3
e5
1d
3e
e9
08
f0
f8
1a
23
15
12
fb
0b
09
d5
37
dd
e4
1a
4e
18
03
ed
f5
fe
ea
11
d4
e7
e9
17
f6
c5
fe
fc
33
48
eb
23
09
f1
33
2b
e0
ec
f1
02
2b
ec
13
f3
d9
e1
07
ef
0e
1b
e6
0f
f9
46
0d
fa
02
ad
12
cd
e0
0b
27
1f
f7
f1
09
11
fa
28
4a
c1
f7
16
27
f4
1a
ea
06
f5
29
e9
23
fe
f1
0c
ed
04
0e
fb
fa
12
2d
0c
cf
2e
17
f4
e2
05
04
10
ff
c4
dd
f4
f7
00
30
29
20
d5
e5
0d
23
03
e1
09
cc
fd
12
d7
dd
fd
07
32
d6
0b
04
32
0e
2e
36
11
03
33
cb
f3
dc
15
00
0a
fe
db
ec
f5
04
0a
00
01
e9
ec
0a
d4
0c
0e
f3
df
ef
02
19
f4
c9
e4
fa
fb
f7
f3
e4
ee
1b
f2
14
38
33
f8
d2
e4
f7
f1
fe
06
0d
08
ed
36
0b
f5
0b
02
0e
0a
19
fe
1d
da
f0
e7
29
ad
22
ea
eb
f8
0d
f9
dd
f3
01
45
da
07
0a
23
05
2f
bd
11
f9
1e
fd
d1
19
0d
f7
c1
e6
0a
f9
f9
fe
e6
ed
2a
15
c8
13
ff
f0
19
eb
0e
fe
03
19
ef
fd
0a
d9
f2
f5
ce
f7
cf
df
20
2b
e5
0b
d9
13
cd
e8
fd
10
32
c1
19
e0
e8
bb
0b
17
1d
fb
1d
24
ce
fe
fc
16
fe
ea
d7
1e
0b
04
de
2e
01
13
fb
16
00
f9
0d
02
1b
d9
19
f6
1d
03
0b
e1
fc
f6
fa
e4
12
e6
0d
ef
43
18
ea
f3
03
10
d7
36
1e
11
03
fe
18
da
23
fb
fe
e8
db
f4
09
00
f1
00
e0
f4
08
05
08
f7
f1
22
ff
e7
ff
27
04
ff
23
e0
00
ef
1b
00
15
14
ff
c2
e3
04
14
ea
01
1d
23
03
0a
0b
01
f3
05
12
0d
ed
f5
f2
10
da
bc
03
00
0a
04
e9
07
13
ed
02
fc
d2
f9
f2
ed
f1
f5
0c
22
02
0b
e7
13
ff
0a
2b
c1
38
eb
e3
19
2e
0b
bd
17
f4
04
ed
24
cf
37
e4
e9
0a
06
f8
24
e5
ed
f6
30
fc
ed
0f
f6
16
d5
2c
16
d3
d1
f3
eb
30
18
2d
f5
04
20
0c
29
e9
2c
d5
fb
fa
d3
1d
02
eb
16
08
eb
de
e1
13
f1
3b
1c
ff
21
da
dd
e2
f9
2d
fb
18
f0
fb
e9
01
e6
aa
ee
e0
f7
ef
07
fd
0e
59
fc
d0
17
0a
15
c7
04
f3
f9
1c
3d
14
03
2c
d7
16
16
02
52
d3
02
1a
18
0a
04
0c
fe
0b
07
03
10
0e
0e
0b
f9
0b
0a
0b
ea
26
27
13
11
2b
e3
00
22
ec
e5
0f
f3
e3
fe
f5
25
07
08
01
fa
16
f6
f6
1c
07
e3
c2
39
e7
ea
ef
dc
23
2e
0f
1f
11
1b
00
24
fe
1a
fe
f4
40
02
f6
20
da
f8
e6
10
2a
04
d8
f8
fd
da
25
0b
e3
fa
f1
02
dc
f3
f3
22
c5
0f
21
0a
13
08
00
00
f8
da
c6
08
e1
fb
05
ca
ca
0a
de
e6
f9
f1
df
f7
3b
1c
de
26
da
d7
e9
0d
13
eb
20
e1
eb
fd
ce
e0
23
24
0e
10
f7
08
f5
04
2d
fa
1c
f8
26
fc
1c
1d
28
ee
02
e9
fb
1f
3d
fb
34
e9
fe
f8
13
26
f6
0c
21
f5
d7
ff
e6
3a
0d
1a
2a
29
22
ff
1b
ff
04
f1
13
d6
f7
dc
e4
f1
f0
ed
cc
d0
f8
24
0d
04
1d
cf
e2
2c
fa
27
f1
0b
e1
08
09
e3
37
10
f0
1f
25
05
e4
ed
fe
08
1a
f0
cb
ee
38
cf
25
1d
fe
d4
32
15
00
1c
f9
ea
51
1d
d5
e4
05
0a
2f
29
f1
0d
0a
cb
0a
d1
df
19
15
f4
1e
f5
da
bb
2a
fc
e3
f2
f2
ff
f0
e5
22
0a
29
ed
d3
e3
16
ca
37
df
fd
fe
f5
d5
db
2e
18
ee
cb
ef
1a
e8
f1
fe
fa
fb
25
0d
f1
09
cb
07
f0
31
15
fb
ed
1c
1f
09
e6
09
1d
25
00
cc
e6
db
28
d9
f6
ef
08
ce
18
16
26
be
db
e9
32
f1
01
ed
08
c1
fd
f1
ff
f0
e7
f1
0c
fb
06
f1
db
11
dd
00
3b
13
01
e1
13
1b
03
fa
fa
c6
06
04
01
0c
de
ea
d8
03
19
eb
28
21
ea
f1
1a
05
13
e5
07
05
f6
bc
f2
28
fd
f1
fb
fc
e9
26
fe
c9
08
19
05
fa
f7
fd
02
0e
d6
fc
f5
d0
08
f1
0a
e7
0f
e8
06
f6
38
f7
f9
dd
d0
eb
32
ff
d2
05
08
02
db
ec
1a
3a
34
04
2d
ef
cd
07
15
00
fc
15
0e
e9
10
d9
38
12
f5
2c
08
dd
f7
fb
df
ea
10
f7
3c
00
eb
19
da
0e
f0
e9
fe
e6
08
d7
17
ea
09
f3
fb
e4
00
fe
13
c0
04
2d
f9
31
ca
2f
ea
0e
02
01
d5
eb
e9
cb
01
f5
0a
f5
ef
10
34
11
27
23
ea
f2
f2
f2
09
de
2e
01
01
1a
f6
bc
01
02
0d
e5
38
3f
21
12
21
d4
f0
ef
2c
e0
0e
14
f1
03
1a
d5
09
d8
1e
16
16
0c
2c
30
f2
3c
04
f7
13
0f
e9
e2
ff
09
e8
04
fc
f5
2a
dc
fa
fa
2f
fd
ed
d4
44
0e
e0
f0
fe
eb
02
f3
ed
f6
fe
e6
fd
f4
00
1f
d1
1c
17
33
11
11
f0
03
f7
e7
e7
fd
e7
e3
cf
20
e7
16
55
0a
f5
1d
c3
f0
01
fe
07
e0
e5
f1
08
e4
26
fa
d8
08
e8
df
fb
db
0d
11
0b
1f
21
1b
ed
33
fb
1d
0c
ef
23
0a
19
05
fe
f5
d4
17
f4
0b
fd
f8
f2
0f
11
f3
0e
fa
fb
fa
f7
fa
e2
f1
09
ee
dc
10
01
3d
05
07
e2
15
0b
d4
17
08
f1
eb
07
1e
11
08
1a
ff
f0
24
24
03
28
d4
16
04
f2
fc
ff
e1
3a
0c
15
d5
db
ea
f9
23
09
10
23
e3
1d
ee
28
14
0e
0c
34
fe
f7
1e
2b
09
0e
ef
32
d8
ee
f2
d6
db
15
0e
09
fa
24
05
20
fa
28
01
3f
ed
5d
f6
fc
e7
13
16
1f
e8
23
d4
08
ff
f9
00
ff
fb
f5
0e
de
0e
15
e8
ea
1d
d8
3e
f7
c7
01
e4
b2
ed
05
c7
19
f5
da
12
26
f7
0a
fd
2e
fd
35
1c
2c
ef
2d
ec
1b
fc
11
16
e7
4e
11
e0
f2
3c
0a
20
ec
3c
fe
de
e7
fa
1c
13
02
e7
0f
e2
e3
2b
db
10
1d
07
0e
02
fe
15
0e
dd
f5
fa
0e
01
04
03
18
35
0c
dd
15
06
36
1c
e4
f5
27
c8
17
03
e7
17
46
f9
c3
1b
fa
e8
f1
08
bc
28
48
06
25
ec
1c
11
03
e4
0d
46
ef
ab
24
ef
e5
fa
f2
f0
0f
0f
0c
3b
f7
cf
1d
03
fe
19
da
e7
0b
f3
0b
e3
e5
ee
08
e9
e8
f3
fb
08
f5
23
22
2a
d4
fc
33
c7
fb
f8
10
35
0e
11
ee
02
e0
f3
01
15
ec
0d
0a
f2
dc
fd
1c
0c
08
b9
e5
15
00
ed
e8
24
02
19
d8
01
e4
06
fd
d2
2b
01
de
f9
12
fa
16
e2
02
0d
0f
2d
09
16
fb
04
29
33
e8
26
0f
dd
22
f0
f8
27
14
e8
f4
1a
0a
f7
f6
1a
de
05
12
d5
09
e5
25
eb
26
08
bc
10
08
11
20
e6
1f
f8
09
12
d9
04
0b
07
f5
4a
40
1d
eb
ff
ea
e1
e8
e9
d9
e5
0a
ea
1b
31
e4
ee
0c
3e
f3
0e
21
1c
02
c5
ef
e0
c8
00
0d
11
16
02
ed
fd
0d
08
13
34
02
06
0a
0b
2b
1c
fa
ed
1a
13
20
e6
fa
11
cd
0a
e1
e6
12
d8
ea
24
db
fa
c0
0d
13
06
29
f1
47
f3
e1
37
fa
0d
fa
d3
d7
f8
f3
e3
ed
f7
1d
1a
f6
fa
df
f6
d9
f2
02
e8
07
f8
de
ee
02
01
08
0d
ec
d6
0f
24
f4
07
df
0c
f8
53
38
10
e4
d0
1e
17
ff
1a
d6
05
fa
38
0f
0e
0d
f3
d2
f3
16
12
22
09
01
db
3e
02
ff
26
cd
d2
fe
c6
46
25
09
24
08
14
4d
04
18
16
1c
22
d9
f6
e7
1f
da
1a
be
df
2b
31
18
ea
06
02
29
db
08
ee
f4
05
08
2c
df
0b
df
0d
0a
f2
f5
12
b9
ef
26
fe
d4
d9
f5
f3
ee
f7
fe
e2
02
fc
24
ec
17
0c
10
f2
0c
18
ff
f1
10
e9
fe
1d
cd
1c
f3
f2
ee
e9
0a
d9
15
f2
fd
fc
1a
e1
da
0a
29
e2
0d
28
0f
1d
f9
fa
e8
fa
c6
02
fb
0b
00
16
f6
f4
15
f6
2b
ed
ed
db
f5
24
cc
f7
02
ea
27
ce
f6
e2
ff
ff
0d
10
ea
eb
fe
2b
11
01
fc
34
00
05
ff
0f
0b
08
ff
1d
1c
10
0b
f8
0f
df
de
27
1b
26
09
35
42
11
ed
f5
0e
d4
ee
04
0b
f0
00
fa
f5
14
05
dd
eb
d9
09
e4
d1
14
c1
fd
33
1c
fb
11
0e
f6
e9
e1
ed
1f
5f
fd
24
07
f1
f6
04
03
db
25
0d
18
fa
1c
40
0f
0f
e4
d4
02
2b
f4
02
ee
18
f0
24
08
25
29
24
03
d7
fb
1b
04
e7
03
e1
3d
f4
19
e8
1c
fd
ea
eb
f7
e6
ec
27
fe
05
05
fa
05
0d
20
1f
0e
1b
19
e2
d0
de
28
22
27
12
e3
35
08
ef
0e
1b
e8
07
cb
31
f4
dc
c5
03
d3
0f
d5
23
14
f6
14
1e
02
0c
16
ec
d6
cd
0b
1d
d3
df
db
e2
0a
30
08
f8
f6
c3
da
dc
f7
19
f4
1a
f8
b8
f4
f0
08
fa
0a
16
e2
1e
d6
2d
be
fd
04
fd
dd
fe
0f
19
18
0c
e5
13
ff
fe
0c
01
03
05
f6
0e
2f
02
ec
11
ee
1b
1d
05
09
10
d2
f6
1e
e0
28
de
f1
0e
cd
ee
02
1c
fb
d9
de
12
09
19
cd
fb
22
d7
08
f3
ef
f3
20
d6
18
32
ff
0d
fb
01
f6
1d
d2
f7
fc
1e
0b
e9
18
db
27
26
3d
11
30
f9
f2
13
16
45
1d
0c
f3
e2
1d
0e
e8
07
f0
19
35
13
f2
e6
02
31
03
e8
10
e4
fb
38
4e
e0
ed
1d
fe
30
e2
0d
de
e0
08
ec
01
12
d7
e8
10
12
10
03
1c
10
23
f8
03
22
44
e3
11
bc
0a
21
4b
dd
c4
3a
e2
02
fe
1b
29
f6
02
2a
d7
2a
1d
ba
16
05
fc
0c
07
47
01
df
33
2b
12
e6
e6
f6
eb
c9
f4
f6
fe
16
ef
04
c7
01
e4
fc
e7
ed
02
d3
f9
32
ff
e8
fe
28
dc
e6
26
e7
23
2e
ed
0b
f8
bb
00
05
f1
f4
de
e4
fb
f0
e0
c5
1f
20
f5
d3
08
19
21
36
1a
fb
1e
ec
ed
fc
fa
04
fb
01
28
ef
24
09
e5
f0
f1
f8
05
d6
d5
de
2f
e9
f9
ed
12
07
0f
dc
1e
dc
ee
34
22
c5
1b
15
e4
dd
09
28
0c
d2
fe
f4
20
16
f2
3d
13
15
0a
d8
21
e4
fa
cb
da
fe
f9
33
16
e1
fb
0b
01
e9
07
02
f8
e6
e5
0a
f2
1b
e7
e8
f4
20
f4
01
d2
22
14
01
e5
f7
0b
f6
0f
dc
20
f9
f7
1f
0e
17
f9
10
10
02
12
01
11
f6
27
e6
f9
23
08
fb
22
10
fe
da
ef
0b
ea
22
fc
e3
de
2a
ff
c2
0a
f8
d0
e0
19
1e
c2
1a
35
dc
03
31
ec
20
16
ef
09
d8
06
12
ec
fd
e1
db
19
0f
0e
18
14
d6
33
04
01
0d
f5
2c
3d
f0
fe
f1
03
ee
ec
fd
09
1a
e9
d5
e4
fd
04
0d
00
1f
e1
2a
fd
0a
da
05
05
12
ee
28
06
28
ff
02
ee
0a
10
27
22
20
06
3f
0f
02
12
de
18
27
ef
d1
0b
e2
ee
17
f9
10
e0
23
f4
01
f7
0a
04
35
e8
ea
d5
0f
21
d9
fc
10
11
08
db
ee
e5
e9
0f
27
f8
0e
f4
ff
0d
01
fa
1e
22
e1
03
ea
f7
04
1f
0c
26
09
22
0d
17
ff
f1
07
e7
18
11
06
f7
08
f7
e8
af
21
03
d9
0e
0c
d6
df
c1
19
08
01
16
e1
ea
ec
04
21
02
f1
1e
08
dd
2d
d5
fd
f7
1c
d0
f7
f6
2d
f2
2e
ec
d0
f8
01
f5
05
e7
16
08
2f
e4
bc
f6
03
ee
20
07
15
05
18
cf
f7
d6
26
3a
ea
fd
10
fb
f1
d3
e4
e2
e2
ec
f5
2d
cc
26
20
ea
01
f9
ee
05
e0
02
0c
fa
08
e8
09
03
09
f9
ed
f1
25
37
22
03
28
11
0a
1d
03
f6
12
18
01
b8
d5
04
fe
e7
d6
d0
f5
df
14
07
2d
ea
04
f0
3e
e8
f0
1d
27
e2
ec
ce
e0
27
ea
2f
20
ea
f4
e6
db
18
f5
f8
d3
06
21
e1
13
fc
20
ff
0c
00
45
fb
f6
15
26
31
ef
1d
d0
e3
f7
05
d5
12
e7
1f
ea
ec
39
10
ee
ee
2b
03
0f
1c
e5
08
f8
f3
d5
00
e7
08
00
f0
df
37
cb
0e
e8
fa
e3
e9
17
e5
fa
dd
22
2f
1b
ab
07
f7
ef
ef
ca
ed
21
e6
fe
0a
f5
db
d7
f2
e7
07
1b
d2
18
c5
0c
00
bc
11
d7
fa
fd
04
00
fe
0f
00
15
f1
1c
26
ef
09
10
e0
df
0f
03
f9
f5
0a
ee
da
f7
ee
0b
27
c4
f3
02
17
14
02
2a
11
d3
26
09
e8
ed
2a
02
1c
0a
ec
14
14
12
51
56
1a
0a
ea
20
20
2f
fc
f2
26
f2
19
fd
14
ee
1d
20
14
fb
d8
32
3f
25
0b
fe
07
15
f0
28
12
0f
16
f0
1e
05
f2
e1
0a
e7
27
13
d3
0e
56
0e
0c
08
e3
ef
25
26
07
e3
29
dc
16
11
19
04
0a
f3
f3
fb
dd
1e
f3
07
2b
2e
f5
19
fe
1d
04
de
1c
0d
10
0d
e3
19
de
04
1a
f0
f9
18
01
0b
09
f4
f5
e5
e4
04
ff
09
38
eb
02
e1
d8
1a
0e
3a
28
0c
f0
f5
14
fa
05
13
11
1c
f6
1e
fa
0d
f8
e5
e4
ec
22
e0
fb
0f
08
06
e7
af
e8
fc
0f
1b
f4
20
e8
f7
1b
0f
f5
dd
43
11
01
de
ae
36
00
da
22
fc
0d
e5
12
ce
fb
e6
f2
15
0a
05
d2
0b
f5
fb
fd
fb
ff
db
19
ed
20
e3
d6
eb
19
f0
09
13
0b
2f
0d
07
d4
1f
e1
0c
f2
14
0d
08
19
d1
4b
07
c9
21
c8
f3
19
2d
fa
ef
f1
0c
f7
c1
3b
1d
06
f0
f7
ec
01
e0
ff
f7
22
df
36
06
08
2c
f7
10
dd
ef
49
20
e9
09
02
05
3a
17
13
11
0a
21
e2
19
07
fa
04
27
ff
19
fb
d8
dd
b7
1d
e3
fc
05
30
fa
f6
00
2c
1f
ef
ff
f4
e8
22
07
e2
f8
dd
24
f1
35
dc
ec
e3
1b
df
f1
ea
ee
1c
14
f9
f9
f1
f9
d7
e0
02
16
de
15
00
ea
ee
2e
36
fc
2e
06
15
05
be
04
15
02
ed
e6
fe
12
dd
e5
36
4b
f2
c0
0a
e7
19
14
1e
fd
17
03
fe
de
d8
f5
ff
fa
28
30
c1
df
23
11
da
f4
ee
bd
0b
f6
f0
c6
f4
28
0e
27
ec
1e
0e
ff
e6
f7
c0
f5
03
ef
f4
14
11
04
fd
19
03
05
00
12
08
f3
e6
1f
00
17
c6
00
dd
13
eb
f2
04
f1
0a
fd
33
b5
21
16
05
fd
66
2b
1a
14
1a
0b
0d
e8
13
01
fc
f6
ca
32
0e
2a
42
03
03
08
17
03
19
cc
11
f0
f5
e5
06
ea
08
12
f9
41
f3
f4
f6
15
fe
ec
11
0c
e7
17
34
18
d4
1b
34
e0
29
f9
cb
0b
a6
19
22
3b
e4
18
16
04
df
09
e2
ff
f7
f2
f8
01
26
df
19
17
f9
06
c8
ed
11
1a
ff
f9
f8
e1
03
fe
f9
0e
ff
2a
e7
f3
17
00
fa
24
19
01
fb
18
1a
09
f6
06
29
ea
10
08
06
dc
e5
20
0d
f0
ef
08
30
28
0f
fa
22
13
db
ef
ef
16
13
dc
da
f1
1e
04
0e
0e
e7
13
e0
06
e7
fc
cc
ea
cb
0a
2f
2b
fb
0f
d6
e1
cb
0d
f8
1b
f9
0b
12
2d
1e
ca
db
0b
f2
dc
0e
38
03
19
f4
fd
e6
20
01
09
06
08
05
0c
ff
f7
fc
b3
e1
d9
1e
17
04
f1
e6
23
08
e2
0e
19
08
c4
f6
05
25
e3
d7
fa
f5
c1
18
e6
e8
13
ed
1a
ac
03
ed
dc
01
ed
2e
2d
dd
2c
ec
0f
07
de
ff
d9
1a
fe
16
2e
02
04
ea
19
e2
1b
fa
f9
08
0b
1a
03
12
f7
d0
e7
13
01
f1
e8
1b
00
d7
f0
03
f7
ef
fe
20
b9
1c
03
fe
07
ea
ef
07
13
9e
1d
e2
db
f9
e0
15
0d
f1
29
d8
12
16
03
d6
0d
2c
ee
f9
2a
14
e9
e8
05
10
24
f2
fc
18
dc
dd
d3
09
0a
17
f1
1e
26
cc
0d
4d
0f
ee
d0
fb
f7
07
ed
03
08
08
e1
d8
11
f9
f9
e8
f7
e1
20
1e
1f
f1
fb
c2
f0
4d
e0
d0
2c
12
e8
e5
f9
21
09
1c
20
f4
da
00
1f
ea
0a
0c
08
fc
06
03
ee
df
f8
f6
ed
ee
cf
ae
cb
f8
d8
da
e1
28
00
03
f8
e9
3b
25
e1
1e
f4
ec
ef
de
16
07
16
1b
f7
0b
04
0c
dc
07
fb
fc
0b
2f
2d
dd
1f
1e
1c
e8
fe
ee
eb
13
ef
41
f5
fc
eb
35
25
2d
10
fd
fc
27
20
ef
f6
19
0e
18
1e
e8
02
07
0d
19
fd
27
24
e9
e8
02
0b
14
ec
fa
0a
f7
21
e8
f6
e0
fa
0a
ed
e7
d8
0d
2d
09
09
f7
0c
0d
0d
0f
ee
e0
07
0a
f5
14
f8
f8
06
1e
21
22
32
fb
15
d5
09
1e
17
ee
ff
0e
e9
e7
e7
07
03
0c
16
08
ed
1a
1e
ef
0e
0c
20
f4
df
0a
ea
ee
06
0b
07
e1
02
e4
13
45
c4
e7
0b
f4
1e
12
10
16
fa
ed
19
fa
da
f3
24
f7
f9
ee
f4
09
36
f2
0f
01
2e
e8
ee
da
e8
04
fe
09
e4
00
0d
ed
f8
e8
cf
d9
2e
fa
20
13
f1
eb
f9
11
1c
fb
ff
08
e0
cb
ee
0b
38
0c
17
0a
05
1c
27
12
fe
f8
09
f6
1e
22
29
0e
11
0a
05
bf
12
15
01
04
fd
14
f9
1c
0a
f4
e2
03
38
f8
2e
1a
f3
27
14
ee
23
12
fe
e7
dd
f3
eb
08
e5
f3
d0
fc
0e
c9
21
b9
39
0f
fc
03
f0
fd
b5
23
16
33
01
f2
25
06
fb
44
19
23
06
f6
d8
1b
e6
f7
d2
d4
f2
f1
01
09
18
de
fa
15
c2
fa
fe
02
f6
17
2e
ac
00
e9
05
18
ec
e1
fc
01
03
ee
10
07
24
28
d3
18
2b
d0
14
2d
04
f1
ef
dc
38
5d
da
0d
ee
0c
0f
d8
02
f8
00
0e
f9
05
fc
10
08
db
fd
36
0c
e5
3a
1a
fd
02
dd
0e
fb
e5
3e
1f
19
04
12
24
3c
2f
f6
0a
09
1a
f6
22
d6
07
07
dd
d6
28
fb
de
16
27
05
16
ea
b9
e1
e9
07
2d
f5
ff
13
c8
39
fb
f5
19
f6
d3
02
3a
0d
12
ed
15
f5
cb
dc
26
16
cd
0f
ff
02
13
2d
e2
0d
1b
17
fb
23
ee
e4
05
e4
16
0c
0a
09
01
f3
fc
fd
dd
ca
c9
0b
15
ac
1d
e5
ec
f7
b7
07
21
ec
14
05
ee
b0
f9
ff
f2
b5
0d
bf
01
f4
04
ea
17
09
25
1a
09
06
18
f3
05
22
ea
e7
0a
00
cb
03
e4
06
de
d1
ec
f4
20
f1
e1
04
03
f5
eb
d8
f4
0f
e5
fd
e0
ee
0d
ff
f6
1c
05
09
f8
f2
e7
f1
0a
17
24
17
16
e8
22
00
35
fd
1f
04
db
14
fd
05
0a
1c
14
fc
0c
ef
bc
f3
e2
05
1c
14
10
06
1b
20
22
d3
ee
15
fb
03
fb
0c
0f
27
e6
e4
13
fe
e5
f4
13
0a
11
0e
12
03
07
0e
0d
07
b0
33
4e
27
e0
fa
25
f6
0c
d8
22
07
09
fe
19
13
f7
df
fa
0b
f1
ea
05
39
e5
fd
db
f7
f2
ff
11
0a
e2
1a
e7
f3
f5
41
1f
39
eb
0d
f9
eb
11
cf
f8
ed
e6
dc
11
4b
ec
04
e9
f7
0f
f4
1e
02
ea
d8
09
0b
d0
d9
e3
f0
26
e7
f4
32
29
fc
ff
e2
dc
e9
09
f3
cb
f0
01
0a
18
15
0d
44
00
0f
f7
1f
0e
08
00
e6
e4
30
f0
04
18
22
dd
f5
02
ff
ee
25
12
0d
1c
21
f8
14
dd
14
11
d2
ff
e0
18
f0
10
f8
0e
f8
f8
fe
f8
03
f8
16
04
05
01
db
1d
d0
cb
e7
fb
f4
1b
e4
e9
2a
19
1e
f8
03
45
2d
0f
0f
eb
1f
f3
18
17
2b
07
f9
f2
18
db
db
d7
e2
00
23
f0
1d
e8
00
09
e6
e6
ec
eb
d6
ed
fe
e3
e4
e8
24
35
0a
df
f6
ee
f8
0a
c2
c5
1c
21
19
0d
12
f5
ad
d7
09
00
d8
08
c4
ef
05
f1
0e
f6
f6
02
bf
03
0a
0c
d5
e9
fc
f5
3a
28
10
f0
ec
e3
0d
da
05
d9
21
c0
ed
2b
fd
26
f8
1a
e8
ee
df
04
f9
1e
01
d4
11
13
e5
e0
e3
0e
29
e1
ef
ec
db
47
38
df
0f
09
0f
11
ea
f3
e8
e3
fc
09
0b
ca
f3
da
d9
0f
ea
d0
f2
1d
df
1d
df
28
02
05
df
32
1e
28
0e
e2
14
05
2a
05
f4
16
1f
1b
fd
13
f2
f8
ea
ec
24
0d
f6
fa
20
09
08
47
ea
d4
fb
0c
3a
db
ca
21
1e
1b
13
d4
d9
18
e8
15
ff
f8
ea
f4
36
31
1c
f2
0c
ef
38
0d
f7
11
35
0f
26
e7
da
0c
fe
e4
05
fc
04
0b
05
f4
08
0a
fc
fc
0f
f7
f7
51
08
10
f9
dd
f0
14
f9
00
0b
e6
fc
04
4c
0a
ee
1b
bd
1e
0d
f8
eb
05
13
ea
1c
20
c4
e5
06
dd
04
f9
e9
2d
fb
19
27
13
f6
fc
2c
02
3e
3f
e9
e0
fd
f2
10
f1
02
10
40
fe
f3
fa
ef
25
ee
12
d2
1b
cb
09
0b
da
22
d3
0a
15
09
05
1f
08
39
d9
de
ea
fd
17
f2
01
3e
fd
01
13
16
e9
d5
2e
e7
c7
00
f2
fc
01
c2
e8
ed
d9
22
e8
e5
0f
06
f9
f4
f1
f7
d6
f4
24
14
32
e8
34
19
e5
fa
08
e7
19
df
fe
ee
f2
07
18
eb
fb
f1
ef
2c
16
20
4f
21
e5
09
0c
eb
1f
e0
e1
0f
03
24
1c
18
12
09
2b
d8
de
21
0d
ff
12
2a
ff
1d
24
17
1b
18
2b
18
dd
12
e8
22
de
07
14
ef
e2
ef
cd
0d
1b
d4
db
14
ef
de
1f
1f
28
08
11
df
0c
f5
c4
25
0f
08
01
10
0c
18
0f
06
e1
e9
f4
f4
e2
df
c9
03
da
e4
1b
f0
fb
24
f5
03
32
f8
eb
de
bc
1c
49
14
05
fb
c1
45
fe
1a
34
11
e5
1c
0a
f5
03
1b
01
b7
02
18
08
10
1c
f6
f5
0a
e0
0e
f4
f2
1c
1a
34
2d
c8
d2
dc
f7
29
18
e0
15
0e
bb
03
06
fb
e0
12
1a
f5
f6
d3
15
e2
23
ea
ea
e1
0a
33
0a
f2
f5
1c
f7
e2
ec
01
1a
cc
17
15
1a
f7
18
fa
ec
4a
28
f8
fc
f3
2f
e3
02
06
01
1d
f5
35
e8
d9
ed
e5
e2
e4
fc
f5
10
1c
0d
ec
18
10
21
33
c0
14
14
09
05
10
f8
ea
25
f2
f1
e8
2a
0f
07
24
d3
ec
e8
02
e5
f0
fc
32
0d
e1
18
e1
2a
e6
1d
00
e7
f9
11
0d
3c
05
ec
cc
f6
dc
08
df
1b
cf
ff
fe
0a
f2
21
0a
05
29
19
08
12
24
33
d6
f6
f5
22
d8
d7
ef
ee
08
36
dd
e7
32
f9
ef
ea
08
fb
e2
dd
0b
ea
08
47
15
f8
1c
24
eb
f6
ff
04
ef
ef
d8
2e
f7
21
f9
ab
24
df
fc
e1
0c
10
14
ff
f1
b8
d8
1b
02
0d
e0
d5
20
07
fb
1a
2f
0c
ff
f6
15
f5
3a
03
fa
ec
07
fb
ec
f7
cd
02
fb
0a
ee
21
0a
0c
07
30
01
cd
0f
06
07
1b
f3
00
13
ce
fc
d8
f5
cc
fe
ef
0a
e9
ff
ee
ea
ca
14
ce
0a
19
e8
ec
d9
f9
ec
cf
da
21
17
02
ef
d3
d6
ef
f5
fc
f7
0c
24
02
f9
1b
d4
f2
1e
1e
0c
f9
08
fa
1e
1b
fe
20
12
ed
25
fb
02
c9
ed
f7
25
fd
c4
e0
08
f1
ff
fb
e5
30
5c
0a
08
ff
0f
14
f3
fa
03
07
1a
2c
e1
17
ed
25
04
01
02
05
f1
df
11
18
11
0d
09
1a
19
df
03
08
ec
2c
e5
12
1b
18
5a
ed
d7
21
cc
f6
de
40
fb
1c
0a
2d
fa
c8
f7
17
19
eb
27
1e
13
eb
23
1b
41
ed
ca
12
f0
17
1c
fc
db
f0
07
2b
03
0b
10
07
ee
d9
04
16
1f
cf
c9
24
fb
e3
07
c6
f7
18
0a
e7
dc
0a
09
f0
1d
e4
06
ff
07
f4
d5
0d
2a
fe
f0
f3
eb
1d
e4
44
de
dc
fc
d2
ed
36
41
02
00
d3
0e
58
d6
fc
f7
0b
fb
24
13
f0
f1
00
f5
f6
2f
ee
da
24
f7
2b
0d
0c
f0
33
1f
2a
e9
30
fe
13
d4
0e
00
00
26
d6
17
fc
fb
41
f7
05
ca
f0
34
18
10
d6
0d
09
ed
36
0c
04
f5
f0
20
ed
fa
ef
ea
3d
f2
f9
26
d3
f6
ed
e9
ea
bf
fe
d0
14
3d
1e
e8
e2
04
f6
19
d8
fb
fd
f2
fe
02
fc
d8
12
e5
12
e8
10
e4
12
1c
24
f2
cd
ec
07
01
fa
18
fd
2d
06
07
e7
ff
18
09
22
ea
04
fb
0a
d3
0c
00
17
e9
04
12
47
de
ed
fd
00
f3
e7
03
1b
fb
d2
28
22
09
b1
0f
eb
04
22
e8
da
ff
c4
07
ec
dd
1d
20
e7
14
e6
2c
14
1b
0b
d7
f0
e2
1f
f2
f6
fc
27
02
ee
32
ff
0d
ec
00
3d
f4
30
01
e8
2c
14
f3
e9
05
39
15
d2
c7
f2
18
fb
fd
22
2f
06
d3
f8
d4
3b
29
e3
02
f0
16
c2
37
ec
e6
24
15
ff
04
f6
1c
08
dc
31
e0
e8
10
01
dc
f4
0d
ff
39
26
0c
ff
d2
ed
29
16
18
1d
fd
05
26
f0
0c
e8
e0
15
fe
f8
02
17
f3
fd
0a
fa
04
13
f9
12
11
04
0e
0c
e2
e0
10
03
e8
26
fa
ec
db
fe
19
06
da
ea
e6
eb
01
f5
f6
0a
50
4c
17
04
17
fe
34
00
0b
eb
fe
ec
21
01
df
33
dc
e4
e5
31
18
ea
f2
15
e8
24
11
e6
d9
ec
07
f9
f0
1b
15
f3
ea
fb
e0
13
3a
00
20
ec
fa
03
1a
f5
2c
f5
0e
ea
e5
b3
ce
05
d6
d9
fe
dd
04
e9
03
13
17
21
0b
f6
f2
f0
0d
f6
1f
0d
1a
05
1c
0e
ef
19
2d
f4
f4
12
06
f7
03
e5
19
dc
0d
d5
f0
ee
02
f8
ec
dc
e3
d8
03
47
1b
f7
25
22
fb
2a
fc
fe
f7
0e
1b
f1
04
0f
ed
01
d6
0a
d1
0c
37
0f
f7
10
02
0e
00
f7
d4
21
f5
27
04
15
f4
da
2c
00
f1
e1
00
12
f3
05
20
e5
f3
1b
da
df
07
0f
f6
40
e3
f0
24
fa
e2
01
e7
04
c5
18
f3
16
d8
21
19
16
0f
69
fa
d4
0c
23
db
f8
08
e5
16
da
0a
2b
08
30
1a
f5
3f
e2
db
2b
0d
da
30
29
0e
00
f8
f3
eb
07
d2
03
05
14
ef
df
aa
e0
e7
e9
fc
10
14
dd
05
0e
ff
f2
16
d5
12
19
ec
1f
ec
02
ef
04
14
cd
e9
21
0a
f6
fb
0c
00
1c
0a
0a
03
1b
42
0f
d3
db
de
02
dc
08
0e
e5
f3
1b
0e
ff
f1
e5
04
06
ee
0e
d6
f2
19
fb
2e
ed
f4
d4
22
d1
ee
f6
0e
14
03
ff
29
f7
10
08
e5
d2
41
0b
27
01
db
04
0e
f6
29
16
eb
13
f6
13
fd
00
e7
12
e5
ea
e0
53
ee
13
12
e5
22
f4
d2
10
d4
0b
04
cd
d2
22
36
1e
1a
f1
fa
1b
1d
1c
f3
c5
fa
35
fe
03
c3
04
09
14
fb
09
02
ec
ee
0f
e1
48
ec
13
c7
e4
17
d6
0c
16
e8
bc
20
11
1f
fd
2b
09
0a
02
01
31
01
f6
22
11
f1
19
0d
ef
ea
10
03
39
c4
31
e4
0b
06
2c
0a
0e
cd
f4
f8
f2
e0
1c
da
f2
dd
f1
26
f7
0c
eb
e7
1b
1c
f6
f0
18
0f
d7
f6
03
c5
d7
30
22
24
10
2c
e8
24
fa
0c
24
e2
25
ad
f3
fb
ee
26
32
df
04
cd
e2
df
e5
e1
f7
39
d5
fb
d5
1d
e3
28
0b
29
19
07
04
20
c3
f8
f2
0e
12
03
d2
fc
e0
0d
0a
e1
f3
07
0b
02
d3
26
d6
04
0a
02
29
0e
f9
1d
12
fc
e8
16
1f
fa
fe
02
2a
04
05
04
eb
30
f9
fd
00
e4
10
0f
f7
13
ff
fd
27
28
fc
04
02
0f
03
0d
17
1f
fd
f5
e4
ce
e9
f9
f7
01
f9
f6
38
f1
1e
2d
e8
f4
c3
f9
d4
3b
ef
dd
17
cc
24
4a
ce
19
01
e5
18
08
c0
08
18
fd
ff
0b
1a
2f
f3
ee
27
29
ef
e7
15
24
0e
14
c8
ef
08
2c
1e
e2
0a
11
fe
04
ec
0c
f6
13
f2
0b
f8
43
ea
ff
dc
0b
e7
16
c6
f9
e7
03
26
e0
df
05
17
16
ff
18
0f
fe
fe
dd
f8
e6
1e
07
0d
38
ed
04
1d
e8
c3
eb
f7
09
a1
23
ed
f8
f9
10
f1
26
07
c7
fd
10
f0
f4
07
1a
16
ec
18
ee
30
f0
0b
22
10
2c
fc
06
fb
f7
06
03
08
20
d6
26
1a
f5
fa
13
1d
03
ff
fe
cf
f7
0e
29
e1
25
f9
1c
ff
1f
f9
2b
fa
11
2f
f6
f3
03
dc
ea
12
e8
ef
ef
b4
2d
09
e4
cf
18
20
14
fa
eb
1d
15
cb
f7
fc
1b
de
0f
1a
10
ef
18
f1
f8
2d
0b
12
02
12
fb
1a
e2
24
f7
e1
1f
1c
f0
e4
d7
04
ef
fa
e3
e3
ee
42
08
08
1f
db
01
ee
f3
fc
37
f5
0e
15
0a
08
24
e5
dd
e7
03
17
fc
03
0b
fb
cc
e0
cb
20
de
1b
32
50
d9
08
17
d8
2f
e8
04
fd
12
23
d6
3a
2a
f1
0d
29
01
f1
e3
29
f0
08
25
1b
0b
05
39
20
15
fd
0e
59
29
18
1f
1e
08
dd
09
d2
e3
ce
f8
04
f3
f6
f2
0a
1d
29
f6
15
f5
f3
02
0d
e6
f3
f6
fe
ea
2c
10
c9
26
ba
e7
16
e8
ee
1c
1a
ec
01
26
0a
2f
f3
24
fe
e4
28
de
fa
01
fd
ef
ea
18
e8
04
fe
18
d8
d2
f7
de
d4
00
1f
43
2d
06
33
ff
16
d5
36
20
cb
11
06
fc
f6
20
f2
0f
d3
f0
06
10
1f
28
31
4e
0c
1b
0a
e5
06
f0
0a
17
01
02
b1
cc
01
ef
db
3f
f5
db
f1
1a
13
1d
e1
33
fe
1e
e0
fe
30
f9
0e
0c
d5
db
f4
14
fb
23
cf
eb
dd
08
26
0b
d2
03
27
09
0c
dd
b3
03
ff
08
f4
2b
ee
f2
f7
2c
fc
24
11
04
e2
15
10
15
d1
1a
da
25
19
04
06
e7
12
12
15
e2
e3
18
de
fe
e9
0c
24
10
0b
04
2c
e7
13
02
22
11
f0
fd
d7
d2
0b
e8
df
f3
03
07
05
46
09
ff
45
0c
f7
10
1b
0e
19
27
c7
0d
ea
10
14
fe
f0
20
f4
0b
ff
24
f8
22
0f
03
ed
ef
fe
f1
07
f2
f9
07
e9
d1
01
de
07
cc
e9
f9
eb
22
eb
0d
0e
29
02
e5
f8
06
21
1b
ec
e4
37
f2
e4
28
1d
f7
05
f6
08
d5
dd
f7
03
14
c8
d2
21
de
05
e8
17
e4
e0
e8
0c
06
fb
e2
15
df
de
0b
ee
f8
32
f2
00
1c
05
fb
f9
cf
1c
f9
f8
f3
e3
fa
fd
fe
c0
1e
fa
20
0c
af
f1
13
20
dc
0a
f9
02
d3
e5
eb
38
e5
fc
f0
ef
dd
f4
ef
f6
0f
04
10
07
16
2d
00
0e
f3
c3
18
13
f7
34
f3
e9
07
01
15
12
0c
eb
1e
ef
f1
e2
be
c5
19
1f
f4
fc
e9
ed
f6
e7
f7
f6
e6
ff
c9
ef
21
20
da
04
13
f6
28
df
27
df
fc
ef
ec
ba
2b
eb
09
e7
09
fd
18
29
01
ef
e3
30
e1
e9
07
eb
fe
f8
e9
da
f1
f2
05
f0
30
0a
16
19
d7
f2
bb
07
f1
00
db
21
0c
0e
db
ef
01
fd
23
0b
e2
0e
dd
f7
1c
c2
f9
03
fb
12
08
26
0d
de
f8
2e
1d
fc
e8
e6
15
f5
f7
de
e0
ef
f5
1c
ee
dd
e2
cc
f5
17
e7
f7
07
de
ee
ec
a1
cb
04
f1
eb
ec
18
10
ef
c2
f1
2d
1f
15
01
d8
f9
d3
bd
37
e0
e1
fe
f1
04
fd
35
16
ff
1d
09
09
dd
1e
ed
e3
ee
18
04
d5
ea
f5
17
ef
15
f7
f9
33
df
dd
f7
0a
08
27
14
0d
05
eb
f8
e0
e0
18
16
fd
26
ff
d7
20
fb
c5
08
03
c9
34
05
e3
ea
20
21
21
ef
f3
23
1b
fe
37
e8
f7
25
f7
04
12
08
fd
ef
1e
10
1a
fe
13
01
32
1d
b9
fb
e0
0f
03
c0
fb
ef
fa
f0
0d
20
13
fd
e0
03
4e
13
03
01
e2
14
dc
e9
f0
14
de
08
15
f0
ef
14
02
2a
e9
2f
13
2c
01
fa
16
fb
fa
eb
0d
04
ee
ff
e3
f4
fa
f5
20
c7
f1
ef
0b
f9
04
e4
03
fe
c1
15
f9
0a
e8
e6
09
f9
f6
1c
f4
24
23
00
2c
11
20
10
e2
fb
fe
f2
e2
f0
f7
fa
22
e8
f5
ef
04
e7
26
f9
27
12
02
1c
ff
11
09
e9
28
15
13
05
39
fb
04
cf
2a
15
1b
db
37
21
1b
f6
fd
1a
14
e9
0b
01
fb
e3
e0
0d
24
fd
e0
c6
07
ec
13
dd
fc
f6
23
e2
1c
c7
37
01
e5
d6
00
da
e8
dd
18
0e
0b
e8
2c
e6
ee
05
d7
02
f4
d1
2b
1f
0a
36
e8
33
ea
e6
f5
0b
fd
f2
00
09
f6
38
15
f5
1b
04
f5
09
0f
23
0e
0b
2b
01
fb
fe
f5
f3
cd
0b
f4
04
fd
0f
cb
10
f7
fc
20
09
2d
11
be
da
c7
05
0d
e4
fc
02
1c
f8
3c
34
13
14
16
fc
11
fa
f8
18
0f
03
02
f5
fe
07
13
1d
26
cf
f1
d6
0d
2d
03
f5
0f
4c
e3
e0
f7
f1
0e
ee
ed
e1
fa
f7
ec
2c
f9
15
c4
04
ea
d4
da
24
f9
15
ef
ed
d0
0c
10
fc
11
23
2a
df
07
00
1e
c7
0c
d5
f2
d9
f8
10
06
f1
fb
07
d0
02
09
fa
01
07
db
06
17
ee
11
ed
24
25
08
17
0c
46
f6
3b
e9
e5
e3
ff
0e
fb
11
13
2b
be
0b
00
28
e7
02
e5
0e
0b
c6
fa
23
1c
0f
03
ef
55
04
ec
df
ce
01
fc
f9
2e
e8
f0
02
08
dc
05
fe
e9
54
0a
01
fa
dc
09
f1
00
ed
ec
0d
12
f5
e4
2c
e1
ef
06
26
e7
ec
15
02
e9
0a
27
21
16
d0
05
d3
ed
02
25
20
0d
17
de
00
e6
ec
0a
eb
fb
c8
49
e2
fc
34
f7
05
e1
e2
b9
38
d5
13
01
d2
45
fd
07
ed
13
58
14
00
07
10
00
0e
e7
ef
1c
00
17
2b
df
09
0d
f9
0f
0e
22
f4
ee
e4
2d
fc
e7
14
0e
f7
27
05
ef
3e
ce
05
d9
32
e3
df
23
ee
fc
14
fe
f3
df
31
fc
f1
08
e7
ed
0d
02
08
1f
d9
f7
17
0d
17
ce
03
f5
e9
ff
ce
ef
e0
ff
20
cb
f6
fd
fb
1b
03
d4
18
2b
f0
14
27
fd
f3
3e
0c
14
f1
49
00
3b
17
13
21
14
03
cd
d8
15
f8
da
0a
ed
0f
26
19
31
f3
22
0a
10
33
ee
00
09
d8
13
1f
d5
01
e1
d5
f7
fa
2b
12
fc
f9
30
e7
f9
24
fc
fd
ef
d4
df
09
f5
11
fa
e5
05
f9
12
da
db
02
f3
eb
06
12
e3
fb
37
fe
f1
fc
e5
0c
2d
1f
f7
fd
f8
ed
2e
e4
fc
39
1f
d0
fc
27
f0
db
d5
03
d2
d3
e5
0d
11
d8
02
0f
ed
de
ee
f3
fa
06
12
14
00
de
1f
20
0e
cc
08
f7
f3
c8
0e
fa
dc
c4
de
fb
fc
1b
e6
0b
f5
07
12
c3
12
0c
c8
f5
06
1e
1c
dd
01
de
1f
f6
fe
26
ff
da
ef
0f
08
28
3c
04
07
22
19
dd
e4
0d
fc
1a
f7
fd
e9
dd
f1
08
05
20
2f
f2
0a
21
26
f7
27
de
f5
24
e9
fd
e6
0b
18
03
f7
21
01
e2
e6
d9
15
09
13
07
11
0c
07
26
10
03
ef
18
f4
f6
05
1e
cf
e7
15
2a
e7
11
f2
06
1b
2b
ee
05
17
fe
0a
37
d9
30
15
0d
24
33
fc
d4
d8
08
e4
b6
fb
15
fe
0b
13
3a
14
fd
11
23
e0
eb
db
e5
fd
ff
f8
f1
09
ea
04
f7
0a
ed
f9
cc
f6
d5
d0
e4
f2
3c
e8
37
ee
fc
dd
24
25
ed
09
09
c9
03
ff
1e
d9
fa
e4
f1
1b
36
0c
18
37
e3
e9
07
e0
fd
e7
c5
e8
15
f9
d1
11
16
e5
0a
15
0e
e2
f5
dd
f8
02
20
ec
00
d8
2b
1f
21
0a
09
0e
10
ee
05
24
14
28
03
06
fe
dd
d8
0f
0d
2d
fa
2e
12
1a
3f
ef
0d
14
ec
f9
ef
0f
0c
29
f6
0a
ca
e8
f6
f5
c5
1e
14
13
04
f4
25
fd
3e
f6
f8
0d
f5
f3
f0
06
e2
f5
49
d3
00
d5
05
de
1d
14
fa
e8
c9
f7
c6
f2
0c
ee
d9
1d
1a
10
f3
f7
10
0d
14
02
df
0a
dc
0a
18
c0
1a
ef
f0
01
0e
ed
ff
3c
29
0e
17
f6
fd
31
2c
2e
e5
03
04
00
eb
dd
db
ef
f8
ea
0d
e5
e7
00
d9
ee
32
fd
06
fa
1c
0f
43
1e
e1
05
e3
eb
d8
16
04
ec
f2
fa
9f
15
1e
17
15
2d
3e
01
fe
e5
c8
2e
fe
e6
1b
c4
fe
23
fe
da
01
06
08
0b
0b
16
eb
37
f6
ef
d8
d7
fa
07
d7
e9
18
09
0c
cd
1a
ff
44
0d
db
e8
07
0a
43
18
e9
3e
f4
d7
f1
e4
01
02
42
07
15
fd
bb
1b
d5
35
fa
f2
11
d7
01
de
24
45
d0
f9
18
eb
08
02
07
07
c7
16
07
0c
f7
cd
1c
fe
1c
dc
0b
02
ba
e2
46
f1
fa
0a
13
fb
05
1c
00
d6
07
d4
09
de
f8
01
eb
e0
c7
2f
1a
04
0f
1f
0b
19
fc
f4
1d
14
09
2c
e1
2c
22
17
1e
cd
2d
12
d9
16
e3
ec
c5
06
13
e4
fe
d6
25
ce
03
fa
fd
e8
2e
0d
22
14
fd
11
11
08
2e
ef
e8
0f
fb
f3
f5
f1
40
05
00
f5
d8
e8
fb
ee
04
12
ec
25
0a
ec
03
eb
eb
f2
e9
2f
ff
fd
d8
45
29
f5
f8
e9
e8
df
10
17
1a
02
1b
1f
df
24
2a
2b
ee
e4
fa
04
1e
f0
0f
1c
fd
eb
f1
ca
20
e5
ea
03
04
cd
24
1a
04
1c
fa
1f
12
13
2f
fa
f6
ed
00
03
0b
fd
23
09
17
13
f0
06
ec
da
e4
16
ec
ff
e9
19
38
ff
f1
0f
f7
e1
fe
07
eb
dc
06
03
f4
d7
20
c4
c5
14
13
fe
f2
24
20
04
15
09
3a
e1
15
2a
d1
ec
05
11
f6
1a
e6
38
0e
16
d5
0d
15
f0
f8
12
e2
e8
1e
13
11
2a
e0
2c
f2
f1
fd
0b
b8
17
e5
04
08
f9
f4
0c
ef
28
c5
30
ec
d9
05
01
f7
00
fd
f7
fb
ef
fd
07
10
e2
d6
06
3b
e6
31
16
02
f5
fe
22
28
19
dd
d3
0e
0f
30
f1
f3
ef
cb
0e
e7
03
ec
ef
ea
eb
e1
ef
f5
fd
df
11
27
ef
1a
f4
2b
09
2f
07
de
de
fb
ea
fb
d2
00
1b
13
d8
22
21
ff
f8
01
d5
d8
f4
fe
e9
39
fc
ef
f8
e8
fe
dc
f9
e1
f5
0d
ea
e3
1d
f0
15
10
0b
1c
18
21
23
22
14
25
12
ed
06
14
12
f3
29
da
da
f8
3f
07
0d
ec
19
0a
66
be
e6
02
f1
06
25
19
dd
d2
14
22
fd
ef
02
e8
fd
fb
16
f7
e5
12
dd
00
1c
da
fc
f9
ea
e0
08
0f
0e
36
23
f9
ea
e8
e7
e5
e5
09
44
f6
cb
07
e8
fc
55
fc
13
da
04
03
c7
13
05
0a
1d
1e
f9
d3
02
47
b9
2b
20
28
05
e5
0c
27
f6
4b
f0
32
d1
27
e3
fd
f6
e9
cb
29
0a
1b
f6
e5
07
1e
de
ea
dc
0f
c7
0b
fe
02
c1
fc
f3
e6
05
dd
df
f1
da
df
37
40
f3
e7
03
f2
ca
09
1f
00
25
02
01
16
1b
b6
26
e2
04
fd
f6
1d
f2
06
e6
02
08
10
0f
e2
12
e9
0c
1a
08
12
25
02
0e
24
f3
f5
18
2a
2c
07
df
fd
e1
e7
13
0c
e6
1f
f4
f0
17
0c
15
ff
03
04
e0
21
37
24
e2
e6
e4
e8
e8
ef
1d
41
ee
e2
08
da
c9
f7
c8
d9
d9
13
fe
21
0c
b9
0d
c2
c5
f8
07
06
fe
29
d7
fd
df
e4
16
07
09
0e
1f
0d
d4
08
0c
f3
ed
01
dc
09
00
31
ed
08
de
3d
16
14
d9
1f
04
e9
fc
c9
ee
18
08
2c
28
ee
d5
d6
f9
24
d5
0b
d9
ce
da
15
eb
07
e8
e8
05
0c
df
fb
e6
05
02
2d
12
03
0e
f0
e0
f7
10
d1
ed
0f
16
d7
eb
eb
fa
f6
0c
17
ec
24
db
13
25
1b
c8
0f
d2
f8
f2
e8
36
d3
fb
ff
28
e5
17
dd
13
f6
04
e8
1c
26
d6
21
f3
e9
f3
21
16
ea
24
d8
23
ec
e0
20
fe
e7
10
fd
f6
f8
f0
17
fd
1b
1e
23
1c
0b
ed
fb
42
d5
f2
34
e6
fc
24
30
2f
00
f7
07
d2
14
cd
34
0e
f9
07
f9
e2
fc
1d
f3
0c
04
de
f3
dd
13
11
d4
10
22
fc
08
fe
f9
10
f6
04
e4
fe
d2
f6
2b
e9
e5
e8
f2
d6
1d
f5
f6
fa
1e
00
ee
20
22
e3
07
06
06
14
ff
f4
eb
fb
00
08
d6
f7
2c
e2
0f
dc
f7
c2
01
fd
fb
00
e3
1d
dd
f8
27
e9
fb
00
15
53
e3
13
0c
3e
f3
08
13
f5
fe
23
df
22
13
e9
19
a2
37
ee
14
fa
ee
e5
fd
d5
08
03
ce
11
1d
f7
0c
bf
e4
f0
ed
ee
01
fe
27
3a
f0
f3
3e
01
21
ca
17
f8
00
1c
0e
fe
23
14
1d
11
ea
fe
fb
08
fc
0b
02
c6
11
e1
fc
ed
0f
1e
cd
37
11
dd
de
f5
0e
10
e6
dd
f9
f6
0f
f0
02
14
fc
ff
39
10
0f
06
d2
2f
0e
07
fc
e4
f3
0f
f3
2a
06
05
fa
05
0d
e7
e6
e4
f4
11
1b
fd
1d
18
2a
f1
24
15
17
f5
05
1b
10
e8
00
04
d8
1a
fc
00
df
ff
09
ef
02
2f
0e
28
da
2d
d9
0b
ff
1f
fb
13
12
2c
28
e0
15
20
e3
e5
ed
e8
09
f1
15
07
f6
0b
70
14
e3
e4
2d
32
f1
23
d9
14
03
fa
0b
f5
07
09
00
b7
ef
04
ec
d3
f4
1d
ef
09
3b
05
0f
d7
f2
15
2c
0b
ec
11
15
02
0c
dd
da
dd
f4
f8
0b
16
46
e9
06
11
03
0c
1d
1d
a9
0d
f7
38
07
1d
0e
29
d9
1c
f4
12
25
2e
30
58
f6
fe
ff
38
17
43
0b
2d
bc
fe
06
01
11
00
fe
f6
cf
f4
28
ff
de
fe
22
1c
ed
10
5d
d7
1e
f6
2b
e5
14
21
10
1a
1c
f5
f3
0d
fd
2a
0e
19
f2
fb
19
0c
03
ec
de
37
fb
30
ed
f4
0f
21
02
ee
2e
fe
26
db
0c
12
d3
00
e7
21
12
02
14
fb
f8
ec
f1
15
14
1f
02
f2
fa
16
10
22
ec
47
f1
df
ee
ce
20
42
06
2b
18
3e
04
0b
fe
33
11
15
de
2d
fc
00
24
dc
f1
d6
11
f8
0a
01
00
0c
2f
f9
18
01
14
34
3a
28
05
2a
ed
e7
fb
d9
02
e2
2a
fa
f5
1e
07
f1
f7
10
0e
16
05
f1
16
ee
29
e4
db
da
0a
00
e9
21
e6
1f
fe
01
1d
1d
df
10
02
e0
fb
fa
fb
ef
0c
dd
fe
38
17
f2
03
10
f5
f1
e2
ef
e5
f7
fe
0d
23
eb
f5
d8
10
dd
06
d5
1b
28
ef
08
1c
fc
f3
1c
b7
24
17
f0
de
01
d0
eb
44
e0
0e
0c
e7
ea
f7
1c
f3
1b
dd
ce
eb
fb
14
f5
d4
1d
15
05
0f
ef
b3
16
0a
be
dd
dd
23
0e
0a
fb
2a
e7
10
07
e8
e7
f2
f0
00
1e
10
dc
ef
fc
01
03
1b
e3
13
f8
20
16
e8
f4
f8
0e
19
0a
1d
db
2b
17
ea
17
fb
fd
f5
ec
d7
24
3d
f1
1d
1b
d9
13
1f
fc
f0
fd
23
12
fa
09
fe
08
1b
f4
e1
0e
0d
f4
32
01
fc
28
20
0e
f8
e7
07
fa
12
10
07
f9
25
ef
e2
25
d4
16
29
0e
de
e8
d9
fc
e0
ea
cf
2d
d0
12
fe
00
08
1a
04
15
df
e7
1b
cc
ce
26
08
1b
37
09
ee
f8
e7
16
24
27
fa
ee
2b
22
fb
10
fc
09
11
02
cb
ef
e4
02
e9
e3
f9
ea
e8
eb
cf
f8
0e
0a
b1
0d
00
f2
19
e8
fb
06
17
df
f9
14
06
1b
01
f1
e9
fd
29
e5
25
e2
c8
ea
fa
fd
25
e0
3a
19
06
18
e4
fb
d3
0e
dd
fa
e6
f7
e8
09
02
44
e3
53
26
ef
21
1a
05
0d
00
1d
10
ff
f9
fc
08
20
08
18
0d
2d
21
df
44
11
f5
f7
ef
20
fe
15
e2
44
ff
2d
05
0b
e9
04
e0
22
0e
eb
d1
00
17
24
f2
fe
f2
ff
15
ef
f6
08
02
dd
06
15
0a
ff
eb
ee
df
13
d6
ce
10
eb
d0
f3
f3
21
13
2e
07
c2
f7
39
09
19
fc
07
1e
3c
14
11
0e
0f
ec
ec
03
e7
15
05
fb
d5
1c
db
f8
f2
fd
00
ce
ff
da
01
32
07
00
09
e9
02
0c
ca
04
fb
1d
05
1d
dc
15
f6
fe
17
02
05
10
07
05
c0
13
29
25
1f
0f
38
d6
c5
04
0a
eb
24
09
f7
e8
21
09
01
1e
f7
43
17
12
ef
03
f5
ff
ee
f7
06
1c
f2
e5
51
ff
f3
12
0e
1e
22
0f
1a
d1
f9
1d
11
25
ef
23
cf
fd
f7
c8
07
15
f7
1c
0a
0b
f8
d8
05
00
d9
1a
fe
25
01
30
f7
19
07
61
ee
20
d8
16
f7
0c
fa
1a
13
f8
1d
eb
04
d9
1c
27
08
dd
07
0d
f5
12
05
da
0a
14
2c
11
fe
ed
fb
2c
e8
1d
16
16
ef
c2
cf
e5
04
1f
f0
f9
f1
00
09
32
1f
0a
16
03
fd
e7
f7
10
f5
f0
e8
f9
f9
fd
f0
e6
f3
f7
03
2d
00
10
f5
0b
09
dd
16
01
08
11
23
fd
d1
fb
ec
01
08
0e
e1
14
2d
3a
f4
4b
1f
fc
d6
ea
01
29
39
ff
da
14
0d
23
e9
07
2e
02
00
18
30
f6
d0
f0
10
db
cd
05
fb
03
29
fd
f8
42
05
c3
e4
0c
27
d7
e7
d3
0a
06
03
f1
e2
0a
1a
db
f3
d8
f5
04
d3
26
f2
ed
29
06
33
2d
1a
f6
f2
db
1b
f4
03
fe
0b
33
ec
30
ef
f4
18
2b
37
12
0c
f0
05
00
1b
f8
1e
12
13
24
fe
e9
30
3a
cf
0b
f8
02
41
0a
e6
14
15
03
10
1f
16
dc
30
03
1e
f6
c8
d8
c7
3b
a6
44
0d
0d
34
11
14
db
00
ee
22
ed
f7
17
f4
2d
f7
39
32
02
1b
1e
05
1a
f9
05
de
32
d7
0e
ff
03
18
db
0a
cb
12
04
ef
f2
fa
ad
1e
10
f9
14
0a
22
06
2c
fb
08
ed
32
09
f7
f4
05
fe
2a
f7
22
2c
02
e7
bf
fa
3f
cb
fb
04
1a
fa
3b
02
f9
12
dd
e4
00
30
e9
06
27
12
11
09
bb
df
f8
eb
ec
ed
eb
0e
f9
d0
03
e7
28
3c
3e
13
db
ff
e1
11
fc
53
2b
24
0e
10
e0
fb
21
03
e4
e0
21
08
3e
d6
f2
21
01
42
3d
fb
f7
ef
d3
0a
1f
19
ea
f8
07
1d
fa
1b
e1
e2
02
01
a0
fb
2a
e9
2a
d4
fd
fa
ef
ed
fe
0c
e2
00
33
13
db
11
de
01
fb
2a
11
e9
28
28
0d
f2
0c
cc
ff
fe
12
e7
f8
05
43
fc
f9
ef
07
11
1f
1c
3c
15
f4
38
1c
26
12
06
cf
f5
0e
d6
1b
e7
15
05
fb
fe
f5
03
ce
db
d0
dc
11
12
ec
f6
eb
13
28
03
12
11
3c
fc
fa
3d
b8
f3
04
ff
e4
e7
44
16
ee
3a
06
1a
20
08
ed
e6
26
04
14
f1
f3
f4
c4
0c
e2
0f
0c
0a
14
dd
08
17
f8
0a
ee
f1
ef
e1
f3
24
f3
de
16
3e
d7
07
12
17
e4
f5
18
df
0c
04
c2
d6
df
13
05
cf
e4
d7
fe
0c
08
ed
e9
fa
1e
01
e9
08
e4
fa
13
07
0e
de
a5
de
14
e5
f2
05
ec
2f
10
0a
ee
de
cd
e8
fc
22
f5
f4
1a
09
de
0f
df
0f
19
17
d3
11
02
d9
1e
16
e0
f7
0c
0d
f4
f5
d4
ce
0f
04
d8
f7
f9
21
0c
38
2b
0d
01
08
fe
fc
d9
d0
2e
26
e4
bf
f6
1b
05
0d
04
18
1c
e4
e5
10
f8
10
d5
fd
0e
e0
0e
00
16
ea
16
0b
f2
24
18
e5
37
21
d2
10
eb
05
35
ea
05
25
05
f6
22
e6
e6
18
ee
1b
f0
04
15
f7
f9
42
e1
df
30
fe
f7
ca
2a
02
01
11
17
31
12
e1
ed
27
f4
19
1b
ec
e3
c9
c5
1c
0c
2f
fc
de
f5
06
1d
cf
d5
0d
06
f4
fe
ee
0d
f8
02
18
1a
0b
05
f9
1a
01
fc
ed
f8
01
ae
fc
d7
10
20
f1
11
eb
01
ff
f0
f1
16
e4
0b
fb
0c
f6
44
fd
21
eb
cb
e6
07
e8
c9
0b
22
ee
f1
2b
ff
ff
22
fa
fe
f2
f5
01
e3
b8
11
fb
e5
16
05
01
dd
03
f7
f8
38
e0
07
37
de
db
f7
e1
f3
01
f8
06
fb
28
f8
e1
13
fe
00
37
de
f0
14
d2
fc
22
20
24
1c
ff
05
e3
c7
ef
2c
03
fa
35
13
e6
e8
c7
e1
16
2a
00
0a
06
e9
0a
16
f7
0e
0c
f6
23
e4
f6
ee
c6
d5
f2
0b
f4
e1
29
1b
fb
f6
fd
03
ed
0a
f6
02
06
f2
09
f2
d9
fe
4e
0e
02
fb
4d
05
23
ef
df
02
f3
fc
de
ce
2e
1d
c3
fb
fa
09
1c
d6
24
e7
e2
f3
ff
ee
f5
25
07
d9
16
0b
08
f2
fa
18
e5
be
0e
08
20
be
13
f2
18
ef
1a
4c
f5
06
10
0f
24
01
2c
e1
1a
fa
13
f1
f6
f6
21
ff
ca
e4
09
f3
26
14
13
df
f6
d9
dd
10
03
ef
0e
d0
ef
14
15
fd
d9
e2
11
b0
ee
fa
0e
e5
db
18
1c
0b
0d
ee
db
18
29
0b
07
03
10
1e
1d
3b
f9
2a
0a
fa
cb
d9
00
14
e1
f0
f7
d0
16
12
f9
f8
00
e3
03
19
e3
f2
e7
dc
07
06
f5
1e
ff
06
dc
fb
06
e6
fa
e2
ec
dd
ab
e1
f8
fa
df
2c
ef
ef
fa
23
f2
e9
dd
e5
d4
12
d5
fd
f3
2b
f5
35
39
f5
e0
1e
02
08
f4
00
08
f6
29
06
2d
02
dd
02
e9
06
f1
e9
21
fd
08
f5
05
e5
0f
22
02
eb
12
ff
a9
04
0a
d3
e5
0d
05
ff
f3
0c
0f
e9
02
e5
17
df
1f
f8
1f
d9
d2
04
14
c9
ff
ca
f8
25
11
fc
2c
e5
11
09
e9
f1
c7
05
15
fb
14
fe
1f
e8
f5
07
0b
f2
e9
0e
af
e7
f5
f6
1c
ef
05
20
12
08
18
d6
f4
1c
f1
0c
e8
d9
f8
e5
0f
25
e9
bd
3f
1d
fb
f5
03
13
fe
f7
24
ed
e9
ca
f9
04
e9
ef
ef
df
ef
1b
dd
f7
f8
15
df
39
eb
06
0e
02
0e
0b
f1
f2
de
f8
07
f1
f4
11
2b
e2
1b
f0
f7
e5
46
1f
e7
eb
15
22
d7
e8
28
d2
f8
ea
fb
d4
ed
02
ce
e8
16
e9
27
fb
fd
18
00
db
38
05
ec
fa
18
02
08
fe
17
fe
fd
1b
ee
e9
08
d7
29
1f
25
cd
df
30
db
e8
0f
fb
e6
1b
f5
17
14
13
42
fd
00
f2
34
10
0c
d7
f2
00
0c
ff
e7
19
16
14
17
04
0b
18
15
14
0a
fa
fc
d4
ef
13
14
ef
06
26
0b
34
db
dc
fc
4f
30
c1
df
f1
3c
e4
29
ea
db
f5
f5
29
12
f8
d4
11
ed
f1
04
15
1f
24
f2
1a
f0
49
0f
39
fa
f6
0e
2b
2f
d4
13
00
f0
00
09
ee
0b
07
f7
2a
e7
2b
ca
fd
01
fb
11
09
19
02
0c
07
12
0e
06
3e
ef
0e
c5
17
fa
02
06
19
f2
f8
1a
d7
e6
09
3a
e3
07
12
31
00
12
05
1e
ba
1e
1f
df
17
d9
11
27
c3
2b
14
dc
c3
fa
3f
46
ec
1b
19
fa
dc
ea
f7
d4
4d
d7
db
15
03
03
c6
e6
2e
04
17
ec
1e
ff
eb
01
e3
21
f6
0e
0c
fc
0d
28
fc
ff
00
1e
05
06
14
ef
02
14
15
13
f8
f0
df
07
d5
14
ef
08
11
33
40
e6
d4
2d
36
14
f7
26
36
e6
30
fe
1f
fc
ce
fc
e2
f2
ec
04
da
0d
dd
1e
f1
00
d8
e5
e7
fb
1e
f7
1e
e8
f2
d8
07
ce
22
28
eb
04
0a
bb
ed
0c
fb
f3
2b
28
0e
0b
05
03
cf
11
12
0b
23
16
1c
fe
1a
fe
11
f2
fe
f3
e7
10
d6
bf
07
f2
d9
01
e5
17
07
1d
19
eb
e7
29
f0
da
01
09
eb
c5
e0
0b
e2
0e
f9
0c
23
00
da
ef
13
03
15
02
08
d8
05
0a
e1
ef
09
2f
e9
11
f9
fa
f4
d7
07
1f
23
ba
dd
01
cc
ef
e9
30
2b
05
28
f8
f7
1e
f9
ef
e2
eb
f6
0b
f5
01
09
0a
23
e4
cb
fe
15
f8
c5
18
ff
bb
10
f1
f8
f0
13
e6
e7
d8
f9
fb
da
0a
07
f1
0c
06
2b
00
f1
07
fb
f5
d1
e8
23
2a
17
e6
14
08
fa
fe
0d
26
1c
e5
00
03
eb
0b
05
ea
c7
f8
dd
1f
ee
26
02
f5
1f
04
fd
01
22
f3
fa
10
ff
f3
1a
fb
f4
e5
d5
ca
ff
fd
f2
1e
34
d7
12
e2
0c
fa
27
de
4c
fd
00
1f
e1
27
f4
0d
16
14
04
2b
da
30
1d
f2
07
f2
3f
f1
17
de
dc
0c
0f
1e
04
29
f7
10
fc
04
e7
25
16
0a
ee
f5
ff
10
16
13
d5
12
d4
f9
cf
04
ee
ee
00
fa
f8
fc
f5
12
25
1b
03
00
17
e2
f8
17
2c
1e
f4
e2
f7
16
07
08
fe
da
1a
1b
f5
d1
33
ea
2a
f1
ce
16
f0
11
02
ff
eb
ef
31
fe
09
ec
1b
f5
e0
cf
e4
e6
ef
06
fd
0f
fe
e5
3f
e3
d9
ef
27
f4
0f
0b
eb
e2
f5
17
d6
20
0c
17
09
f9
db
0f
0b
d7
ed
05
fc
00
15
e8
f2
16
16
fa
10
14
2c
15
15
f8
f2
01
04
0a
f8
b8
ca
e7
31
13
ed
3b
06
fd
20
f9
e2
e9
05
27
2d
ee
4d
f2
f5
f3
20
d9
2b
fe
f4
14
11
ec
e3
e5
e8
13
f8
1b
0f
01
f5
09
01
17
cf
d7
f4
e9
09
0e
22
10
30
ea
d6
01
c7
12
2b
1f
25
08
07
1b
23
1d
fa
ee
1c
01
06
27
2f
f8
16
23
e8
ec
e9
f9
fa
14
10
e9
fe
c8
20
29
49
e8
ed
32
eb
ef
05
fe
d6
c9
d1
d9
e6
fb
f9
ef
05
0d
ee
04
fc
29
eb
dc
0e
00
1f
d0
ff
11
d6
00
1d
02
08
f8
e8
ec
ce
f0
f7
d5
f7
07
fb
1f
ff
05
0d
03
03
f0
fe
21
ff
e3
df
e6
21
f9
d0
f5
cc
17
f1
0e
03
f5
ef
d1
15
01
fe
04
0c
ca
ea
24
03
36
f5
04
e3
31
10
f6
0d
15
03
30
08
fd
cd
09
d6
24
f6
0a
ef
04
ad
c8
fc
ea
06
29
13
09
d4
c0
cd
07
0c
17
0e
09
14
f6
0b
f5
26
15
d6
0f
05
da
fd
15
05
06
da
e9
fd
3d
00
d6
ff
f0
11
dd
fd
0b
2a
06
e6
ed
fc
01
e6
03
c5
ef
1b
fe
d6
07
f4
22
0c
1c
ea
21
fa
fc
15
fc
ee
dd
30
25
29
35
e7
25
07
18
0c
17
e0
f7
f9
d3
25
13
32
ff
fb
b9
f6
f0
ea
de
01
0a
ce
e9
df
03
ff
f1
10
09
fd
e4
eb
fc
12
fa
05
0a
de
f1
17
c0
e9
eb
17
d3
17
d5
12
d4
1e
2f
1c
ef
e6
dd
cb
1c
16
0e
ea
fa
06
ce
22
d2
09
f0
f1
02
1c
04
09
30
22
f3
d0
c3
2e
f0
f0
f4
25
c6
47
f0
e8
03
2e
24
d4
07
f0
04
d3
0f
17
f5
3f
fe
0f
fc
e0
df
36
29
0d
f2
f9
1c
16
dc
0a
e8
15
f8
ea
d9
f9
e8
d8
18
97
17
00
07
df
0f
f2
fa
04
08
1a
f2
16
13
18
e8
12
e4
04
27
10
d7
c7
fa
e8
36
18
22
f2
23
19
00
ea
e5
24
0f
1d
26
27
d3
e8
e7
55
03
24
cf
01
0a
11
20
f8
1e
00
f3
25
1c
ff
04
09
17
1e
16
20
0c
21
14
e1
19
d9
f1
1f
1a
4a
f5
03
d7
ec
f0
40
2b
0b
01
04
0c
04
e2
19
ff
1a
1f
c8
ec
09
f7
0d
2c
20
ee
e4
09
20
0b
10
f9
e9
ea
2d
ea
e3
0e
0a
ea
01
01
dc
f3
e7
45
fa
09
e9
df
f7
03
24
e5
f1
12
ff
25
12
1f
d3
e0
ca
cd
20
e9
10
fa
d7
f3
00
0c
30
dd
0b
23
1e
01
f3
e7
e3
f8
0b
28
23
ed
f0
ef
fa
f8
03
2b
f1
13
db
2c
03
ee
e0
d9
12
22
f3
47
01
e8
29
1b
01
e2
0a
d1
13
ed
fe
1c
ff
e3
19
1a
ed
11
ee
e7
ad
08
2a
02
0f
2f
f5
0c
31
f8
16
0b
0e
fc
f7
f1
13
46
f9
fd
f3
27
e5
27
c7
fa
da
01
0c
ea
17
06
37
c9
f8
e4
14
08
e7
f8
08
0c
fc
f9
f5
15
19
09
e0
e1
0c
33
08
f1
0a
dd
e8
e2
32
e3
fd
01
fb
f5
3a
0d
e9
07
d6
e2
e8
26
f1
da
ea
fa
1d
28
fc
ee
03
12
30
f0
e9
e1
ee
ff
e0
c9
19
0a
f0
e2
db
de
fb
09
0a
c1
e4
f4
ee
04
20
c6
17
e4
06
08
05
eb
e5
1f
03
0a
fd
f7
e7
e3
ef
e4
1e
b4
fb
fc
03
11
de
d3
d3
ee
eb
f7
c6
d6
ea
f2
dd
12
02
14
e7
ef
11
32
0e
e6
24
ce
18
f3
cc
c6
de
f8
1f
e0
da
fd
fa
03
03
de
2b
2b
19
03
0e
e0
13
de
f6
fb
ed
f4
d2
14
0e
45
39
02
1b
0f
f5
f9
4a
16
14
f6
fb
01
ff
e0
c3
ce
e4
30
e5
d6
3a
fe
ec
de
2d
03
05
b2
14
e4
40
ec
cb
fb
e6
36
eb
03
33
15
fb
15
0d
ec
28
34
31
f6
06
01
1e
01
16
fc
09
11
f6
3f
18
f1
d3
20
d6
12
16
f6
1d
0b
1d
17
ed
fb
fa
d4
1f
f3
01
f0
e8
ec
f2
fb
07
ed
f5
2d
d4
21
c1
0d
d8
05
ef
15
e0
23
14
22
26
02
df
0e
f8
37
e1
36
e5
23
ef
3a
07
f4
06
03
fa
1d
f9
f6
ff
11
01
2c
0d
ce
fb
ef
fb
0f
fd
fe
1b
10
0e
00
03
09
ef
c7
2b
06
17
cc
0d
15
33
fa
07
0b
d7
cd
10
d7
07
fd
0a
00
e1
f0
f0
c8
1f
e0
d8
0d
11
e8
0f
2c
0f
f4
df
00
f7
21
09
dd
15
10
f9
e2
02
1e
19
24
09
ff
ff
da
13
0a
22
0c
e0
1f
0b
0e
fe
06
e8
c7
0e
fb
c7
24
05
f3
1f
13
0e
cc
df
2b
0a
0e
14
e9
08
ef
2c
14
2a
48
12
ea
05
51
fb
03
2e
0f
1c
f5
ef
e3
fe
09
22
1a
1a
36
20
0b
ef
f9
ea
25
25
14
36
1a
d9
26
0f
f5
ee
af
19
1f
1a
d8
13
20
f7
00
c7
0a
f1
fa
db
f2
1f
16
0f
0a
0f
f1
18
22
ee
32
00
f3
39
0e
eb
ec
eb
e2
ed
00
08
f7
fc
f7
d6
03
23
01
0d
d8
ff
12
05
ff
01
3e
13
e9
d6
1f
df
ec
e1
19
c7
01
27
eb
15
f0
e8
03
00
f0
2c
fc
f3
37
b9
dd
b0
11
11
fe
01
05
e4
d1
09
f3
ee
e4
f5
13
2a
e6
08
d7
ea
09
10
26
24
06
10
ff
f2
22
d7
18
08
b3
26
fc
ee
bf
d4
26
0a
0d
c5
ee
19
db
03
f8
01
07
dd
46
e9
b2
f7
fa
0f
28
0d
cc
e2
0c
33
f0
d3
ea
11
27
1a
2f
fc
0e
01
11
08
13
fc
20
11
00
ec
32
d5
f1
fd
ee
fc
e6
2e
17
0e
2c
02
01
23
23
eb
15
0b
18
10
f6
02
fa
d3
01
fb
33
35
d7
d0
c3
f1
00
28
06
fc
fe
fd
e7
e5
c5
e9
0e
fd
d8
fc
ed
00
fd
23
04
cc
e0
c9
1e
db
50
f8
2e
20
e2
f8
ff
fd
cf
2b
07
f2
ee
ed
eb
11
07
d9
e6
40
23
f1
19
f6
f4
2b
f7
06
d0
bf
1a
cd
1a
01
29
12
c8
ee
dc
18
17
dc
d0
f4
03
e8
12
dd
15
d6
23
fa
24
01
e5
06
19
f4
19
23
35
ff
10
28
11
0c
22
09
0c
07
d9
16
f2
24
ed
ff
1b
09
d1
fd
e6
f8
c8
02
20
e2
16
16
da
38
4a
21
e1
ff
f9
0d
e5
13
ef
12
f3
26
f5
2e
fe
1b
f4
fe
ec
f4
f9
f1
01
04
ff
26
eb
fc
f0
0b
f6
11
0b
05
12
f3
e6
f5
1e
20
05
19
16
fd
f5
d1
d7
fd
1e
1b
f1
03
fb
f9
fc
0f
00
f4
e8
05
e2
32
f0
04
3d
06
0f
14
ff
0f
0e
ed
1c
da
44
cb
0b
07
08
00
1a
16
29
36
16
dd
fb
f8
d9
d6
d5
bd
2a
35
1f
fd
01
00
fe
0d
0c
47
1a
de
c1
f5
f8
00
d9
e1
01
03
08
03
01
e5
3a
22
de
fc
f3
fe
15
f9
2a
29
ca
f6
d0
02
06
dc
07
f0
fc
0f
d6
0c
f9
f7
d5
f6
05
fd
e6
f2
01
bd
1d
e9
ef
08
ef
07
fd
09
10
e6
01
d8
d5
1e
eb
27
11
0b
e5
1b
e2
d4
fe
e6
e0
01
f7
11
1a
f6
05
bb
14
f1
ce
f6
02
0f
0f
18
b6
ed
c8
15
eb
c9
1f
13
0e
0a
f6
e3
f0
ac
f6
2c
f0
12
f4
f2
f2
f5
e5
0d
16
e6
e6
37
00
ff
de
e6
21
f0
19
1a
f6
d7
eb
07
06
ff
09
2d
fd
0a
03
30
c6
c3
f0
e4
e8
21
f7
1d
e6
15
e9
ec
06
fd
ea
d8
12
df
f7
fa
fa
f9
d3
1e
fa
f5
27
f7
fd
ef
cf
0a
16
f2
09
34
dc
c8
06
10
f5
08
f1
06
f6
fd
3f
ff
0c
eb
e9
eb
fc
2b
f1
f4
2f
e0
e6
e1
1a
01
00
1f
21
f5
11
16
10
ed
ee
fe
fb
f9
0d
ce
e6
e0
e6
f9
01
e4
ec
0b
f8
26
f2
12
09
dc
db
f3
ca
f6
e7
03
1f
ed
1f
d4
e9
f1
34
dc
f5
e8
24
00
e0
fe
22
cd
0e
03
e2
07
18
f6
3c
14
38
34
1b
cd
20
12
30
07
c4
23
fc
17
20
f9
e0
ef
fa
fa
e2
ff
22
28
eb
f6
fb
e4
f9
f7
fc
ce
01
e4
31
e9
ef
d5
0b
c2
e4
28
dd
05
e8
15
2e
13
ec
0d
f0
e8
ed
09
08
22
2c
fa
f9
ea
e7
15
f9
07
f2
0f
a2
07
e5
18
f3
04
04
d9
02
eb
31
1a
ff
12
de
d9
0b
f0
fb
0e
09
fc
fc
29
06
e5
0f
bb
15
e7
1b
21
19
20
12
27
13
d3
ee
f9
fa
2a
f4
f5
e7
1d
09
ea
26
bc
16
e4
0c
02
f2
1c
f9
00
08
ce
0a
fe
f3
0f
2b
f7
eb
09
fe
14
12
1d
e7
3b
df
ec
d5
18
12
da
0f
c9
fd
d4
fb
31
30
05
f3
eb
0b
fd
fd
fa
05
22
e7
0b
f9
12
ed
e1
1d
ef
d5
31
d9
0f
26
f8
dd
f9
f3
cd
1d
08
d5
fc
06
f8
fc
12
d9
fb
19
e9
b8
0b
07
f4
ab
c7
ee
dc
4d
fe
fd
cc
e9
df
14
04
01
fb
31
e2
25
fd
fa
19
2e
eb
de
0f
d5
d0
e4
e0
1a
38
e0
03
dd
df
14
33
ed
0b
12
f9
e9
f7
ed
07
23
16
1b
08
d6
0f
20
3b
14
f1
f3
ee
17
f9
d6
eb
12
d5
19
cc
0d
06
e2
19
28
15
06
ed
e1
07
01
db
04
25
dc
4d
db
e6
2d
07
f4
f1
31
e3
14
ee
f7
27
18
0e
5d
fa
06
e8
00
09
00
35
cf
e6
cc
d3
07
01
1d
10
ae
38
db
f8
de
c3
14
0c
d4
de
14
cf
03
f6
1e
15
ee
27
02
1b
f2
f7
29
08
33
fb
49
fc
0c
0b
e1
d5
0a
13
0f
da
0d
14
18
e9
00
d9
ef
11
f3
f9
f4
20
de
df
d5
c4
ec
15
0e
fc
21
d6
0b
f4
0b
eb
0e
dd
00
c9
fa
ef
03
e0
e9
b0
14
e2
f0
16
04
e5
f4
fa
de
05
17
ff
02
02
f8
e5
f2
18
f9
11
f6
e0
ea
fd
0b
d3
10
53
f1
3d
09
30
fc
e4
d8
fe
1b
00
0f
0b
0a
03
2e
28
e6
d5
0b
e4
fd
d1
11
2b
b8
1c
07
fa
06
fd
fb
f2
fa
37
11
fc
e5
db
02
42
05
28
21
f7
ef
f6
0b
0e
d6
ec
28
05
18
19
f1
d0
0e
f7
dc
21
16
f7
f8
e6
df
fc
eb
f0
06
0e
02
04
f1
d5
f0
ec
2c
25
e8
f6
fa
11
f3
f7
16
02
35
02
eb
02
19
f3
e6
2a
09
d2
e4
fe
15
01
1f
da
05
15
f4
1a
ee
1e
06
1f
24
d2
e8
e1
15
13
03
12
ec
dc
fe
0f
ed
1c
f7
f6
0a
fc
14
38
d2
0e
04
09
f6
04
d6
13
fd
02
00
17
04
1a
ea
d5
ff
35
e2
d5
e8
08
de
ff
02
ea
bc
0f
07
18
08
e2
0f
db
1e
00
ff
f1
28
11
ec
0b
e5
f9
d4
07
f4
ed
e4
2d
16
07
2f
0f
0d
0e
39
ff
11
12
fe
25
10
25
db
f5
eb
06
f1
f4
fb
18
e7
16
0f
0b
f0
f7
b6
05
ee
10
26
35
e7
08
ea
f7
ca
2e
06
00
f4
03
24
0c
19
f4
02
0e
fe
0a
19
10
d4
1e
f9
2a
e8
e1
ef
c5
fc
fe
03
db
3f
f0
04
e9
e6
0f
d5
c8
ea
f5
dc
05
1a
17
ba
15
16
02
d7
03
01
d4
e9
fa
17
26
f2
0a
08
fa
fb
ff
32
fb
24
2a
d7
22
0a
e6
e6
ea
de
fc
0a
03
f0
09
04
df
09
d8
f7
01
0f
ee
3e
37
21
2a
00
d3
cb
f4
00
da
bf
df
e3
fb
fa
20
1c
fc
0c
f8
cf
16
15
f7
04
16
fe
cc
07
22
21
fd
05
1a
f4
e3
13
ff
06
36
ca
fb
df
fe
e9
32
f5
d2
04
ee
1a
10
10
1b
08
e3
13
07
0e
f0
c3
13
f9
29
da
41
e1
04
fc
11
0d
fc
15
f5
09
1c
e5
a8
37
fc
13
d2
2a
09
0e
c1
14
dd
30
02
0d
e5
d6
ff
2b
25
fc
f7
15
0b
d0
0f
d8
1d
cb
00
16
e7
dc
01
e9
07
0f
da
05
cf
e7
ed
ee
e3
0a
1c
0f
f2
04
29
ff
10
ea
04
04
16
20
32
fe
23
16
dd
fa
10
10
f4
1a
ea
f8
23
0f
00
17
f3
04
dd
25
f4
d9
0a
e9
08
00
1d
29
e7
ec
d0
34
f6
ca
0b
0d
eb
05
fc
13
fe
08
2d
ec
3c
06
11
06
10
03
ec
f8
ea
d7
f4
e7
fe
f2
10
2a
c7
27
00
fa
f3
08
16
f4
0a
33
09
ff
eb
39
06
16
f9
01
3d
04
c9
15
ea
1c
fa
d5
12
07
01
ec
18
05
d2
03
ec
fd
e2
16
e8
04
06
ff
ec
31
0f
ee
fa
00
27
ba
14
14
20
f6
11
ee
1c
e7
02
31
da
f6
26
1f
09
23
1b
22
e8
ce
23
0c
d9
21
dd
ff
f4
02
3b
11
14
e4
f1
09
df
f1
2f
dd
02
4f
e9
37
e8
0d
1e
21
d7
13
16
e7
dc
08
08
02
e8
16
f4
0a
0e
24
0f
b8
1c
03
d7
e9
f7
4c
fb
20
11
01
cf
fa
ff
e8
1a
fe
14
d8
f8
cb
14
01
ed
f5
10
fe
f1
02
fc
06
02
07
ea
fa
f7
19
00
42
fb
43
04
fb
0c
fd
fc
fe
09
fd
0d
00
19
fa
06
17
e2
f6
ec
e0
e9
de
12
ed
f9
20
1f
05
dc
03
f0
25
ee
ff
d8
db
07
d3
e2
d8
12
1e
dd
32
12
0d
21
10
2d
f4
50
14
13
f9
fa
06
0b
ef
15
e3
05
07
13
38
e8
d1
f3
ff
df
e9
e4
03
00
04
f8
e2
24
04
20
fc
26
f7
f5
f1
3e
f6
05
f0
ee
0e
07
06
f6
dd
fa
2a
d9
f1
b2
25
08
3e
e2
e9
08
e5
e7
37
fa
e6
da
eb
d0
f9
07
e6
db
fe
d5
0a
f2
24
cb
f8
1b
f7
f6
f7
23
f7
01
02
f0
19
e8
17
12
17
16
01
09
1f
0c
0e
2c
0d
24
0a
0f
04
e6
fe
fa
19
eb
22
0d
f5
fc
21
25
11
26
12
cd
f1
cb
e8
13
07
fd
db
e2
25
11
0d
21
0a
e0
da
ea
00
f4
0d
1b
11
1f
07
f6
fa
08
19
f5
09
1f
f6
11
ac
1f
df
f2
12
e1
1a
de
12
21
f4
f4
1f
fa
22
fa
f4
29
cd
32
fa
07
1b
0d
22
e4
05
1f
04
04
15
25
f1
13
1c
c9
fd
e0
10
1a
36
e4
1c
f0
20
20
ee
f2
0b
1e
dc
f7
46
fb
04
0b
0f
ed
fb
c9
3e
e0
f9
1c
ef
2c
df
eb
e5
cb
d1
e5
16
1e
d2
ef
ef
1d
cb
03
ed
04
ea
e5
c6
05
1a
37
fa
f5
01
e9
f9
0b
d3
31
e7
d4
ce
eb
de
02
15
06
1d
e8
11
14
f8
ff
21
2f
08
0a
01
d9
18
ff
fa
ec
dc
fc
fb
0f
14
03
15
06
f6
20
e7
f1
cf
24
d4
15
c5
e0
dd
d4
e5
f4
d3
15
dc
1b
1b
2d
19
de
18
fb
2b
d4
fd
11
fe
ca
1a
09
e1
0a
fa
f7
07
13
25
0f
e3
0b
fe
04
de
34
02
ef
07
0d
f4
03
33
f9
f7
db
34
e9
0c
2a
c9
0e
fa
1e
02
35
ee
19
f9
0b
04
17
10
2a
ed
ec
0e
e0
dc
f6
fa
05
c3
ff
00
eb
ee
e7
12
06
f1
ee
d6
07
c5
13
1f
f2
10
35
05
12
12
02
fc
e1
e4
1c
dc
f7
0d
01
eb
12
f3
e3
02
12
fb
cf
1f
f9
24
ee
f1
d9
0f
c5
36
ee
bf
e0
0b
fa
f5
31
f6
0d
12
b8
f5
02
fb
01
fc
1d
2d
cd
08
06
03
27
de
f1
f1
d8
0a
e6
00
2d
e7
f8
f0
06
19
04
e1
12
01
1a
21
0f
20
31
e4
f1
f7
e6
10
fa
e6
d5
04
ec
1f
09
d3
09
f7
13
f7
fa
f7
03
dc
22
e3
1c
2e
e7
eb
0d
19
fb
f7
05
15
06
f8
03
f9
b2
c4
ec
f9
1b
e9
ff
0b
f4
1e
2f
fb
04
0c
01
ef
ea
ca
10
ea
e7
08
f5
28
45
19
1a
df
f5
e4
16
f5
05
e6
ef
00
01
e5
ca
33
f9
1e
e6
f0
07
f9
0b
4e
e8
f8
fc
06
f8
3b
f4
e4
fa
e5
01
f8
fb
ed
fa
01
e5
bb
13
dc
dc
0c
31
07
f8
00
17
fc
f6
23
f7
f6
fd
20
ef
d8
1b
1d
1e
1f
e8
04
e4
02
d6
08
0b
fa
1e
01
3d
d5
f7
26
11
f5
ff
f7
0a
24
f8
fb
f2
d4
09
fb
0d
fa
16
fc
01
07
22
14
ef
3d
dd
f1
26
1a
e1
de
07
26
41
32
12
c8
ea
f0
08
1a
fb
08
e6
21
1b
48
2c
0e
0c
dd
fa
eb
41
23
e8
10
0f
2d
2b
09
37
e9
fc
15
02
1f
16
ec
f7
50
e9
f4
f8
cf
f1
eb
1d
d6
f0
02
f4
ec
fd
f8
18
16
03
f5
0a
26
f8
e0
13
e8
04
08
dd
e9
fe
15
1f
18
20
39
11
b9
1c
e0
f6
ee
17
fd
2b
04
03
13
20
dc
fe
c6
01
f5
ea
f6
f0
14
3e
f6
10
d4
01
2b
29
06
06
f3
f0
fb
1d
22
2c
f1
07
d4
3e
db
c9
0b
f6
e3
f0
bd
d8
f2
df
39
1c
33
1d
22
f0
fb
f8
03
fb
31
54
e3
e9
37
01
14
eb
f5
f8
f2
ed
01
f9
13
f7
24
27
dd
e6
c3
f4
07
0d
1f
05
16
0b
f1
08
e8
15
13
dc
06
27
0f
ed
d6
09
f0
e3
04
18
ff
10
05
ed
ff
e1
03
f8
31
13
fc
d9
ff
1d
01
1d
df
de
d5
e1
ec
04
dd
05
ec
0c
ed
cf
fa
01
e1
22
dd
01
e5
f2
e0
f9
13
19
f2
b9
f7
19
e4
e3
01
18
e8
09
ea
f0
53
e0
c8
16
0c
01
f7
29
c9
0d
3a
17
cf
1f
18
cb
39
25
e4
21
12
fe
dc
ea
f1
07
ea
11
ed
f3
d9
f7
18
02
e9
02
10
f4
09
ff
03
f3
fd
0c
f2
f5
2c
d1
21
04
fd
10
d4
e7
d6
ed
19
08
ee
36
f4
e5
e4
2e
ec
c7
19
fd
0e
fb
f4
26
d9
10
1b
34
dc
fb
e2
ec
eb
1e
12
18
f8
f1
08
16
ef
15
e2
19
e5
16
f5
26
29
f9
01
ce
f3
04
e2
00
21
1f
10
f8
f8
ed
fa
e1
e3
06
cf
dd
00
2a
f2
f9
e4
0a
d5
00
13
12
e9
cc
f0
f1
d0
2f
17
f5
e8
d5
34
09
f2
3c
e3
d1
dd
fd
d7
ed
e4
f8
db
fb
12
ff
0f
0c
04
ee
f2
ff
10
29
07
1b
ed
13
ce
17
2a
e4
d7
21
06
ee
de
08
e5
d3
15
e4
dd
00
d4
d2
14
f8
f7
09
ef
23
15
2e
dd
12
ef
ed
12
33
16
f8
2e
f7
ff
dc
00
f6
c6
30
f8
d3
fe
e6
d9
e8
a6
0c
f8
1b
e1
f3
ef
e6
f6
fc
09
1c
f6
d7
2a
d7
f9
0d
ee
27
d9
29
0e
29
fe
e4
f1
eb
e6
e7
19
1f
da
05
f9
c5
26
f2
ee
f7
30
24
f8
ff
fb
08
f1
d7
11
18
00
f6
f4
0d
fc
21
cf
26
33
ed
e8
f6
2f
eb
06
12
02
f7
d0
e9
0d
fb
f8
da
c9
04
ec
d2
05
ea
e9
eb
03
0e
04
fc
c6
eb
19
fc
f5
f6
f6
e9
f1
3e
18
02
da
e5
ff
fd
e7
0e
d8
eb
03
14
0c
0f
01
3e
11
0c
52
27
16
2a
10
ca
23
0e
04
f6
da
e3
e2
41
0f
ff
e9
fb
3e
28
fc
de
f9
e4
f8
09
d3
0d
0b
00
07
04
e9
0b
f0
1e
20
43
f3
25
09
03
fd
d5
ff
18
0b
f1
ee
08
cd
06
4b
c9
0d
b2
0a
37
e5
f8
21
27
1e
03
10
1f
ef
e7
18
f4
12
0a
08
df
cd
16
fa
0f
f3
c3
00
02
02
fe
ff
ef
09
f0
ec
26
16
32
24
17
ce
12
01
f4
ec
1f
01
0a
e5
03
df
30
d4
09
fb
fc
f7
ea
ec
06
d7
fc
fe
04
09
16
0d
e5
00
14
fd
2f
fc
16
0f
0a
dd
02
26
08
f5
04
ef
16
02
1b
eb
08
fe
02
28
13
dd
1b
f4
ef
02
02
f6
20
07
42
f1
d7
da
fe
f7
f3
da
1a
fc
e4
e1
e3
2c
0e
be
0e
f4
f9
0b
4d
f5
dd
0d
1a
00
ef
f6
04
12
bd
25
30
f2
ec
13
4b
03
f4
04
00
f1
f8
02
f4
2a
0b
e4
ea
53
d8
08
0b
93
ed
14
12
0e
f9
e2
d1
07
f7
00
00
19
f9
ea
fc
fa
05
0e
c9
f7
09
03
4c
d9
3d
fc
1f
e0
a9
e4
df
02
18
02
19
ff
00
f5
ce
17
fc
4b
0a
dd
f4
0c
0e
c2
0d
30
2d
f2
1c
0e
0d
b9
2a
05
f9
1d
f8
17
e2
16
cf
f3
e8
13
fa
e7
fb
09
00
f2
f5
1d
ed
fc
f3
d8
f7
ef
02
30
d5
fb
2b
f2
04
df
db
f3
02
f9
d7
19
f1
ea
44
da
13
16
0d
ef
27
16
0a
fa
13
ef
1a
52
0d
2d
19
ed
d3
ed
e0
1e
e9
16
d9
0a
11
d2
ff
09
ed
f0
ec
d9
1c
ec
06
03
ec
e5
d2
00
09
f2
fa
db
e9
e9
d1
d5
f8
00
13
fb
01
fa
e1
d0
0e
c9
00
40
11
0d
0c
13
17
ea
21
37
e7
22
1f
19
20
19
f6
24
e0
e7
15
e0
17
1a
1b
e2
0c
11
0f
27
bd
10
11
0c
1b
d6
05
e2
0b
e0
fd
03
48
fa
00
dc
01
34
f9
ef
ff
fe
43
d5
05
fb
f7
30
17
04
04
d0
eb
f6
f3
ff
02
ed
00
3a
1a
eb
07
14
0a
28
15
ed
08
c1
dc
d0
f1
e8
dc
24
f9
06
08
21
08
03
33
0e
18
37
22
08
1f
d7
1a
00
ff
fb
27
f5
d8
1d
0a
0b
f3
17
d8
dd
08
f2
21
ff
13
ee
09
04
f5
f8
02
e7
ea
f8
c0
1b
e7
ef
fd
ca
05
ee
05
0a
ff
0f
08
20
ef
e2
42
0c
f8
e4
eb
33
05
eb
03
18
f0
e0
e3
07
17
12
f5
fd
fa
25
22
e4
15
0e
00
ff
fd
18
18
10
12
1d
f9
22
f8
ea
eb
25
e6
f2
f0
08
37
2f
12
f4
19
12
18
f6
05
f1
0e
14
1b
2a
07
11
10
e1
04
dc
2c
05
e4
e1
01
d6
10
f3
b9
0e
18
09
0e
e1
ed
11
0d
d9
30
37
33
f0
06
05
17
c4
c8
10
ef
19
f7
12
f6
ea
0c
15
0e
02
1a
e0
c4
ea
20
f2
f3
db
df
ab
1b
de
e5
de
f1
01
e5
04
eb
19
00
d0
03
d9
1e
f9
0a
f7
f5
24
cb
0b
0c
f0
20
da
fa
17
f9
19
2b
ed
2a
e5
09
bc
fd
fd
d0
ea
00
fb
e8
0c
e9
f7
2a
e5
32
d3
f5
03
15
15
b7
e2
03
0d
c7
e3
02
33
ec
ef
19
f8
ff
01
23
f5
d9
cf
ec
36
28
10
f2
fa
98
f7
00
0d
01
ea
ce
3e
ef
05
06
e4
fb
ef
d7
09
c8
1b
f3
dc
15
fe
0a
15
ef
cc
06
e9
fb
d3
02
06
01
ef
0a
e8
cf
e7
da
03
ef
19
36
e2
fa
e2
d4
c8
09
f6
fa
de
0e
f0
0d
cd
dc
bf
ff
d2
0f
02
3a
df
ea
08
2d
f7
09
fd
e9
06
d5
e8
06
07
ef
e1
fd
e5
ec
03
05
42
01
1a
0c
ff
d7
f7
1b
0f
d5
d6
ee
e6
d8
11
e3
10
09
3f
13
00
19
f8
bc
e0
05
3c
dd
00
c7
0b
0e
1a
f5
15
23
e1
f2
39
f5
0a
30
1e
f1
c8
05
23
f7
0e
0a
29
13
ec
e7
15
1f
f6
29
fe
04
3a
12
f1
2d
09
05
f5
f4
ee
f4
12
eb
24
09
00
f1
ef
ce
08
22
f2
11
30
0a
13
e4
ff
df
11
02
f7
fb
c1
0e
e9
ed
05
ed
db
e4
20
fc
fe
fe
e4
fb
ce
04
e7
00
f8
fb
15
05
ee
19
21
17
f6
f9
04
f4
e7
1a
ea
f7
25
cb
1f
01
da
01
01
0c
fc
ef
fb
13
15
c1
49
d5
e1
f9
08
09
1c
d6
f9
0f
08
f2
29
fd
1c
36
ee
d9
fa
0b
db
19
f3
08
0c
f5
07
de
01
03
fc
e4
2d
cc
e9
10
01
f9
03
d7
11
11
d3
ff
03
ec
f8
05
f1
e6
d9
03
ec
43
00
2b
2d
e6
01
1a
f6
04
e5
47
17
ee
fd
34
12
ec
2f
fd
f1
e7
f4
c6
ff
ef
f6
e2
fe
19
03
22
04
fe
f9
11
e5
ec
ec
c8
ef
fc
22
11
cb
21
18
03
1e
02
16
06
e5
ec
d2
ea
2e
16
1f
e8
46
c6
d8
11
f0
da
e8
2c
04
cf
0e
e1
06
02
f2
42
cb
09
cf
f8
08
fb
d8
21
04
e9
15
fb
37
f4
0d
c3
eb
0c
e8
f3
ec
d2
df
c5
d0
eb
20
e4
fe
f1
06
e5
f2
e8
f4
1b
d9
ce
e3
4d
fc
d4
08
09
f6
ff
dc
ff
f9
0c
db
e9
ea
ef
df
cc
e4
05
23
f0
ca
cc
f8
fa
f7
fa
f9
0b
eb
f1
01
1f
02
16
f0
f6
f6
d0
e4
22
07
f7
e9
01
1f
fd
e9
0c
f7
dc
fc
25
17
03
e3
e9
08
df
2a
07
09
ef
f7
ed
dd
f1
3f
45
fd
18
fa
c1
10
dc
0e
04
f7
11
ec
fb
31
0d
0a
f4
e4
ce
07
10
d3
fc
14
fe
0e
d9
fb
02
f6
ff
f3
17
26
d4
f3
f5
0d
10
16
fc
19
31
cf
f1
e6
3a
e6
c8
db
1c
f1
ed
eb
29
e5
04
1e
05
b8
ea
f7
ff
d0
1b
db
06
20
ff
0c
08
e1
18
03
ec
c2
1c
ee
e3
fb
29
fb
26
cc
f5
f8
ff
f2
1a
05
0b
02
d6
14
0b
21
02
0b
05
05
aa
ff
14
fe
12
ff
e5
f6
0d
e8
f8
f9
09
ea
e9
11
7f
0f
fe
f6
f6
0e
fd
09
e1
28
ff
f7
f4
04
03
2b
07
f8
07
f5
15
04
1d
31
16
e9
0a
df
e8
15
f4
0b
04
11
06
11
ff
dd
01
dc
1a
dc
06
14
ea
0e
fa
18
eb
1b
33
0b
20
db
e0
fd
f9
f5
ec
ea
d0
15
f7
f1
36
d8
fa
ee
0d
f3
14
0a
12
e8
de
ea
06
f3
d9
c7
0c
23
17
20
ef
05
a5
27
fe
16
ce
08
06
01
fd
29
f9
0b
13
23
12
be
db
06
09
00
c9
0e
14
ef
f5
a9
f5
e9
e7
df
d6
d0
2b
e1
1d
f7
e9
f5
0d
c2
57
0f
fa
24
13
14
11
df
c7
d6
ec
05
fe
e9
1a
11
e5
fd
35
10
07
cc
15
ce
0c
fa
de
10
ec
d2
09
f6
f4
e8
dd
f2
05
40
05
14
fe
e8
24
e9
11
05
d5
33
fb
f2
ed
0a
e6
0b
01
2f
13
d4
e6
0c
ea
0a
12
05
c6
e5
03
03
1e
1d
e4
ea
30
01
06
23
e8
24
0c
e9
0b
04
0e
16
55
1b
0d
e4
2e
cf
0d
e3
fd
1b
ec
08
01
25
d1
05
fd
3c
15
09
02
0b
15
e5
00
f9
21
1e
d8
d6
18
14
ec
05
f0
0b
c2
e6
13
0e
ac
cb
ff
16
ce
05
0e
23
ed
f7
10
14
f9
0e
16
d8
1f
17
2f
16
11
0b
08
ed
05
da
f8
f2
36
e7
10
06
e3
3a
ea
d9
30
fc
00
17
0c
25
1d
2a
eb
4a
f0
e4
f4
3e
0d
0e
0a
05
e5
df
ce
ef
24
11
21
06
fd
dc
10
ef
00
26
fd
11
dc
f7
10
fb
d4
d6
01
0b
1f
0a
32
ef
0c
12
e5
e9
11
12
ca
0f
f4
f4
05
24
12
11
20
19
fc
0e
22
ee
2a
fe
01
ec
17
cd
c5
e8
ee
24
08
31
e4
09
27
ef
ab
fc
26
ec
ca
e4
37
fc
1b
be
0f
bb
fd
f3
11
16
ef
32
12
e1
e8
f6
27
00
00
da
1f
00
e2
11
f9
ca
16
07
20
14
02
04
f6
24
ea
ea
09
fe
0b
e8
2d
0f
17
4a
f8
e6
d8
ef
ed
05
23
0d
05
1a
0a
f0
f6
e3
db
cd
ec
1a
16
ed
f6
0b
f5
cd
f6
1f
0d
33
d0
27
f7
10
14
e7
d3
ff
cd
f0
00
0c
e5
03
d6
0f
04
fe
2a
ff
f0
fd
09
f0
07
20
b6
1b
ee
0c
0e
f6
df
fa
2d
f5
1d
d0
ed
02
f5
d1
ff
0f
04
fb
e5
ef
00
f6
09
f1
2b
ef
04
0e
29
e3
0b
22
10
d1
d8
da
e1
17
de
12
f0
1b
f9
01
37
2b
dc
07
ff
10
f8
f7
ed
32
f2
0a
d4
0a
fd
c8
fe
39
14
15
2e
14
d5
3a
fd
e4
13
10
0b
e5
fd
f4
0c
1f
07
f5
d4
30
fb
e9
19
05
19
f0
fd
0a
f5
ee
09
ee
2b
fa
eb
11
e0
e4
12
f5
0f
e2
19
f2
bf
1b
fa
f3
e6
f6
d5
00
e1
05
ed
0b
03
2b
f5
ee
26
fa
d4
ed
1f
20
e5
08
c5
fc
d2
1d
16
e9
d4
df
00
12
1b
0a
31
f5
f2
ec
19
e6
e1
34
12
f2
06
1d
01
e5
f4
e9
1a
10
1a
25
e3
fd
f2
06
fa
04
01
1f
fc
29
17
d0
f2
e2
03
f0
fd
04
f7
2a
00
dc
f7
f7
e2
11
e0
f1
fc
eb
e4
f1
e2
e6
22
1e
eb
fc
fc
f5
22
02
e0
21
01
ef
04
02
ea
fd
0d
10
c3
0f
fd
ff
03
40
0a
15
e9
ea
b2
e5
e1
06
20
ed
f9
f4
04
f1
24
23
0b
20
cf
eb
f9
ca
0d
fe
0b
25
35
3f
f0
3b
26
b7
f1
f6
1c
04
03
ce
03
22
f6
05
f7
f6
e3
10
1a
e2
f3
0e
e4
ea
24
e3
ff
dc
df
ce
18
f8
ff
fa
e1
cc
36
ed
2d
ee
1b
ef
3a
05
ec
01
f8
16
03
e1
f9
01
15
ee
1d
ba
4b
f3
15
fc
fd
32
18
1b
f1
14
f8
ff
d9
0f
c2
f5
f3
13
1d
13
ea
f1
13
ed
ea
1a
ea
1d
11
fd
16
f6
f1
18
d0
0e
e3
fb
2c
14
22
0a
d3
2f
f6
f9
ef
ef
ef
e5
b1
3b
30
e1
45
3d
17
fa
0d
01
f6
05
34
02
eb
04
c1
f4
08
0d
ec
e1
1f
f7
d8
2d
fe
0d
f9
fb
e0
fc
b4
e0
27
0f
f8
06
f7
ea
21
dc
da
e4
f8
0d
15
1e
22
19
0e
06
12
fb
e4
f0
f6
ed
fc
08
e2
dd
f0
18
e9
09
3d
01
16
ed
02
1e
c7
02
f4
16
09
f8
2c
f5
06
e8
ec
0a
22
de
03
df
1a
fc
02
19
32
ec
06
02
f5
64
b5
fb
e8
00
24
e6
18
fc
d5
0c
1c
f9
0f
df
0a
fb
06
f4
23
16
12
f0
fe
18
1a
1d
f3
e4
fc
da
2c
04
fa
34
d6
16
bb
dd
f9
33
1d
28
f7
ce
11
14
d4
1e
f3
04
07
29
e7
12
f8
01
0d
d1
1f
d7
f8
38
dd
02
ee
1e
fa
f3
04
02
f4
fa
10
e8
f9
01
06
13
c9
18
db
d5
e9
08
f7
23
fa
15
0c
f4
fb
13
3a
e8
18
05
04
f3
de
d6
21
f7
08
10
f8
32
1b
f5
f6
15
f3
21
1d
d2
1d
ed
2b
3a
0b
dd
27
ea
27
f8
07
ce
19
28
2c
ee
da
2d
25
e4
f1
12
25
10
03
ee
e7
ea
20
35
10
3c
15
1f
17
06
1f
bc
21
0b
e1
ef
04
ee
df
00
31
06
ef
01
1f
24
02
f7
46
0c
0d
13
06
b8
fa
df
13
17
cc
c7
ca
d1
f1
f5
0a
fc
15
e9
ff
d5
eb
03
f1
b4
0c
06
0c
e8
1d
10
05
17
16
fa
bc
14
3f
0d
f5
fb
d5
0e
19
df
0b
f9
ec
41
bc
2c
d6
ee
07
cd
ea
00
01
08
c7
06
e1
0f
0e
e6
03
f5
ea
d7
db
0d
eb
2f
04
f3
ea
f1
09
34
28
07
e2
0e
fa
21
f1
17
fe
0c
31
18
ea
13
d9
ee
15
16
ff
ec
11
de
e8
00
ec
bc
e4
01
1b
06
e7
f7
28
fd
f5
24
d9
f0
d8
d4
07
03
06
1b
c3
e8
13
f4
e2
0e
dd
f3
1e
dc
c3
09
16
03
fa
00
0a
00
2e
eb
10
54
ed
fe
f1
11
1d
e9
02
03
05
03
e1
04
25
e0
14
e4
18
fd
0a
0d
f9
d9
fa
de
f0
e6
fe
e8
1b
f6
31
de
06
ff
f5
0d
ef
c2
07
cd
f2
ee
21
f1
f5
ec
13
f5
ed
ec
f3
ea
e0
fc
b9
16
e2
f2
c6
36
e4
fd
06
11
0c
01
c7
e2
0b
14
29
16
e9
e7
10
f2
12
c1
16
1e
e5
fb
1d
26
27
00
e5
05
e3
1a
f4
15
d1
28
f1
ed
dc
01
0c
10
fe
1a
f5
2e
fb
fc
fe
f3
27
30
e5
e2
c9
0f
22
ee
17
e6
30
05
20
15
12
04
c8
f6
1b
06
fc
f5
1a
e4
e7
08
d3
f3
05
ef
2d
2d
d6
2e
00
e9
1f
0e
29
0a
19
09
e8
0d
1e
05
f7
ee
06
f1
02
f8
b8
06
2a
fc
ff
f1
15
14
13
0d
20
fe
27
0a
f3
eb
13
00
0c
0b
a4
16
fd
24
07
f1
05
26
ed
26
1e
05
e6
eb
27
05
ed
15
2b
d5
09
17
e7
f6
06
0a
20
02
e7
fe
e6
12
f3
27
d1
00
09
d8
12
f7
14
e3
fb
f7
0a
03
53
f9
07
fc
e9
02
0e
09
07
1a
f5
2b
fc
ef
20
03
0e
e8
ec
f7
18
e6
00
f4
31
20
08
18
01
0a
01
e6
20
15
e9
ff
02
fd
f4
0c
fa
0e
fe
05
f0
3b
06
ed
12
d1
0f
f0
0b
ff
fb
0a
e9
0c
e1
ec
e7
cb
19
25
2d
ee
3a
e4
2f
16
dc
02
24
1f
2b
ef
23
35
02
12
fb
15
f6
e7
10
f1
2d
ff
e0
fa
0e
f0
f3
07
f0
22
dd
17
e5
13
0b
23
0c
32
31
23
f2
ed
38
ec
f5
c5
cd
18
e1
f2
e8
e4
da
ef
f5
e7
f3
c0
ce
e3
e9
0e
0e
ff
0c
ce
f6
c9
03
06
fd
01
0c
23
10
0c
ff
04
e5
10
03
eb
39
09
f3
f5
12
d8
16
05
08
d5
0d
0b
f8
06
e8
4c
06
e3
1a
21
ec
0e
c2
0e
06
03
f7
e6
d7
24
33
e0
13
21
12
21
2b
15
04
fc
f3
01
f7
eb
1a
f9
e4
f4
f9
04
17
eb
de
01
1b
f2
1e
16
1b
10
f3
07
0e
c3
15
ea
3b
fd
01
d7
ef
fa
ed
09
04
f0
12
f6
e7
1a
fb
ea
f0
d5
e4
cd
07
02
d1
ed
fc
24
03
df
db
f9
06
e7
f5
ea
f6
dc
f9
e2
f9
d6
07
f5
fc
25
0f
06
0b
18
fa
e4
05
39
fc
09
04
07
15
e3
42
ef
24
3b
fb
33
05
0b
1f
ef
0b
0a
de
f6
f8
df
30
c5
00
b6
e3
02
0b
24
09
ff
e8
ff
f5
1e
e3
dc
15
f8
0e
fa
f2
1e
0d
e6
ed
da
f4
db
24
1f
cf
12
05
00
06
31
e1
d5
37
13
32
13
d9
e9
f9
3d
36
2b
18
d7
ea
0c
fa
f1
0e
ca
51
cd
ec
f7
15
f6
01
0a
02
15
1a
07
f2
f2
21
d6
0f
2b
dd
22
eb
f5
29
2d
2d
d5
ec
2a
2e
2f
e4
e2
0f
02
00
15
fe
04
0f
e3
1f
df
e4
f0
03
fe
0a
f5
f2
1c
e3
ed
ea
05
d0
e4
1c
fa
40
e4
f5
0c
25
0e
ca
f7
04
48
01
e6
fc
e4
f0
d8
ed
d6
c5
03
f2
25
f9
04
06
05
f8
fa
fe
14
02
11
d7
07
fd
f6
02
06
1d
f0
c6
e4
d5
f4
02
e5
f9
df
fd
f0
1a
29
00
2b
04
f2
ff
30
ec
1e
06
c2
f3
02
00
2b
18
fd
e5
01
fc
ee
d6
f2
26
e0
02
e0
e1
07
0c
fe
2f
0d
fc
f6
12
ff
0d
12
18
2b
da
04
16
02
01
f2
11
f1
0d
f6
f1
18
0d
39
01
18
f9
26
e4
2d
20
13
02
ea
f4
30
1b
2d
09
fd
09
fe
09
22
25
1b
f8
0f
e2
fb
f7
d2
35
18
e4
1b
21
fa
00
f7
a4
04
0f
09
e0
0b
07
18
f1
10
1c
09
e8
22
fe
ef
fa
08
e4
da
04
ce
08
e4
b0
fe
08
22
d3
eb
37
18
08
29
05
1d
01
23
14
df
eb
e3
ec
f1
f3
01
e0
fa
0f
eb
47
16
02
25
1b
0e
0a
11
e1
2b
0c
10
00
fd
02
bb
f7
f7
29
15
f5
22
02
09
e5
09
e0
f4
d3
f5
13
10
18
da
f5
f9
dd
ea
ed
06
13
ea
fb
0d
0a
1b
f9
d8
f8
ce
f7
e4
06
0e
fa
05
25
04
02
d6
ce
0b
01
15
33
02
ea
0b
ff
11
08
06
fd
10
d0
ff
e2
11
e9
02
04
21
13
1e
15
0f
08
1f
1c
2b
02
ec
f8
e6
fa
a2
f4
06
d1
fc
2a
f1
20
02
36
42
eb
da
19
17
fc
eb
02
38
13
1a
b6
f6
fc
1c
22
11
27
26
ef
df
01
fc
03
0d
fb
10
0e
db
fd
f1
02
23
09
e0
fe
0d
20
0d
bc
25
bd
06
fc
e3
ff
f6
e8
21
09
27
1e
11
32
f0
00
09
1d
04
ea
0d
13
35
0f
