10
09
09
f7
08
0a
ec
23
eb
1e
16
0e
0c
f6
f7
db
fb
1a
eb
18
19
c8
f3
ee
d4
f6
27
17
3d
1a
be
08
15
d7
f9
32
cf
d4
09
2b
36
09
06
06
f9
2b
15
10
32
d4
f0
02
26
19
0b
07
21
0b
d5
f4
f4
2e
d7
26
f8
11
ed
36
0b
06
16
44
e9
ea
0d
e5
ff
ed
02
34
f8
0a
1c
d3
f2
fa
42
e9
4a
21
eb
03
f6
f9
09
df
34
08
0c
c8
15
01
fa
39
20
fa
ef
dd
1a
c9
2d
e5
19
0b
e9
fe
4b
0b
e6
07
f5
e7
13
a0
cb
e5
d5
d7
f1
ea
1e
0d
06
ee
d3
eb
ae
12
29
0e
dd
20
9c
f8
12
08
0a
ff
08
e6
e8
f0
4c
e2
01
1e
dd
35
06
0f
f1
0a
1b
bc
f1
06
ff
f5
d2
01
0a
b2
1f
d7
3b
21
f1
e8
15
fd
e4
e0
3b
0e
ca
00
38
df
38
ec
29
fd
08
3e
e5
d5
1b
0d
ef
11
22
24
08
14
fd
ff
07
f5
c1
10
ee
16
e4
c8
07
ed
50
10
56
44
fa
09
f0
05
c7
d9
19
0c
02
22
ff
ff
2e
ff
13
01
02
e5
1b
e4
ed
16
14
e1
f0
10
27
47
13
1b
c6
e8
26
0e
e0
45
df
e0
ff
ef
10
08
53
39
14
2e
19
fa
e1
f0
10
cb
0a
1a
04
dd
0b
20
ef
0e
1c
12
0d
2d
08
00
11
06
e2
26
2a
fe
22
37
f0
01
19
00
2b
eb
20
12
23
43
d1
e5
ec
1f
ef
21
22
04
09
d5
16
e6
11
00
5b
00
30
20
12
e0
f7
c3
16
14
03
dd
fb
f0
06
f2
0d
fa
f9
0e
f9
11
e0
d6
3d
de
fe
f6
d8
e1
21
fc
ef
f4
02
1b
f9
ef
f1
eb
13
f8
e7
ec
f9
04
a7
fd
ff
fa
d1
3f
24
e6
0c
01
f4
c9
f7
fa
e4
36
16
f4
c6
2d
ee
f8
1b
fc
19
11
13
0d
c8
02
ed
0b
ea
f7
e9
b7
04
e7
1b
de
e2
e8
25
15
fd
11
13
f8
c4
35
f3
33
da
e3
2b
ee
1d
06
1b
f0
df
fe
37
f6
11
12
ef
d1
0c
e5
01
d9
2d
e7
11
34
dc
10
0d
cc
2d
f6
05
f7
ec
fd
16
41
0e
ec
23
d8
06
02
d9
1d
fb
17
e5
f2
f6
0b
f6
01
3e
d2
27
d0
2e
bf
0f
fd
1f
f5
25
13
ec
09
0b
e9
e6
e2
2e
07
1e
e1
27
fa
35
27
00
cb
3d
1b
fc
07
d7
d3
15
23
cc
fb
ec
69
2b
0c
00
0f
00
00
03
fc
c5
e0
fa
38
df
d8
fc
0a
36
fc
f5
43
dd
30
14
f9
31
23
05
f1
1f
14
00
e7
18
0f
05
d3
1b
f7
e5
14
16
e1
28
24
e0
32
e6
f2
02
cc
1b
06
d8
5a
45
19
fe
57
e5
ff
f9
28
15
26
cb
db
e3
ea
07
15
df
ef
09
10
0c
fa
12
f9
fc
04
f8
d9
ea
0e
bf
e4
d8
ed
db
06
f3
1d
e0
31
0e
d1
e4
05
f6
01
d4
dd
26
f7
51
e4
01
16
03
05
e3
1e
48
39
d4
eb
06
10
1a
b4
04
17
2a
cc
d4
f5
f2
ea
fa
4a
e5
10
18
f9
15
ce
04
ed
06
31
ec
ec
18
3e
04
15
f0
3b
06
18
15
2d
18
04
02
2d
0b
f6
f4
24
12
11
1d
fa
fc
10
00
36
10
54
d3
eb
cb
f3
39
f1
01
c5
09
18
f6
fe
e2
f8
07
fd
19
0d
0f
06
f3
2a
38
ee
06
d5
cf
e4
02
13
e6
26
15
10
ff
05
07
02
eb
e6
1c
e0
e8
ce
ea
0a
10
e9
47
09
12
00
1f
1c
06
ec
fb
10
f1
f1
20
65
3e
ff
f6
ee
07
0e
d1
10
e8
fa
0d
31
23
1c
fb
25
2c
3a
07
ea
2d
27
c6
e4
d4
f0
fd
0c
0b
07
e5
fc
35
eb
08
ff
04
1f
ce
eb
ec
bf
09
f6
c6
d7
f5
e1
ef
3c
34
27
f2
cf
2a
22
ff
19
ed
00
0b
06
0e
cb
df
17
fd
12
04
ac
ee
f5
f2
dd
b0
d7
f3
0d
ed
07
fc
ed
09
f4
12
1f
54
f3
e9
08
fc
14
ea
e3
e5
e7
02
15
14
19
02
d3
ed
e1
d2
44
2f
1d
14
05
08
d1
24
20
06
a2
01
f9
06
0e
fd
e2
1f
f1
22
02
08
eb
c8
14
f1
26
e9
d9
33
44
ce
ad
20
f1
1f
da
ef
dc
32
cc
06
c7
ea
c5
42
dd
19
f7
29
09
e4
0c
f0
38
fb
e8
23
f4
d2
12
44
01
03
24
03
f2
f6
12
08
1d
f2
f8
de
db
3a
19
28
2f
d0
41
07
fe
0b
24
d0
00
df
fe
04
d5
d7
ed
22
fd
f6
d7
ec
45
20
23
d2
31
c9
14
e9
26
e9
ab
14
0f
e7
10
f6
f8
f0
d3
e8
03
1b
06
27
f1
e8
ee
1a
dd
0b
f1
14
f4
fa
e1
f9
e4
02
d4
ce
0b
1d
0d
ee
0e
2c
fd
28
eb
dc
11
0a
32
d5
0d
ee
fe
f6
cf
e5
fa
c2
57
fb
19
d9
11
31
12
d5
14
0c
10
29
06
00
20
04
ce
f1
fa
1b
11
1c
de
f5
12
34
03
ea
ff
fa
27
fb
08
00
eb
2d
7f
fb
fa
37
24
fe
d6
09
13
f1
55
16
0f
14
2c
fe
13
ff
e3
f7
1b
ee
21
e4
04
17
13
07
24
d0
2f
21
25
df
d2
ce
0f
3e
f0
47
e0
1f
0b
e7
03
b4
ec
0c
1f
ff
1f
f8
fe
d0
cd
d9
27
03
06
f5
0a
ee
c2
eb
15
f6
3f
f7
c9
b8
f2
0a
fb
31
f4
e6
f3
d8
21
0c
f6
0b
d2
a7
0e
0f
31
15
ff
da
0b
23
09
ef
e9
33
19
e5
13
fe
07
ef
1c
0e
e1
fa
f6
01
f5
fb
1a
ff
e7
11
eb
f8
09
de
f5
fa
f1
e8
06
3f
14
f1
bf
34
f8
33
f0
17
d6
17
f4
fc
e3
c2
2b
fe
f4
30
1d
aa
f0
fc
ec
3d
dc
08
f5
01
fa
fd
df
e9
0c
0b
d8
1b
03
0d
e4
25
23
ed
44
fb
38
fc
26
ce
ff
0a
18
03
4c
17
02
f7
ff
d6
0d
20
d3
32
2b
c5
25
15
00
f6
c2
f3
e5
dc
16
1d
0e
49
cb
15
fc
cc
fe
da
e1
03
17
07
09
55
01
15
22
ee
30
de
ba
09
c6
22
f3
be
cb
00
fe
02
01
fd
08
d3
f9
3d
ec
11
2a
fe
17
f9
f0
03
f8
00
1f
3d
f7
fd
ea
28
2b
cc
e2
16
03
0c
24
e7
e2
ff
ef
dd
fa
55
22
13
ff
1e
ea
dd
13
31
02
01
ed
07
03
ce
fe
e6
ec
f9
df
f0
ec
cd
41
ef
dc
10
19
fb
f1
e9
ff
36
3c
e0
ef
05
2d
1b
cc
e5
e8
30
11
ed
f2
fe
18
37
16
f4
1c
35
ba
0c
35
ef
16
20
e0
ee
f6
08
02
ee
f0
24
12
1e
67
e2
03
1e
e8
47
03
ff
07
f8
18
13
47
3e
f8
f7
23
e3
e2
0b
07
e7
19
ee
f0
0c
fd
36
ec
33
f4
e3
07
25
d4
ef
02
1d
c9
e9
29
d7
03
f4
18
f0
f3
b9
fe
d9
fa
11
eb
06
12
04
e3
30
be
f9
0a
db
e2
e8
09
36
1e
03
47
48
ea
f8
fa
fd
1e
ed
2b
05
35
f9
11
e2
fc
20
15
e5
13
32
f2
25
0b
df
33
c6
f5
df
15
15
32
e9
bd
e4
e7
a9
30
0b
21
eb
01
0b
28
fc
12
f5
d0
f5
06
ec
c5
24
06
0f
a1
d8
e7
fb
32
03
03
14
00
f3
ea
ba
ca
29
22
13
45
01
0f
f1
21
f9
f9
ee
d7
d0
1c
ef
02
bc
cf
0f
fb
e7
ea
cb
f2
eb
fb
fb
0c
0a
e6
e7
09
f5
09
15
25
08
42
11
0d
06
fa
01
1d
09
fc
05
e2
f4
1d
2c
de
cd
05
ee
ff
0f
25
df
f2
00
11
0b
15
d2
03
06
14
0b
f4
d9
e2
dc
14
18
aa
f8
1d
3e
c9
e6
23
17
dd
1b
06
a1
0b
2f
9f
ef
07
d1
d8
1f
fe
db
ef
fd
eb
be
d4
ff
d9
fd
16
f8
0e
f2
f5
ed
d8
3a
2e
2f
3f
0c
e0
3a
27
01
06
df
0d
f5
f0
e2
eb
1f
4c
ea
fa
28
28
37
f1
17
ff
ac
29
e6
ea
10
02
2a
f4
3b
07
d8
ea
f1
07
08
f3
fa
dd
fb
3a
d4
e4
18
f1
ff
1d
37
dd
ec
09
1f
25
50
16
0d
0d
3c
f3
db
30
d1
10
0e
12
0f
f7
09
1f
1a
27
3e
d6
27
21
ef
34
04
05
e9
27
df
13
ec
e7
ff
c5
06
1e
f1
ed
10
ef
ea
0c
fe
18
0a
f0
0c
0d
f7
0b
08
46
c8
1c
d8
f2
1c
4f
12
21
19
1d
da
e0
01
ef
fe
22
2d
db
18
f7
ea
fe
03
e7
28
d4
04
d3
12
fd
c1
ce
fc
11
f8
d4
f1
07
12
d1
fd
04
ff
eb
d9
0b
ff
f0
29
30
f4
e2
c2
23
e2
31
f9
40
f9
1c
25
f0
02
2a
cb
af
17
df
f1
24
06
f5
e3
df
fc
1f
18
ea
51
e9
ec
e6
0f
e7
b0
27
d1
f8
e5
ea
c2
11
18
01
fa
0f
00
13
f4
ff
cc
15
fc
2c
f9
11
ee
18
0e
dc
0a
1a
02
f9
26
08
19
da
e2
12
0c
06
03
11
01
dc
ff
e1
f1
0c
dc
33
1a
36
e8
0f
1e
0c
05
eb
16
16
d9
fe
15
ec
14
df
0e
da
29
47
e6
10
de
0e
14
da
26
95
dd
03
14
20
e0
0a
24
eb
31
15
2a
1a
f4
16
19
de
fb
fb
f6
f9
fe
e7
14
1f
f7
25
e3
19
ed
0f
1a
f8
04
26
0b
fe
00
fe
dc
02
ff
0e
20
27
03
c7
e2
d7
11
08
d7
16
da
0b
f6
09
e7
f8
0e
17
33
ea
2e
36
17
0b
1e
db
32
0b
28
32
b0
16
eb
0c
d7
27
d2
d1
db
f2
fa
0d
1d
0e
05
11
1d
3f
3b
23
d0
e0
13
f1
cd
f0
ef
05
f9
35
4c
12
18
fc
d9
ff
05
f1
48
04
2a
f2
23
10
01
0f
0d
23
f7
e0
1e
e3
02
0f
df
30
0b
0d
e9
0a
07
f8
06
f4
02
24
21
fb
06
1a
ed
d1
e7
f2
d2
51
bd
20
f6
e4
11
fc
ea
e7
08
f8
03
26
33
0a
cd
eb
f8
27
04
de
cc
b8
2e
ea
f9
ec
ef
00
04
44
14
ee
ea
d8
fb
bf
ef
1c
f8
fb
31
2f
cd
e0
27
1d
d6
eb
df
14
17
44
1a
ee
0a
e6
cb
39
02
0f
02
f5
3a
ee
f7
17
20
dc
d7
fd
09
f6
e5
20
dd
07
44
28
bb
eb
3b
f6
e6
f9
0a
0b
fc
c2
fd
03
10
ec
3a
f3
38
27
15
2d
d4
f7
d3
06
1b
07
ca
e5
e2
02
f8
bd
07
2f
ed
fb
c3
0a
0f
17
1a
00
fa
e5
33
f3
20
df
fd
ed
13
04
11
1b
ff
f2
c6
e5
37
11
e6
04
15
c2
ee
e5
2e
fa
dc
1c
cb
11
2b
16
01
0e
f5
16
2d
f4
0d
10
1e
01
b9
ed
26
f7
c9
1f
08
2e
1b
34
e0
01
ff
ee
02
dc
0d
fa
e8
18
22
cb
d6
15
d7
d7
17
37
24
15
eb
d1
52
09
e5
14
25
e7
ec
ce
07
46
23
0b
04
07
17
35
00
f8
07
e1
dc
e7
f4
23
2b
c0
c6
f9
05
ce
0d
e4
1c
35
26
24
f2
e1
f6
df
cb
fb
d9
1b
f4
33
1e
df
03
10
df
ee
dc
1b
2a
f3
06
13
bd
b7
fe
3b
15
b9
fd
18
02
1b
f9
fa
12
08
