41
e7
ff
f5
b8
c4
fd
43
23
e5
e0
05
db
00
ff
ed
65
ea
02
0b
bb
f3
f3
df
f4
e9
fa
1b
a4
0a
fd
db
14
e2
1b
32
ec
06
e1
f4
01
42
ba
16
e6
3b
27
1b
fa
e5
b7
1c
0f
0f
14
0d
da
00
06
13
1f
f5
dd
0e
11
fe
ec
0d
a7
f0
d5
fe
37
19
2e
e6
11
09
e7
03
1d
e9
07
0f
f0
01
19
e0
3d
e6
d0
c2
f9
f0
22
0d
f6
16
27
01
ef
b0
e0
24
05
e7
ed
f3
ff
e5
ed
0a
3a
30
f0
12
2d
eb
e8
4b
21
23
0b
20
ea
ed
1d
2a
07
ed
c3
ae
f4
0f
d1
06
06
d4
29
2d
07
f1
37
2a
10
08
14
f6
0c
e0
f0
e3
d5
f3
f2
17
19
0c
f3
12
16
10
eb
08
05
02
20
ce
f3
01
ea
0e
cc
4c
16
1b
0e
0f
da
db
bb
0e
11
08
04
04
c0
0c
0a
e9
db
11
1b
02
ec
0c
19
f5
20
24
f1
fa
03
ee
1e
f3
18
f1
ec
18
fa
f9
07
06
11
0f
f9
0d
42
fc
f3
fe
06
18
ee
10
ec
39
10
e1
dc
00
fd
16
09
36
17
0d
0f
d3
dc
d8
b9
33
7f
f9
f5
ed
fd
18
ff
e2
5b
09
eb
22
0e
1c
1d
f1
bd
14
e7
dd
02
e0
0a
34
fd
2a
ca
d9
19
1d
29
fb
38
05
2b
1b
de
f7
00
f6
0d
b2
10
09
0f
e7
15
fe
f7
ed
d9
1e
e9
27
e6
2b
e8
b3
bd
e5
36
01
db
f1
09
07
1d
ce
d6
1d
1b
d2
06
f0
f6
12
00
16
f9
06
ff
17
1d
33
20
d4
07
13
0f
23
1e
ff
16
f9
00
e7
f2
be
3b
13
bc
0b
01
e8
06
cd
06
cc
dd
23
13
db
ee
25
f3
2d
25
c0
e0
d2
df
9f
3f
0e
f3
4c
16
14
0b
f5
17
d5
2d
02
2a
07
07
12
21
ed
16
e7
e8
14
cf
0e
4a
d4
f6
3d
16
21
2f
08
eb
1d
1b
d3
03
e6
18
27
ec
fb
ac
e1
ee
e5
0f
dd
01
00
f6
0a
0f
1d
f3
d4
ce
10
f4
e5
20
d0
1f
e0
fe
0d
fe
17
2f
ec
db
e9
c3
3a
fe
19
f0
fd
f8
e1
cd
e1
cf
f9
17
08
f1
f7
17
17
df
ce
e7
fd
18
04
e2
ed
f4
2f
1a
1b
29
e7
c3
f8
ef
ec
e7
12
09
ec
ee
f1
1d
d5
03
ff
ef
38
f4
df
31
13
c7
1f
e1
10
be
1c
13
16
2e
0f
0c
e4
0e
28
16
eb
0f
fe
0a
a4
02
36
10
ec
0d
ef
e8
ee
06
e1
e2
f8
c5
3c
e0
e4
f8
e6
02
38
e4
fa
19
07
0e
35
cc
18
d8
07
ec
dc
ca
23
00
40
2d
f9
16
d9
07
f7
f5
0e
bd
f5
06
f8
0d
ba
eb
e7
17
e8
3c
f3
29
33
f9
09
fd
cc
0a
ef
17
d9
17
ee
f2
fa
fa
0a
e1
16
10
f5
fb
f8
da
1a
07
e1
0e
1c
f0
ce
16
f5
ea
fc
ef
0c
f5
f5
22
c4
f6
d4
10
f3
0a
f0
03
fd
e7
ef
11
fc
de
1f
13
01
13
cd
ef
ff
0f
f7
2a
ef
1b
f5
3f
0f
da
0f
e9
12
16
0d
ba
01
06
f8
e9
cf
1d
0e
1a
f0
0f
da
ce
3c
0a
f9
23
c2
0a
f8
18
0a
0f
02
fe
fa
ee
06
fb
f0
e5
0c
f1
00
37
fe
fa
39
26
ed
fa
e0
0a
16
f2
0a
09
16
e4
ea
23
10
fe
01
da
fb
f4
ff
e3
31
04
c6
27
09
16
f0
06
1c
03
07
36
03
26
e6
06
1d
f4
b3
ed
15
f3
2f
1e
eb
08
16
31
bb
ec
dc
2a
19
bf
1b
44
fe
22
d7
df
d9
fc
d7
18
0f
01
08
13
02
f3
00
ef
da
14
1a
0d
de
07
37
3a
e0
02
07
f3
0d
f6
26
01
22
16
f7
3b
f0
33
07
ca
db
f0
19
08
28
14
d4
ea
ed
d4
f7
f9
f5
20
35
ef
c9
d4
f2
f8
d5
e9
11
07
e2
27
1a
e5
e7
1c
e8
e8
c6
0a
0d
00
f5
36
3c
c8
fa
08
0b
eb
d6
f1
3b
17
d4
fe
12
f5
e7
c2
0e
ee
e2
f4
12
dd
f1
e3
19
de
e9
10
0e
fb
0c
2a
09
dd
f2
05
1f
e7
06
1f
12
19
3f
ef
e5
07
28
f9
00
04
0b
c7
f5
f4
13
1c
08
2c
ef
27
05
e0
ed
1c
cd
20
0b
0d
ec
d3
ee
30
f8
16
06
e4
0c
df
b3
03
2c
15
e3
df
dd
01
f3
ec
27
09
0d
37
00
d3
f3
25
ec
b3
f0
d4
e5
1d
e2
f9
05
e0
04
c7
bd
cc
1e
f3
10
42
23
cf
5f
e3
ff
cb
c0
e5
fd
0e
05
d9
11
dc
cd
0a
10
24
28
31
e5
f3
dc
28
d9
0f
48
05
0e
2e
da
e7
43
ec
d4
11
13
20
fa
19
2f
e6
f4
e3
f7
fc
2e
05
26
32
d5
21
c6
f1
0a
ff
3a
0e
e8
11
d7
07
f5
06
25
ef
10
eb
f4
15
fe
f2
ca
29
0c
01
11
28
2f
ea
d3
c9
12
1c
0a
fa
27
be
df
b8
0a
c0
e5
df
fd
06
19
dc
12
dd
06
0a
c1
dd
f7
10
27
15
47
13
c4
ec
fe
28
f8
1d
57
db
05
3e
e1
af
d7
1a
12
ed
1d
f3
ee
fb
fc
06
0b
03
c5
d7
10
e1
18
e0
ed
fc
ed
ea
05
ee
0b
12
e0
9f
19
06
e8
35
13
0e
ec
02
17
d2
1f
05
03
da
fd
fa
fd
21
46
ed
fb
e4
fd
cf
01
05
10
10
b8
e3
c7
cb
0e
d7
27
da
0b
03
f8
e7
ce
13
e4
24
f9
13
fd
27
e4
06
07
fa
21
d7
24
2c
05
11
18
2f
e4
e1
e5
19
29
1e
21
43
1c
c6
06
1d
47
1b
eb
f4
06
0f
1e
0f
22
00
24
c5
db
f4
e8
fe
10
0a
07
d5
61
d4
ee
31
13
5d
ee
de
1b
fc
3d
08
fe
ef
f6
f3
0c
1b
fc
e1
fc
ca
e6
30
fe
f3
02
f6
23
1b
f9
08
f6
d8
eb
39
13
22
03
3c
02
da
19
2c
07
d4
19
e1
1e
12
38
1e
e9
fa
1c
fd
02
f3
ec
fa
07
e3
de
e1
10
14
f6
f8
1c
19
04
d8
fb
09
0c
07
dd
e1
3f
0b
0e
e9
3b
25
35
0e
cd
44
27
ff
0a
25
08
23
c5
fe
14
13
1a
dc
23
e8
e6
34
fd
06
c3
e7
21
1e
ed
01
43
08
10
e5
e8
07
fe
16
dc
ea
41
32
e5
10
0c
e7
db
ef
0c
ec
0c
c4
fe
e6
f3
26
2a
ce
2e
23
13
f9
0f
df
0d
ef
d6
14
40
fe
06
da
f3
35
fd
e4
fd
e2
e2
c1
c2
de
13
0a
d3
fb
28
10
dc
f4
e3
0b
fe
1d
12
0b
f7
28
0f
15
10
0b
14
26
0b
f8
20
fc
0d
21
e2
cd
1b
f8
c4
22
30
2f
e4
10
03
c3
f7
1b
f9
c4
f2
03
fe
0b
da
0c
49
1c
50
f9
0c
f1
19
fc
2d
e2
f6
f7
d3
ee
f7
05
f3
dd
09
ef
06
de
f7
f4
1b
d0
20
16
fe
c5
f6
e4
10
2d
29
22
10
ec
fe
11
1c
eb
1e
f6
37
09
d9
e9
12
0a
fb
d2
2f
fc
10
1c
e1
fd
d8
f5
28
c2
0d
26
06
16
11
e1
12
1f
09
ea
fd
d1
02
18
fe
fe
08
2e
fd
2f
1b
f3
de
07
bf
fe
f6
e2
e9
0b
1f
d4
fa
f8
0e
dc
27
28
2c
0a
dc
de
df
e0
d7
0a
f4
40
e8
01
ae
ff
22
0c
35
dd
1e
af
0c
07
f9
0f
c9
1d
22
e3
16
ef
1c
e1
66
e4
fc
06
ef
02
f6
ce
e2
03
36
26
04
cd
f6
f6
dc
3a
ef
14
15
e9
4e
18
33
29
f0
16
f9
0b
ee
ec
08
e8
d4
08
dd
06
0e
14
f7
e5
ec
3f
42
51
0b
e9
bd
36
dd
c1
38
ee
d3
df
f8
12
10
e4
ea
c4
1e
20
12
f8
bf
f5
e3
f7
ee
f8
f6
06
f4
f4
f3
ff
f9
d4
ee
00
fd
b8
07
36
21
ff
3e
09
fb
07
40
15
22
34
3e
23
ed
2c
1a
2b
44
fc
35
29
18
15
e5
04
2f
1b
e7
29
e1
dd
ee
d6
cd
0b
48
18
c2
f9
ee
fc
e2
23
c9
fc
fe
29
1c
1b
c3
2e
fb
09
2b
e4
fb
d6
e5
f1
f1
f3
0c
1f
d8
1a
3d
23
0a
ca
02
1d
1b
08
fb
fb
c0
fe
44
e3
2f
db
0d
d6
cf
e1
f3
17
07
e8
0a
d2
18
0b
cf
db
00
1a
e4
14
30
fc
fd
e2
d6
b9
ef
ef
bd
1d
26
0b
ed
32
11
2b
da
03
ff
2c
ef
27
2c
10
01
00
1f
e5
f6
dc
ab
0d
07
db
c8
26
ec
1f
0e
2a
bd
14
e7
03
1a
e2
00
23
dd
4e
30
04
fe
02
01
dc
f6
35
07
f0
ed
21
0b
41
ed
31
01
03
0e
07
d2
f4
35
0c
f1
c6
e8
09
1e
21
e5
13
0e
12
0e
23
d5
fb
0c
0a
06
b8
f9
12
df
08
ec
02
1f
e4
c7
07
09
d3
e4
cf
31
07
da
0b
03
22
ef
f9
df
01
22
1d
bb
13
ff
ab
14
ee
3b
0d
e2
05
ee
e1
0f
ba
08
f6
21
e9
01
0d
10
ee
ee
d5
08
01
1b
03
f7
1c
2d
2a
fb
fa
0f
fd
f2
17
1b
22
e3
f5
dc
08
1b
cd
0e
0a
69
f1
d4
ef
d0
26
07
26
f3
33
07
d8
bb
31
24
06
4b
e6
13
08
f9
f7
e0
f9
e0
e6
27
0b
fd
f5
0f
d7
fa
00
a9
fe
27
f5
00
ff
15
32
ef
fb
ed
f9
2c
09
fd
f9
ec
24
cf
10
19
ce
1c
10
e9
c2
0e
ec
11
e5
20
f4
f0
03
de
d4
fa
11
f8
d3
f9
e4
0f
f7
fd
eb
37
e8
14
e8
04
07
27
13
01
0c
26
f3
e9
2e
4a
e6
cb
0a
01
20
e0
12
21
fe
d1
bc
06
3d
e9
b0
1d
de
c6
35
d3
f9
e6
16
1e
24
f6
14
ef
12
fc
29
13
45
ec
05
e0
11
f2
c1
f1
f5
fe
1d
10
d5
e3
0b
d7
2b
13
20
06
f1
d4
e7
dd
12
55
ed
dc
10
1b
d9
d6
3e
10
d3
fd
eb
e0
e4
ec
df
dc
04
16
ce
f4
dd
09
d8
23
05
ed
03
17
03
06
ff
2f
3f
0d
23
a2
36
05
02
d9
dd
f0
00
d6
10
12
fa
20
f0
f6
f1
f4
e1
ec
d6
b5
d0
17
10
cc
30
ba
07
09
de
e5
fd
de
db
05
e9
1c
e8
ef
f7
ec
f0
00
f4
39
30
e3
2b
cb
25
33
e2
e5
27
fd
c5
18
f0
05
fc
0c
3f
11
d6
d8
0b
16
28
bf
1f
46
f2
fa
25
f7
1b
0d
00
28
d3
04
e2
db
f3
05
08
d2
1a
f1
0a
2a
f2
fe
21
eb
ed
2b
07
fc
23
1a
ce
c4
f6
01
29
0e
cc
28
2b
0f
22
0a
df
e6
14
fc
fa
19
f8
c8
09
2a
39
23
e8
bc
cf
ec
24
f3
4b
f1
0a
ea
20
10
db
f9
2d
ec
f0
ed
a4
0f
22
f3
d0
fb
06
f6
e9
0c
d5
1e
d6
d5
28
ff
f1
f1
11
f1
29
f4
c4
e7
ce
f3
ce
35
16
f9
37
e3
12
ea
0c
d7
25
d4
e3
f8
fb
21
15
2a
f0
e6
12
e2
27
db
39
fc
e1
e9
fe
34
f0
dc
26
dd
09
fe
e4
ea
f1
c7
00
ee
21
11
11
1a
e1
24
3c
f8
0a
28
40
09
f3
f3
da
a1
0b
0a
b9
1c
fa
05
1b
f5
f8
f1
ef
fa
25
05
0f
42
f9
05
fb
d2
10
f5
26
10
