22eae7390e33e031d0f3e8cd37f3e9fb31f4e218322ae9c3c32515d1d0e7f8e6
ee2a1bfb30ed152efdf3181befe92513fbdb1bc1d9c1caf4c4d61d190d3bebc8
24dccc102809f80dec21e0e2c80defee150c03c73e03293cdce8fdebdffd2506
f5fbeaf5c5e3edc52c17c33d0f0c0cc1011f1dc3e9dbcf27eee7c6f102ff27e3
33e3d6eb062fda1917df39d138f6f2fec8c4e51cef12dff5d1140fc3cb35f429
13d8edce2b3f33effaee3f1ed9cf39cd2df9c32325d327fd25e8d00930c3c0e1
18f31e14130819e736cf1efdcbd4c338c515243bf2eb2e16d2c8dd0dd6e73107
37da38181b14efd9d6f513d714e8e4f4cae9032e0537e111ff101e2c23c01a0f
