38
00
5c
2c
00
3f
00
00
00
1c
00
10
0b
00
00
25
00
00
00
66
00
00
00
00
00
00
00
00
00
25
00
69
2a
20
55
4d
4b
2c
00
5c
00
00
73
49
00
00
26
09
00
00
24
00
00
24
57
00
00
03
00
48
58
00
15
00
00
6f
05
00
00
00
31
00
0d
46
00
00
00
5b
00
64
10
00
3e
00
67
5e
00
00
00
6a
00
52
6a
4a
4f
52
6b
2e
61
3d
00
00
00
25
00
67
00
59
5e
10
65
00
00
00
59
00
36
37
32
47
3a
00
00
00
42
00
00
46
