22
dd
11
22
27
e3
d3
21
dc
25
d1
09
db
2d
31
10
ff
29
d4
d6
2b
1c
fc
de
d8
30
09
e1
01
04
e9
fc
f1
f5
e9
f1
01
ed
2f
07
dd
e8
ef
da
1f
df
01
10
fa
d2
02
04
eb
14
fb
20
e0
d1
d8
de
20
df
19
ee
e7
0c
11
23
13
e0
05
29
2e
07
e2
0c
04
05
e3
e2
27
06
0e
30
d4
27
fe
fd
ee
0b
e5
02
e2
e4
19
d0
24
d2
f4
d6
2b
f9
00
d9
d5
0f
fe
f1
ff
ce
14
dc
07
d2
2b
fa
19
ce
10
da
f6
0b
ef
dd
0e
2d
02
30
0b
ec
e8
da
e2
d6
e6
fd
10
04
26
1c
1e
fc
ff
d0
f7
2a
10
0d
f7
15
