35
bf
59
2a
b0
3d
a5
a0
8b
1b
f2
0e
0a
b7
fc
28
ef
8e
e9
63
e9
e5
e9
ac
ce
af
dd
ba
dd
23
ac
6c
26
1f
52
4b
4a
2a
94
60
92
95
70
47
9f
e0
25
0c
c1
bc
21
98
f3
22
56
e3
ab
02
bd
46
56
e6
14
b9
c1
6d
03
d5
b5
ea
30
9e
09
45
aa
c0
f5
59
ce
67
0c
a5
3c
ee
65
5c
8b
de
e2
68
e6
50
69
49
4e
55
67
2d
5e
3b
e2
d1
c4
28
a3
65
91
57
5c
0e
64
ca
b1
f7
57
e1
35
35
31
4a
36
95
fd
fe
41
98
f0
49
