38
c0
5c
2c
b2
3f
a6
9d
8f
1c
f5
10
0b
b9
fd
25
f3
90
ec
66
eb
e7
ea
a8
d2
b0
e0
bc
df
25
ad
69
2a
20
55
4d
4b
2c
95
5c
96
96
73
49
a0
e2
26
09
c5
bd
24
9a
f5
24
57
e0
af
03
c0
48
58
e8
15
b5
c5
6f
05
d7
b7
ec
31
9b
0d
46
ad
c2
f6
5b
cf
64
10
a7
3e
f0
67
5e
8c
db
e5
6a
e8
52
6a
4a
4f
52
6b
2e
61
3d
e3
d3
c5
25
a7
67
93
59
5e
10
65
c6
b5
f9
59
e3
36
37
32
47
3a
96
00
00
42
9a
f1
46
