22
30
02
0c
2b
2d
dd
09
04
04
f9
02
11
e1
eb
05
00
30
22
01
14
e3
d9
0b
27
04
fb
e2
d5
ec
e3
e9
20
27
0f
e8
d3
fc
e0
06
fe
da
21
f1
d1
0e
f1
e2
dc
f5
d8
30
ff
d6
25
e9
de
d4
ce
e6
d1
f1
20
27
14
fd
09
01
df
fe
dc
10
db
ed
19
fd
07
04
2d
2f
ee
ee
d2
26
31
07
e7
0b
2b
1c
10
dd
0c
e5
fa
1e
ff
e8
11
02
19
fc
29
ef
23
e2
ce
ff
d4
da
13
e4
10
d0
d6
1f
e0
19
da
f7
2b
df
05
d0
f6
2a
1c
01
29
24
0b
10
fc
10
2e
d2
ef
0d
de
fa
07
f4
dd
f7
d8
d2
e2
d6
0e
15
