f5
fe
13
ef
0b
f2
fb
f2
08
0b
0a
f5
ff
06
f7
ff
05
f3
fb
03
12
0e
f8
07
f3
00
f6
0c
09
f1
00
00
09
f1
f5
03
ee
0d
01
f5
f5
03
04
fd
03
00
f7
fa
ee
f7
01
0e
04
ff
f8
f4
12
f9
f5
10
11
08
fe
11
fd
04
f9
f7
f9
08
0a
f4
ee
04
f2
02
02
05
11
f8
0d
03
09
09
0b
0e
02
fa
02
0a
08
04
0c
f7
f4
f1
01
ed
08
fb
09
ed
f7
fe
ee
fd
06
ee
07
05
f3
07
ed
f7
f0
f4
02
ed
0c
f4
0b
0b
f2
0c
08
0b
f2
f9
08
00
0a
10
fd
f3
f0
01
03
f0
f9
ed
ec
0b
f7
01
0e
f9
0b
0d
fc
11
f0
ef
01
f6
f6
07
f2
ec
02
03
f6
f2
ef
f6
12
00
0b
05
13
0a
0c
f6
12
ef
ed
0f
f8
fb
01
ff
f0
08
10
f5
fa
f9
01
f1
ee
ec
f6
10
ff
ec
10
fd
ec
f0
fd
0e
00
0e
fc
09
fd
01
f8
04
01
fc
08
fc
f2
13
f0
ec
ec
f5
05
f7
fe
f7
04
f5
13
fe
f3
ff
ff
0f
ff
0e
00
04
06
01
f7
f5
f4
06
f9
f6
ed
08
ff
13
ff
12
ff
ef
ed
02
fa
ff
01
f8
f0
00
04
f1
fa
0f
0b
0e
ee
0a
f7
fe
01
ee
fc
01
12
08
fe
f1
f9
09
ec
11
fa
0d
06
06
00
02
05
fe
06
fa
11
ef
ee
fb
f4
f8
09
02
11
fb
09
ff
12
0a
f3
11
f6
f2
fb
09
fc
fe
ef
08
f3
f2
0f
06
ed
04
fa
0d
11
0a
f4
f4
0f
f3
f4
f6
10
ff
11
ef
0c
0d
f0
ff
f7
ec
fe
fb
01
f3
ef
f5
01
02
fa
06
0d
fe
f0
0d
0b
07
01
fe
04
f9
11
0d
0f
12
ec
07
0f
05
0e
09
f4
0a
09
0e
10
fd
f4
08
02
fe
01
07
f2
11
f8
ec
ed
00
f8
07
f7
f7
08
0d
f4
ed
ec
f6
08
0a
0b
10
05
ef
ee
f0
12
04
06
0c
09
05
ff
f7
f2
10
f6
fd
12
0e
ed
fb
ff
0e
00
f2
12
11
f4
0e
00
ed
07
00
ec
ee
06
05
ef
ec
00
0e
11
f7
11
0b
fa
12
ee
ed
fd
0b
02
12
f4
01
0a
05
13
0b
ef
0e
fb
0e
ee
05
05
05
f9
01
12
f6
13
f4
09
01
f3
0e
07
fe
06
fa
f7
fd
09
09
fd
ee
13
0c
f9
f0
fb
0b
0f
f9
07
09
09
10
07
f9
ed
05
12
f2
04
0a
05
fb
0e
09
f4
04
0f
0d
fd
fa
10
ff
ff
ec
01
f0
00
08
f7
0f
f4
ed
12
f0
ff
0f
0b
01
11
ee
f6
0d
ec
13
ed
f4
f8
0b
11
f6
f2
fe
0e
09
f8
07
f6
f7
11
f7
04
07
f3
f6
fd
fc
f7
04
12
0f
00
0a
fb
02
f0
f0
13
ee
f7
fe
0e
fd
11
01
fa
13
10
05
03
03
fa
03
f3
ee
fd
0a
f9
fd
0c
09
f6
f8
00
05
f7
f1
fe
f9
f6
f3
f2
ff
fc
fa
0a
0c
f9
10
13
0e
f9
fe
ff
02
01
03
10
f9
f9
f3
01
13
ee
ee
f9
f9
0d
f9
f4
0d
04
f5
04
f7
f5
0d
f3
f2
08
fb
10
fb
f5
01
0b
f5
00
0d
f8
f5
09
f3
05
ee
fc
08
0a
f1
0f
11
ec
0e
0e
f9
08
04
ee
ed
13
ee
f8
fa
08
ff
f1
fa
0e
fe
f3
12
04
f4
0a
0c
02
07
07
00
0b
f5
0e
03
f6
13
fe
f9
02
10
ed
13
f8
07
03
04
fc
13
f3
05
f5
f1
06
00
f2
0d
01
0a
fc
0f
0a
ee
fc
f1
0f
fc
0e
f4
10
f6
ef
11
0f
01
04
0d
fa
fd
f4
ee
ff
fc
0f
0f
ed
f1
fa
fe
ee
f8
0a
0f
00
05
fe
fe
06
08
09
00
0d
00
0e
f1
03
fd
13
08
f6
00
ed
fe
02
f9
05
fd
06
0d
05
05
f1
f6
fb
0b
ef
05
fa
04
ff
f8
f3
0e
11
04
f5
12
f9
01
08
0a
06
f7
0b
f5
12
f1
0f
f5
ed
03
ef
f1
fa
12
03
03
0d
0f
ff
0e
0b
f4
11
f7
10
0a
01
07
fa
13
f0
0f
f1
10
13
04
0f
f6
0e
ef
0f
f0
f8
0f
f3
02
07
02
13
10
f5
0f
0c
0e
f3
ec
ff
10
ed
ee
fa
0a
f2
f4
0a
f4
f8
f9
00
02
f6
ed
ec
f3
f1
f7
06
f7
f0
09
f8
f9
10
f3
12
fb
03
ec
07
00
03
0f
05
07
09
13
10
01
0c
05
f1
04
0f
04
f3
0e
f2
f3
0b
fb
03
f6
fa
f8
f5
0c
ec
ff
f4
fa
f7
ee
ef
fc
05
ff
ed
f3
12
f7
fe
13
ff
07
fb
f0
04
10
0f
0e
01
fa
ef
11
00
04
fa
06
04
f2
13
09
ec
fd
0c
07
f7
00
09
fc
0c
f0
f4
f7
f1
02
fd
f8
f6
0b
fe
10
12
11
ec
fb
f2
05
fe
ec
ee
05
13
0a
07
f8
13
0d
0f
fe
00
ed
f7
ec
04
00
ff
fe
fa
f4
0b
0c
fe
f9
fe
ef
ee
f1
fc
13
f5
02
f0
ff
03
f5
ec
05
f1
00
11
0e
06
00
f0
f5
06
03
fe
02
08
10
ff
12
ff
01
11
fb
f1
0c
f7
0d
0e
0f
ff
10
ee
0f
f6
0e
01
0f
00
05
0f
f0
09
fd
0f
f5
04
f0
ec
06
02
11
f4
0d
0a
ec
f2
ef
ef
00
08
0a
fe
f2
ec
ff
ef
10
f0
08
fe
ec
00
0a
f1
06
f7
0c
10
01
0f
0d
08
05
ff
fd
0d
02
0b
08
05
ec
07
ee
09
08
ed
07
04
12
0e
08
01
03
fe
11
f6
f1
10
f1
01
f9
f7
f3
f9
03
10
01
fd
10
0b
08
00
f1
09
08
01
fc
09
fc
10
0c
ed
02
10
01
08
fb
f8
05
f0
f6
ee
0e
ee
ee
fd
0b
0a
0b
ed
ed
0b
f0
ec
f8
f6
fd
ed
02
01
0d
06
13
05
fb
00
f7
f9
02
02
ee
f8
02
ed
10
f8
10
ff
09
f6
f6
f7
0f
08
10
02
f7
fb
0e
ee
f9
f2
fe
fb
01
04
07
f8
0f
0b
12
10
0e
07
07
08
10
fe
05
0b
ec
fb
13
0a
f7
00
06
06
f3
f6
0e
f9
08
0a
00
fc
f4
f8
fa
f6
06
08
07
00
fb
0b
fe
04
11
09
02
fe
f8
f7
f3
f7
05
ff
fb
fd
fa
0e
f7
04
fd
f9
fd
fd
f7
00
03
12
fd
10
f8
02
08
ed
f3
f1
03
ec
f7
fe
0e
06
f2
f0
f1
05
0e
fe
06
ec
02
f7
f5
f0
01
01
f6
f3
f4
07
03
fe
06
02
ed
f9
05
12
0d
06
05
f3
f7
0a
0e
10
03
02
13
fe
0a
0c
f6
f9
0b
ed
05
09
f1
f7
f0
fe
0d
f1
f0
fb
ff
04
07
f7
f1
0a
13
05
f5
09
03
08
01
09
ef
ff
f0
f9
ff
f8
11
0c
02
00
f1
06
ff
f8
03
fe
fc
f8
02
f5
f8
f7
fc
f1
05
f1
12
f4
fc
04
0a
0f
10
10
01
f5
ed
fd
fc
f2
00
07
02
08
f0
07
fd
02
ef
f7
02
13
04
0f
02
11
10
ec
07
f7
f3
f1
f1
f0
ef
00
09
ec
08
fb
11
0c
f5
07
f3
f2
09
ee
01
ec
07
13
f5
09
00
01
ed
f9
0e
f3
13
f4
11
ef
f1
04
f8
fe
ef
f9
05
fc
0b
0b
0e
0c
10
f1
04
fb
f1
ed
04
0d
10
03
f7
fc
ee
f9
f8
fb
0a
13
f3
03
ff
ec
0e
f6
07
0e
08
08
fd
06
fb
0c
03
02
ef
ed
fd
01
0e
ed
0b
0d
ef
f9
ee
fb
f4
f2
08
fd
f7
00
0d
12
ff
08
0b
f0
00
0d
03
0c
f4
f2
01
f3
f7
03
fa
08
0b
0c
f2
03
fe
f2
12
f2
01
00
fd
02
04
0e
04
0e
f6
ee
0a
f4
0a
f5
0e
f4
09
04
11
ff
02
ff
03
f5
0a
05
01
0d
04
f3
fd
f7
ff
fc
fd
fd
12
ee
06
ef
f0
f3
fc
10
11
ff
ff
f7
02
0c
10
fc
ec
12
ee
02
11
fb
ec
ef
04
10
f0
f1
0a
ee
05
fe
11
0d
fa
10
fb
0e
0c
f5
ef
fa
0f
08
ed
f4
09
f9
f2
13
0a
0d
ef
0c
09
0d
f6
03
13
fb
0e
0a
00
0d
f8
05
f1
ee
fc
ef
ee
ff
0d
13
ef
01
07
12
00
06
03
ff
04
f4
00
04
ec
f5
0b
0e
f1
13
0a
02
fa
f2
f8
f9
f2
f3
f3
f6
0d
ef
f7
06
05
0c
0e
09
05
f6
f2
fc
00
0f
fd
0b
ed
06
10
12
f1
ec
fb
0f
fd
ee
13
fb
11
01
0d
f2
09
fc
08
f2
12
0a
0e
00
0d
f7
f6
03
09
06
ee
13
0d
00
ed
f4
0f
09
00
0d
f4
f7
f4
ec
f6
04
fa
f1
0a
00
0b
f2
f5
0e
02
fd
07
fb
f9
01
0c
f7
06
f6
f8
f9
0e
04
07
05
f8
0d
0e
06
02
ef
05
02
fe
08
fc
13
03
fa
12
f1
0d
ff
ef
07
f5
fc
f1
f5
fa
10
0d
0f
f7
ff
03
fb
10
04
02
04
0b
f3
f9
02
fa
11
f2
f9
f1
fc
01
f0
f3
13
fd
0c
fa
13
00
01
fa
f0
f1
03
0d
0e
f9
0c
fc
06
06
f6
f5
0e
f1
00
ee
f8
09
00
13
f7
11
f0
f3
06
f5
04
02
fd
f1
fb
0c
ed
13
09
ef
f8
13
fb
f4
f3
06
04
12
f2
0d
0b
0b
fc
07
f0
ff
f7
02
f2
00
10
06
f4
ff
f5
f7
f6
f6
f0
fe
f8
fa
f2
0a
fb
04
02
0f
0c
10
f0
13
fb
07
f5
f4
09
11
10
01
ec
06
09
06
ef
01
07
ec
fa
f5
f6
fe
05
0f
fd
fc
11
f4
04
f0
11
f2
fa
fb
f2
05
ee
f6
f6
10
00
f1
f6
03
f3
09
13
ff
f0
12
0c
ef
f3
11
ec
06
07
fe
13
04
f8
06
01
fd
fb
09
01
ee
02
0e
12
01
f7
0b
0e
03
10
11
fa
0a
06
ff
ff
f3
04
0b
0a
00
03
10
05
ee
f7
05
ee
07
f1
ef
fb
fb
00
07
08
0d
fc
01
f0
f3
fc
08
11
fa
fd
01
f2
00
07
04
f3
03
0a
05
fa
07
fc
f4
0f
08
f6
f1
fd
09
f5
10
f1
ec
0f
f2
05
07
f0
f2
ec
06
10
06
0a
f9
ef
0a
ed
fa
0c
f2
ec
f9
f4
f5
f2
0d
10
fe
05
0a
0f
f2
f8
f0
f2
11
ec
ef
fc
f8
08
ee
13
ee
f2
00
0c
0f
fb
0d
04
10
f5
13
f8
f0
10
0a
fd
03
11
06
fe
11
ff
ed
09
ff
ee
01
f1
fb
06
06
f5
f7
04
ee
f3
ed
04
12
04
f7
09
0e
01
f4
fe
ee
06
02
f0
f8
04
11
f0
0a
f0
11
fd
09
fc
03
ec
02
05
02
f6
f5
05
ff
0f
11
08
fa
ed
02
04
fe
02
01
01
fa
f6
f3
f3
13
0f
07
08
12
f9
02
f2
ec
0e
07
0b
0b
09
fd
f4
ef
f7
f2
fd
ee
f8
07
f3
fc
04
0d
f6
06
0e
03
09
f7
f8
f0
ec
f6
f6
ee
03
13
f5
06
fe
fc
ec
fc
ec
ee
f8
08
10
09
ff
0f
0c
0a
0f
11
0e
0a
11
f6
02
f1
07
f7
f9
08
02
0f
f2
f5
ed
0c
f8
08
10
fd
ef
ed
05
f3
08
ff
0a
0c
f5
fb
10
f9
07
0a
f2
f9
f7
fa
11
01
f4
f1
0e
01
ef
02
03
0e
f0
13
f0
06
00
02
10
f8
f7
fa
0c
f7
0a
07
0a
ee
f7
03
ff
f6
13
f6
0a
0d
ee
f6
fb
01
05
f4
