fa
08
f3
13
10
ee
07
0d
fa
02
ff
13
f3
11
ed
12
f2
0d
00
f9
ef
04
f1
02
10
f4
f9
ff
f0
f0
f0
07
0b
0c
08
0c
ff
11
0c
12
11
02
f7
09
10
08
0b
02
f3
fd
ff
04
0d
fc
0a
13
ee
ef
ff
0e
07
ef
10
0b
0c
ff
fa
f4
05
01
0d
f8
0c
ef
10
ed
ff
f2
f1
f6
0e
07
fb
06
0e
f4
06
07
07
fa
03
ff
02
f3
f8
06
f6
08
06
f3
09
00
13
ed
04
02
0c
11
10
f0
04
f4
0c
f6
05
08
f7
12
f9
ef
09
0b
13
f9
04
07
10
ec
11
04
07
13
0d
ff
09
0a
f3
f0
03
06
00
ee
f3
00
0b
0e
0a
f3
03
f9
0b
ee
02
13
09
ee
fd
f7
ee
0e
fb
0b
01
08
ff
f8
00
ed
f7
0f
0f
01
fe
f7
05
00
13
fa
ff
ff
02
01
0f
fb
12
0f
00
f8
f1
07
fb
02
0e
08
f2
f1
10
ec
07
fc
f6
f6
04
11
fc
f8
f3
0d
fe
01
00
00
12
01
ee
ff
f0
11
fd
f7
f7
09
f7
09
10
fb
01
f1
02
05
ff
f3
00
ec
ff
f4
f5
08
0e
fc
ff
0a
00
f4
ef
08
fa
f5
ff
f1
05
fa
0a
ed
04
02
0b
f2
fb
f1
ed
01
0f
05
05
f8
11
f5
0a
ef
08
11
01
ee
fd
fd
0a
ed
0f
f3
fa
f7
f9
f8
f9
0f
f4
01
08
10
f1
fa
f7
f6
f6
11
01
fd
09
fb
06
f4
ed
03
ef
fc
0e
f6
ed
0a
ef
08
fa
0a
0a
fd
fa
f2
08
00
0c
0f
04
13
03
f5
f0
13
0d
02
02
06
07
12
ee
06
fc
0c
ec
08
ec
08
07
f6
03
11
f1
ee
0b
ec
0d
fb
00
ec
f3
f6
12
07
13
04
f8
fe
09
09
ed
ec
02
0c
fc
0c
09
09
fe
f2
f9
f5
ee
08
0d
fe
f9
08
f7
0c
0a
f9
09
11
fb
0f
00
fc
f3
ee
f6
ed
fa
f0
fa
f4
fe
05
f0
10
0d
08
f6
ee
f8
09
f0
fa
f1
07
f5
ff
12
11
0e
ff
ef
03
f2
0e
0d
fb
fd
fe
00
fe
fd
f6
04
0f
05
10
0b
0c
f0
04
f3
fa
02
fa
fb
0d
0c
f3
f7
13
09
f3
03
fc
f9
09
01
f5
02
09
10
f6
0f
13
00
00
0f
f4
fe
f9
0f
f4
04
03
0d
0f
f4
04
02
ff
f5
0b
07
ff
ec
ef
f6
ff
f3
09
02
f6
05
fc
11
fc
f2
f5
0e
fb
f6
f9
f6
03
05
09
06
00
0d
0a
0c
f8
10
fc
ff
09
f0
f8
0f
04
03
ed
0e
03
f4
01
f4
02
08
03
05
fc
12
01
f7
f9
ee
fe
f0
0e
f0
00
f1
ed
f6
0c
03
fd
05
f2
ec
fa
00
ff
02
f2
05
07
11
0b
00
fa
f2
ee
fb
11
fe
04
12
ee
10
ee
ff
fe
13
f6
11
f7
f8
ec
0c
f9
0b
ed
fc
07
08
10
ed
05
03
f0
f1
fb
ff
0d
0f
00
09
fb
fd
0f
01
0e
0a
06
06
ec
04
ee
03
f4
0f
05
0d
00
f2
ef
09
04
fe
f0
00
f9
02
09
0a
f5
f9
03
10
f1
fb
02
03
f5
10
07
11
0c
04
0a
f0
f1
fc
06
ed
0d
00
f8
fe
f3
f0
fe
12
fc
12
f2
06
11
f9
00
00
f6
ef
f1
0a
07
ee
fa
01
02
f4
f7
ef
07
07
0f
11
0c
00
11
f2
0c
0c
ec
00
13
12
00
0f
09
0c
10
0e
f6
fe
ff
07
f2
f0
fb
08
07
09
f1
ef
f8
fd
fd
10
05
f5
ec
fc
f5
03
fb
11
ec
fe
00
10
f5
06
f3
06
f9
ef
0d
fe
f7
f2
f5
f8
11
03
fb
ed
0f
f7
f0
f9
f9
f6
02
05
0d
fd
f9
ff
02
f9
fb
f7
04
12
f1
fe
f2
04
fc
ef
fc
00
10
0a
02
f3
f3
ff
0e
ef
01
0f
12
ec
f3
10
fb
ee
f9
08
12
0b
0e
06
ec
f5
fe
fd
06
0a
08
04
0c
10
f4
0f
12
04
0c
0f
f6
01
05
f6
f2
01
06
f7
fb
0c
09
09
06
fe
11
0f
0a
0a
06
0a
ff
f2
f3
f6
13
f3
0e
05
04
13
0e
f2
f8
08
f4
ef
0c
f9
09
06
fc
01
ed
ff
0b
11
11
05
02
0f
06
f1
fd
ff
00
09
f0
0a
fe
fd
ef
10
11
08
f9
f3
0b
03
f4
fa
ff
04
09
06
f8
ee
0c
f1
08
f7
07
09
12
ef
05
f7
f8
f7
03
fa
0d
ee
f0
12
fc
fc
06
ef
0b
08
0b
f0
03
f0
fb
0e
fe
0f
f7
f6
0d
f1
02
f1
02
fd
ef
0e
f5
03
0a
fc
f4
ff
0e
f4
0c
ed
04
f6
fd
f7
01
0e
f3
f3
12
f1
f7
f0
0f
fb
10
06
fb
0b
0b
00
0d
0a
12
fe
08
09
fd
f8
f2
f6
fb
0d
07
f2
04
03
0d
ef
ed
0c
ec
01
0a
f7
06
f8
f5
fd
0b
ef
fc
0d
12
05
04
00
07
05
f5
f7
03
fb
0e
ef
04
fc
03
f6
f9
13
f3
fd
0d
01
13
11
fe
fb
05
f7
02
ec
11
f1
f1
fe
08
02
0a
00
ff
04
12
f4
fe
f0
fd
f4
f9
fd
0c
f6
0e
0b
12
0d
12
0e
ee
0c
04
10
11
ec
04
07
01
0b
f8
fc
05
09
11
0d
ec
ef
fe
02
fb
fc
f0
0e
f7
02
10
f4
ff
ee
ec
fe
f2
ed
0a
f3
0f
0c
03
12
f7
fe
07
ef
06
09
ff
f5
f4
f5
0f
ef
11
03
0f
0c
11
08
fb
f8
f9
fb
00
08
00
fe
04
fa
08
12
f0
06
05
08
03
0d
f9
00
0c
12
04
ff
09
05
f4
ee
f2
11
fb
fc
0d
f1
08
f0
01
fd
0f
0d
0e
ec
0d
f6
fd
fc
06
03
13
f4
00
09
06
03
03
11
ff
13
02
f1
07
ff
06
f4
f6
0f
f5
f6
ee
0d
f6
13
0c
ec
f8
09
03
f3
0b
fe
09
f0
fb
0e
04
fc
ed
03
ef
09
0c
f2
fa
f2
fc
0d
13
ee
11
fa
01
f2
0b
f2
ee
fc
0d
f9
fd
0c
ff
03
f8
f5
0d
0a
00
f8
07
06
13
ec
0c
0a
07
00
ff
f1
f3
fa
ef
fd
04
fe
f7
f4
10
0b
13
fc
03
fc
fd
05
f4
f9
f2
09
07
0d
0f
04
0b
f4
fd
f1
f7
02
f2
f7
f8
f2
f8
f9
0d
10
ef
04
fe
01
f6
00
10
ed
f9
f3
ef
06
f6
ff
13
f0
11
0a
f9
05
10
04
11
03
f2
0e
fe
0c
0d
f8
03
0f
f4
ef
fd
00
f9
0b
f6
10
04
fb
04
f3
07
fa
ec
09
12
01
f5
04
11
fb
12
0e
ef
fc
08
0d
f2
f2
0a
ed
06
0a
01
0d
f3
0e
0a
f4
f0
f8
ec
06
ef
f9
0c
ff
11
0e
03
fd
09
f3
03
10
0f
f7
06
ef
f7
06
ec
0e
05
0e
06
f7
f5
09
f2
0a
f9
12
0b
f9
fe
ee
ed
f0
f1
03
f8
f7
0d
11
ff
f6
08
ec
10
f3
ef
04
05
02
0b
05
fc
f8
ee
04
0b
11
11
07
03
0e
0c
0c
f3
fb
f2
f8
13
f0
fb
f3
0c
ef
fc
fa
f5
ed
0e
13
0e
f5
f7
0c
0b
12
12
f0
ee
fe
0d
f4
fc
f4
fe
0a
07
ec
f3
0e
f6
f7
f3
fb
f4
f5
09
05
00
f1
f9
fe
ed
f1
0d
ed
10
11
04
05
0a
12
0f
f1
ff
13
13
fd
ef
0d
08
f2
05
f5
03
0f
f8
04
0f
00
f2
f1
0e
f3
12
f2
ff
fb
03
ec
fe
0c
0c
06
0a
f2
08
fa
fc
ed
0b
ff
ef
0c
f6
f3
f4
0c
fc
fa
09
fb
f3
01
fd
0c
ec
12
f7
f0
ee
04
fb
f5
0e
ec
ff
0f
fc
13
ec
ef
f9
06
f3
0c
ee
f8
08
00
06
ef
06
f0
ef
0b
ee
f5
02
12
f4
fb
10
09
08
12
f0
f7
fd
f4
09
05
f5
0d
ff
09
0f
ec
07
f2
0f
08
11
fd
11
f8
05
fd
0f
fe
ef
12
f7
10
02
0c
10
09
07
f7
09
fb
0c
f9
02
0f
09
f2
01
13
05
ff
04
f0
08
f4
05
12
0f
09
f9
03
08
f0
f5
13
f2
12
00
11
0c
07
fa
ee
00
fb
11
06
08
0a
f7
10
05
fb
fb
09
05
09
0d
f7
fa
07
00
02
ee
00
f9
0b
f3
05
0b
0a
fa
fe
0a
f6
f7
f7
f3
f0
0a
f5
ff
fd
f2
0b
f8
04
fc
f1
03
05
0b
09
06
f3
0f
0d
ee
03
0a
10
12
08
07
0a
fa
0d
04
0b
f5
f7
f9
f2
ef
ee
ee
0d
fb
04
ef
ec
f4
06
f6
0a
05
01
07
ee
0b
f8
f6
f7
f1
0e
0d
01
ee
06
02
13
13
08
f9
04
f5
f6
f2
f9
ee
0d
0d
f8
11
03
0f
03
07
f7
f6
f8
13
f0
f4
05
09
0f
04
0d
f9
ef
f2
fd
fc
06
00
fa
f5
f7
03
06
ef
05
fa
0c
06
05
f4
04
11
f4
f2
ef
fc
fd
06
f5
13
04
0c
02
fc
04
f3
0f
fc
f2
fe
12
0d
f8
fe
0b
f2
f4
0f
0e
ec
f4
fc
12
04
07
f5
0f
07
f0
10
10
09
0c
0a
0a
01
02
f8
0f
08
03
ef
ef
f6
fe
f8
ee
03
f6
fa
ec
09
0a
09
12
12
09
f9
0f
f6
0b
00
f4
11
11
f1
fa
01
12
03
ef
00
ff
f2
03
ee
ff
0d
0f
ec
fd
fe
fb
01
fd
f4
f9
f6
ec
fe
ef
fb
ee
f6
0b
07
f6
10
f9
ed
ef
04
0e
05
07
0b
09
f8
11
0a
12
fa
0d
fd
f5
fa
f6
12
02
f9
07
ec
0c
05
f1
f9
13
ee
09
fa
11
10
04
01
05
0b
0d
fc
fa
11
11
04
07
f1
09
05
00
01
03
05
13
f0
f8
ff
0f
fe
ff
fa
ef
09
06
0e
0b
ed
01
08
fe
fe
f0
11
ff
fc
07
0f
0c
0f
ed
05
00
08
0d
f8
f6
0c
08
05
f1
fb
07
11
03
05
f4
12
f1
0b
03
01
ec
0c
0f
f2
12
0f
06
0b
0c
f4
06
f1
13
13
13
f2
fc
f8
05
fa
fe
f6
08
00
02
05
ee
f8
0c
fa
f9
fb
11
f0
f5
0b
0a
0f
ff
04
fb
fd
fa
fe
f1
0a
09
0a
02
0d
06
10
01
0e
0a
03
12
ec
f1
f6
08
0c
fb
12
f4
f6
ee
f2
07
f7
f0
0d
f8
fe
01
0c
fd
0e
f2
00
f2
05
0d
fd
0d
f5
ee
f3
ef
03
09
fc
13
fe
f4
f4
0b
fd
fb
fd
02
fd
fa
00
04
0d
ec
0d
f8
07
fa
f3
0d
0f
f8
fa
06
fd
f7
0d
10
f8
f9
fe
11
f3
0f
f2
08
13
01
05
f7
06
f6
ee
00
fc
f6
06
08
01
06
08
07
05
f9
00
13
fb
03
0e
f0
ef
ef
11
f8
f5
ee
f1
04
f1
0a
08
02
0d
11
09
f9
08
f1
03
06
0b
ee
12
f5
f0
06
ef
0b
f6
f5
09
10
ee
fd
f8
0f
f1
f0
0e
f4
08
0b
fb
03
ef
fd
07
ee
09
0c
f4
ed
fe
01
06
00
ff
07
0f
ec
f9
f6
fe
02
05
ee
00
f3
11
0f
00
02
f8
10
13
0c
f9
f7
ed
05
01
ed
f9
f3
fb
f0
fb
f5
fc
ff
ee
0d
fc
f7
02
f3
0e
f3
f7
09
fa
ec
00
11
10
04
00
ed
10
13
05
f8
fb
f7
0f
f8
11
13
07
f7
0b
f0
12
0f
10
03
0d
f8
0a
fa
fd
f5
12
ef
ff
f1
0f
f2
11
13
ec
f5
0e
f6
f7
ff
f5
fc
fe
fa
f5
12
ff
12
01
ec
ec
f6
f1
0f
06
fd
f0
f3
03
09
ee
12
06
fe
07
f6
08
