0000020b
00000198
000001c1
fffffebf
ffffff86
ffffff3b
fffffea3
ffffff06
ffffffe3
00000064
0000016d
fffffddd
000002b1
ffffffbd
0000024e
000001c8
0000017c
000000cd
00000239
fffffec1
fffffeb4
fffffc55
000001b6
00000194
00000308
00000023
fffffe08
000001e0
000000a4
fffffccb
00000366
00000206
fffffe88
ffffffb9
00000334
000001b7
fffffe72
00000384
fffffc44
fffffdbd
00000191
ffffffa6
000001ce
00000302
fffffff9
fffffd8c
ffffff47
ffffff26
000000cc
ffffff4a
ffffffc6
fffffe18
0000030b
ffffffe8
fffffe06
000000b1
00000318
00000022
fffffc8a
00000056
fffffc38
fffffc3b
00000141
000002a6
ffffffa7
000001d8
000002ae
ffffff7b
fffffd50
fffffe20
fffffdc8
0000034d
00000397
fffffcac
00000156
ffffff6e
00000084
00000296
ffffffe8
fffffe8f
ffffff82
fffffdb1
fffffc22
0000018c
000003ce
fffffcd3
00000040
fffffc60
00000016
fffffc51
00000364
0000011f
000000f7
ffffff1e
fffffc1e
000000f5
00000068
0000021e
00000204
fffffffc
fffffd67
fffffdad
fffffc5e
00000281
ffffff34
fffffd36
000003d1
ffffffce
ffffffe4
fffffe8f
fffffcc8
fffffce1
00000089
00000231
fffffd5a
fffffef8
fffffd6e
000003b9
0000026e
fffffe77
