ee
e2
05
17
03
f7
e7
f2
08
f8
f7
1a
f4
02
05
1b
18
e5
f5
fd
0a
00
ea
05
07
0c
f1
ff
ed
f7
f3
fa
e4
04
ea
e2
fa
06
04
1d
09
f7
15
ff
15
f2
ef
fa
f3
07
ea
ea
ec
14
f4
ee
e7
e5
1d
03
fb
ea
0d
ef
f5
fb
02
0b
09
19
1c
ff
f0
04
18
fe
fc
e6
ec
11
fe
f8
0f
1c
09
0a
0a
0e
0b
06
e7
e4
ff
0b
0d
07
06
f0
18
fb
f9
10
f1
fe
02
fe
1b
09
1b
f4
fe
f8
0e
ea
0b
02
f8
1a
f7
02
ec
16
0f
f3
f5
07
18
10
1b
0c
10
e5
04
07
f4
03
12
0a
e4
e8
e4
fc
07
ee
03
01
13
f9
e4
e9
ee
e3
f8
19
e5
18
12
f6
19
00
fe
1a
f3
13
fe
07
e2
ff
ff
e9
e2
e3
f1
15
15
e6
1d
06
fd
ef
f6
1a
e7
1d
0e
18
e9
1d
f2
fa
e2
fc
f5
ec
fe
02
17
16
12
ed
13
16
19
11
1b
1a
00
ec
fb
19
ff
19
f9
f0
10
14
e2
ef
e4
f1
1a
fd
e8
fb
e9
0b
18
04
13
18
0a
f2
fd
0b
f5
1c
e6
17
1b
ee
fa
e4
1d
e2
e2
f6
e4
ea
fe
07
eb
e7
fd
f2
ed
0d
f6
f9
ff
fa
eb
fb
f8
e2
fe
f8
13
0e
19
e6
e4
1b
09
fd
f9
e8
e9
1a
05
ee
0b
ea
f4
e3
f2
13
e6
09
eb
0f
e6
f0
19
04
f7
04
eb
ec
e6
f7
0d
fc
15
ef
ec
03
00
f2
14
ec
fd
08
10
e8
fe
ff
01
fb
00
1d
19
f5
fe
e9
fa
0f
02
eb
f6
f5
f3
f4
f7
0a
0c
12
f7
13
11
17
12
ee
06
1c
18
ff
f4
ea
ed
f0
f1
e8
14
09
09
ef
10
13
18
0e
09
01
f0
1b
e3
03
12
14
fd
fd
f2
18
06
fc
f9
f5
19
fe
18
1b
09
fd
0d
f0
e4
e9
ef
e4
f5
03
07
e4
f9
0d
0c
ea
e4
ed
ee
0f
e6
ef
fc
08
ec
03
04
06
ff
1a
10
f2
10
ec
07
e9
ec
ea
e6
f1
f8
16
04
e5
09
f5
ed
03
05
e7
01
fb
e2
0b
12
e3
09
14
02
f1
fd
e3
fb
f2
ee
12
08
00
0b
f8
e7
f9
0c
fb
f0
1a
11
12
ee
0f
05
eb
e6
06
09
0b
15
19
ed
11
0a
fc
1d
00
19
00
e9
ee
e3
02
ec
fc
0b
f3
ed
e7
00
ea
e8
02
12
0d
ec
fb
ef
0f
14
ef
f0
f9
ea
0d
18
ff
1a
e9
ec
04
f6
04
f6
e9
ee
f2
1b
1a
e5
f9
14
04
f9
03
f7
0e
07
15
1d
e9
f6
16
12
0a
e6
ef
f1
e3
1b
11
f2
ee
0c
0e
02
f9
ed
1c
f3
e4
15
f8
ed
e7
0c
16
14
fa
ff
1c
08
e7
ee
eb
fa
08
ed
06
18
f7
e3
ef
f9
ea
e9
eb
f4
fc
06
1c
03
f7
11
16
eb
e6
19
e4
03
15
ea
f9
ea
14
ef
f6
f8
e5
0f
f4
13
e5
09
f0
0c
e3
02
ec
e4
11
f9
e8
18
e4
15
0e
e2
15
e2
15
17
f8
fa
e2
e4
f1
15
f9
1a
07
e4
05
02
19
00
16
fa
08
1a
ed
08
1c
fe
0c
0f
e5
f4
11
ff
fe
01
0b
f4
ed
1b
08
05
ee
01
0b
0e
07
0a
19
ff
f5
ec
fd
e9
05
ff
e3
04
fc
fb
ed
11
ef
08
fc
00
f5
f0
e8
00
ee
e7
12
fb
fa
08
f4
fa
f1
0d
03
f1
19
ec
ee
f6
18
03
fe
19
e6
1b
1b
e7
e6
08
17
e4
e2
f5
e5
01
10
f7
fb
f8
f6
ee
0b
19
10
17
f2
fe
e3
fc
01
e8
18
1d
13
f8
eb
ec
e7
02
fc
1a
e9
04
07
0d
e6
05
f5
12
0a
eb
eb
13
e3
fb
1a
e5
f5
18
fc
18
e8
f5
ef
f2
f8
e7
16
05
e6
e2
16
1a
0f
10
08
fb
fb
fa
11
f6
f8
ff
02
f9
0e
09
e3
f7
18
f9
0a
09
06
0a
01
fa
11
0b
f1
e4
1a
15
19
e3
0a
1c
17
f1
ec
1a
ed
0c
1b
f0
f5
ee
11
f5
f3
ee
15
f2
08
f5
01
f5
ec
10
e4
17
11
0f
fd
02
ea
ff
f2
01
fa
e9
0d
fd
0f
13
f4
e5
1d
01
ff
e9
1d
03
f6
ee
f6
ff
ef
fa
18
14
e8
07
e5
1a
04
11
03
e8
ed
f6
16
05
e2
00
e3
f3
0c
06
e3
f9
09
1d
02
f6
e5
16
f8
eb
e2
f8
ff
f6
ec
ee
f6
fd
f9
00
fe
f6
e8
02
e2
f5
1d
ec
06
e4
fd
f8
e6
e5
eb
04
0e
10
02
f9
16
fb
00
13
01
e3
e6
e3
08
03
ff
11
f8
0f
07
13
18
e3
0a
0b
03
12
1c
00
0f
02
f2
12
ea
07
ed
01
fe
f8
0b
e2
fc
f1
ec
ed
f1
f8
1a
07
e8
14
0b
16
ff
0a
15
fb
12
03
e7
06
e6
19
ee
e8
fb
1d
15
13
0f
05
fe
fb
15
fb
09
0d
12
0f
05
03
19
e2
ee
04
fb
e7
14
ec
ed
f1
18
17
ec
07
ed
fc
0c
f7
1a
11
11
f3
09
10
e9
fd
f9
ff
e3
ee
0e
f2
e8
10
07
e2
ef
f9
e7
e4
e5
0f
17
fb
09
f3
e3
06
e9
1a
1c
02
f8
f8
e2
14
05
e6
f1
07
eb
e3
f4
ea
00
14
e8
f0
fa
11
1d
12
05
ef
0a
e7
e6
05
11
e4
f6
1b
15
f8
ee
e3
f7
1c
14
19
f8
00
06
03
f1
09
09
ff
14
ee
1d
0c
ee
ee
f3
02
fd
14
0e
fc
e6
09
f2
f2
f1
fd
13
f8
12
0e
04
17
fa
08
09
f5
0f
fb
0d
f5
f2
11
18
e5
03
0c
0a
07
e7
ed
12
e8
09
00
1c
10
10
fd
06
fe
f6
f7
1d
09
ee
f8
07
e8
f8
14
18
f4
10
15
fc
08
fd
f1
ea
ec
ed
06
03
02
07
e4
ef
04
f5
e4
1a
e6
ff
fa
f8
11
e7
ef
1d
f2
07
e3
e9
07
eb
04
ee
fd
0c
e7
0d
ed
19
e9
12
08
ed
ed
14
fd
06
f1
e4
ef
14
fe
f9
f7
e7
11
03
07
04
17
05
ed
e5
1d
03
08
fb
fb
fd
00
16
ec
e9
fb
fc
fa
f9
1d
04
17
e8
f7
fc
1c
ea
07
05
11
0b
ee
fc
0a
f8
11
e4
f1
12
1b
16
fb
e3
13
ec
13
eb
fb
f4
e8
0b
06
13
10
19
19
1c
f6
05
08
01
0c
ff
00
ef
03
02
ed
05
0e
e8
14
f8
0b
0d
1c
04
17
02
01
08
fd
1a
03
e4
fa
1d
fe
f7
0c
0f
14
15
18
e9
fd
18
1b
fd
ed
13
e7
1b
13
ea
e5
ff
14
1a
ee
17
07
fb
07
e6
14
05
e4
f1
19
e9
00
09
e9
e2
ed
11
11
01
10
16
1c
e8
12
fc
15
01
15
ef
f2
1b
1b
f2
f1
18
0f
1d
ff
ef
e7
fa
03
12
e6
f2
e9
f3
07
ee
f4
17
18
e5
f0
ff
fa
11
1c
0d
0d
05
1a
01
fb
fc
09
19
e9
08
0f
f2
f6
f6
e7
0d
0e
e3
0f
05
01
08
15
ef
0e
ea
e5
12
f1
ee
f8
06
e4
e2
0d
16
f0
1a
0f
0f
15
f9
ec
ed
f3
1d
f2
f6
03
ec
0b
0c
ed
02
0d
f6
f1
18
04
18
f9
e4
01
f3
12
f6
10
11
fe
f5
17
00
e4
06
0f
07
f6
e8
1d
0a
1d
0b
ff
0f
02
f8
00
e3
e4
0d
02
19
f3
1a
f4
1d
0a
e2
f9
f8
01
f5
f3
fb
fb
fb
e2
f5
15
f1
f5
ea
0b
ef
f8
0d
e3
fc
e9
0b
f7
12
0b
fe
08
ef
0e
1b
01
1d
fe
0a
05
ff
18
07
e2
15
f8
18
12
07
07
f1
12
01
13
e5
fc
05
10
1c
03
f1
1c
e6
02
f1
0e
ee
16
e6
fa
1b
f4
0f
12
f1
e2
fe
15
1b
fc
e2
fd
06
e3
f1
ea
1a
13
f6
e3
1b
f2
e9
ef
ef
06
eb
f8
fe
15
0a
ec
08
ff
1b
0d
e4
ed
0c
e5
03
fd
0d
12
f9
19
1a
15
ea
15
0d
e8
f0
0b
0a
0e
1b
04
ea
15
ff
13
e8
05
15
15
13
f7
eb
ea
0e
13
1b
0e
09
12
08
12
06
e3
fe
e8
e7
15
0b
ea
1c
10
f0
0e
0d
11
0e
0a
e5
f6
f7
1b
e6
fa
14
04
09
eb
18
0f
ed
17
10
ea
f4
f4
09
0f
15
ee
ec
ff
1b
19
08
e9
05
e6
1d
ff
16
e2
1d
14
12
f0
e7
ed
e2
07
14
ea
09
16
03
f0
12
07
01
1c
11
01
ed
06
05
1c
e8
0d
05
0f
ee
e4
fd
05
e3
f8
08
f8
fb
fe
12
15
ed
f5
fb
f3
1b
1d
14
13
16
1b
fa
fe
0b
fb
13
1a
fa
10
11
1d
19
0e
1d
f4
fe
14
f9
eb
02
08
e5
e2
19
13
0f
f6
05
e6
15
02
fc
f1
eb
e5
19
0f
15
e7
1c
e7
19
13
fa
e4
00
ed
09
0f
e6
f5
e8
e9
e4
ff
e7
f0
1d
17
e6
17
ec
ff
e2
ff
13
02
ed
f8
13
14
05
09
05
13
1d
e4
09
fd
e2
f3
f8
e6
e9
e3
ee
09
ea
ea
11
f6
ee
fe
10
13
1b
ef
13
17
0c
00
11
f7
f0
eb
fd
09
0e
fc
06
02
e6
05
04
02
e7
ef
f9
1b
fb
ea
0d
0d
f7
0d
1a
0f
f3
e3
fe
16
15
19
13
e8
12
08
07
ec
15
0f
fe
18
e7
ea
13
ed
f1
fa
0f
02
07
14
fb
17
0e
04
e6
ff
08
fa
e9
16
f1
f8
e9
1b
18
f8
1a
00
ec
1b
f7
e2
ff
f0
1b
fb
e5
fe
fd
e5
f1
04
f7
1c
ea
0a
f6
15
fb
04
fc
03
ee
fd
e9
16
0e
15
f4
06
0d
07
03
fb
02
14
ec
f8
13
f9
15
f6
ec
16
ed
ee
09
fd
eb
f1
0e
eb
f8
1c
e6
02
16
eb
e3
00
fe
17
f1
e8
11
e2
e2
fc
0b
e3
ec
e3
ed
f7
0b
e9
13
10
03
e2
07
16
f4
13
19
e6
1d
13
09
17
eb
f9
e7
1d
ec
12
14
02
03
02
17
00
ed
1c
01
f5
1a
1d
f3
02
ec
fd
f5
0a
f6
11
e6
e9
f7
f8
e9
e7
09
ef
0a
05
ec
ef
f8
f7
fa
ed
e5
0c
f8
f3
09
0d
e2
0c
1b
fe
fc
0e
1c
00
ec
10
f3
19
0e
f9
e3
06
16
f6
e4
12
e6
f0
e3
02
e7
e4
f8
0b
17
fd
0a
fc
f9
0f
0b
e3
11
f7
fb
14
f1
0e
17
18
e9
0b
fb
08
fb
fc
ef
14
f4
0d
e2
1c
04
f0
17
f4
fe
ec
f3
11
e6
16
18
05
0c
0b
0d
e8
1b
e3
0b
f4
15
02
f7
fc
0b
18
ec
14
ef
f5
ea
f2
04
eb
fc
05
1c
e6
02
05
16
f8
f8
e3
f9
0c
0c
f2
ea
ff
0f
f0
e8
f9
ee
f1
14
f0
e2
e8
0f
f1
0f
04
17
0b
1d
12
fe
ef
e2
11
0a
f0
03
03
f8
0b
fe
fe
18
13
e2
18
ea
05
07
19
ed
f0
1c
ec
f9
fb
08
13
f0
e5
09
05
00
f4
e3
09
1d
f7
14
1a
16
e2
19
17
03
13
e7
f0
f5
0a
1c
ec
1b
f4
ea
1a
ee
0a
04
16
e6
16
17
13
07
0b
f9
fb
0f
07
e5
e3
04
fc
08
fb
09
fb
0a
eb
1c
1c
f9
0f
e7
e7
eb
0e
11
02
f3
f0
1b
0e
00
04
ec
02
fc
fe
12
ef
0f
0a
e3
04
f5
f0
11
05
02
0b
e4
00
f6
06
e2
f3
15
10
0d
ec
e7
10
05
eb
1c
f8
00
00
f0
16
e3
09
ee
fd
07
0e
15
0d
0a
fe
eb
f6
0e
f7
f3
00
f8
ef
eb
f0
f0
ea
10
fd
fb
f7
e7
fe
e7
f2
17
e2
17
17
02
06
e9
f5
f3
e6
0f
02
f8
e5
0f
17
ee
f4
06
05
e4
15
13
0e
03
09
e7
ee
12
e4
13
1a
0c
fe
e7
e8
e2
1d
ea
1b
fd
f4
f1
05
05
fe
f3
01
0f
1b
08
06
fe
ec
13
17
fe
e3
01
ef
eb
0a
19
00
11
15
14
0a
e7
08
e8
1b
fa
f3
1a
f7
ec
0d
02
08
e4
f8
f5
ef
fb
0c
0d
10
1d
f9
18
f0
eb
f3
e4
06
e3
e7
e2
e2
1b
18
e3
ed
16
f1
fb
ff
ec
11
eb
ea
fc
f8
fc
17
16
0a
eb
e2
13
ea
eb
18
f5
f0
fb
16
1b
f3
14
e6
ed
e9
16
16
0f
fc
e8
f1
16
00
f4
09
17
10
05
e8
07
f0
0e
09
06
1a
f0
f8
f7
1a
02
06
0d
ff
f2
0a
e6
00
16
f8
07
ec
06
f9
f8
16
03
11
19
fd
02
e2
ed
f3
fd
fe
07
05
fa
06
ec
09
0a
0f
1b
e8
ff
ee
f2
f7
fe
fc
e2
01
1d
e7
ff
f7
1a
09
e5
eb
11
f8
ed
0e
e6
00
13
16
1b
15
e7
fe
17
ff
f5
ee
fb
ec
07
f6
17
1d
ed
fd
02
1b
1d
17
0f
e9
ff
0d
f8
f2
1a
0d
ff
1d
e2
f6
03
f0
f1
ff
e7
07
eb
16
e9
1a
f2
0d
1a
fa
0d
12
0e
f6
11
18
0b
f4
1a
0c
15
0b
0c
f4
10
fe
0d
f3
12
ef
0b
10
18
ec
1a
01
06
17
fa
f4
ff
f7
1c
03
f7
e8
e8
07
ed
f7
09
16
0a
f6
e6
fd
16
ef
05
f3
f2
01
05
f3
fd
17
ec
12
f9
f5
f8
0f
f4
f4
ef
fa
12
ef
07
f0
19
1a
15
0d
04
0b
1b
02
e7
06
09
e7
0a
13
1c
05
e9
ed
17
12
0c
0d
19
07
e5
e8
fb
f6
e6
f7
03
1d
16
f1
07
04
0e
e5
fb
f1
19
ef
1d
10
f0
f1
11
ef
ed
e7
01
09
1d
f1
03
16
f3
e5
16
04
e7
03
02
1a
eb
e3
fc
f4
10
0f
ec
04
1c
fd
15
f6
f5
0d
fb
15
fa
fc
00
f5
0a
09
ee
e8
16
0b
0f
ed
02
13
fe
fa
0b
f1
08
09
fa
04
eb
00
f1
ff
15
f9
ed
1b
e5
17
08
03
12
e4
0d
0f
07
13
00
e7
f9
eb
e7
ee
e5
fb
ff
e9
f3
08
f7
1d
ff
f6
f6
0c
15
fe
01
e2
fa
16
15
f6
07
f5
ee
ef
06
f6
12
16
fd
13
0e
05
e8
12
e4
01
e3
01
09
f6
ef
e6
f2
0c
e6
ff
17
06
e8
e3
e6
ef
0b
ee
17
14
0f
0b
f2
16
00
0b
11
12
07
10
f8
03
ea
0c
f0
e6
01
02
f1
10
f8
1a
f5
fc
fa
f2
0c
12
07
16
07
13
1a
f5
ec
05
f6
17
0f
ea
ed
08
f2
05
e9
13
e6
e7
00
e8
ff
09
0b
e7
14
11
f4
0c
fc
f1
f6
01
06
16
18
09
e8
19
e8
ea
01
0e
ea
f6
1c
ea
11
f4
0e
0b
11
04
e5
11
02
15
eb
e4
f7
fc
11
19
17
e3
14
e4
f9
1a
f7
f9
0d
eb
00
01
eb
01
0c
17
e2
fc
14
18
f6
e8
f9
f4
0d
0c
1b
08
e8
04
f6
11
e4
14
14
10
00
13
f0
f1
f5
ed
09
13
f0
e8
ff
13
f0
05
00
f6
16
f4
ec
f1
05
12
05
01
09
e9
0e
f7
e4
ea
ee
14
0a
e2
1b
00
09
ef
15
1b
18
0e
0e
e7
12
04
0b
f9
f0
12
1b
11
f7
fe
ef
0f
e5
e9
fb
e6
05
03
e8
18
04
08
0f
e4
f3
06
04
f7
f7
e9
ee
17
f3
07
06
e3
05
0b
0d
14
fd
f6
0b
f0
08
e6
06
04
f5
15
07
e9
fb
14
fa
e6
07
ed
f8
1b
14
0c
01
15
1a
10
f2
08
10
12
04
f4
11
ee
1c
ef
ef
ed
0b
08
e6
10
16
eb
1a
12
f2
f0
ee
f1
e2
f9
12
1c
e2
fa
1c
0f
ee
03
08
12
f6
02
1b
14
1b
1b
05
e6
0c
ef
07
12
18
1b
fc
1b
fd
15
ee
f1
e7
f1
05
ef
11
0f
e3
17
14
fd
16
ef
e2
1d
ea
e2
e9
08
e7
10
ef
01
fa
e9
eb
eb
f9
f4
eb
fb
11
e3
fe
12
12
fc
1b
13
05
16
f5
ef
1d
1a
0f
eb
f0
15
10
e8
fc
19
e6
ef
f7
1d
1c
18
f5
f2
ee
13
f7
10
f4
13
ec
11
f4
06
f3
19
0c
10
0e
e4
e4
1b
02
f7
1d
0c
05
13
1b
1a
fa
ed
f8
ea
02
06
e4
f1
ea
e4
1d
ee
0a
0e
00
06
f0
0f
08
12
fb
f4
f8
f3
f0
15
0c
fd
e8
10
02
e8
ef
e4
f5
ef
0b
13
ff
eb
fb
15
04
18
e9
19
f5
e9
02
03
fe
eb
12
ff
1d
16
0d
05
f9
0e
14
eb
ec
ea
12
1c
ed
0b
e9
12
f5
e6
ea
fd
fc
07
fa
f3
0c
f9
10
15
f3
e9
16
f4
00
ed
fc
0a
f8
1a
04
0b
e7
1d
e3
f0
f6
f7
fb
0b
fd
07
07
0c
18
0c
ff
08
03
10
fb
ed
e3
0c
fb
00
07
03
12
e2
ef
fa
ec
eb
fe
e7
f7
fe
16
17
0b
ee
ed
0e
06
f6
19
e5
fd
fb
0f
e3
12
ea
0b
0f
03
17
08
09
f9
fd
1c
0f
0f
fd
e4
1d
18
06
09
19
ee
1c
12
ee
ea
fd
f8
fc
0a
f2
fd
fb
fc
ec
02
ed
1b
f2
fc
f8
17
02
1c
f4
ec
f5
fc
f7
18
09
18
0f
f9
f2
03
e9
f1
fd
14
15
ef
13
14
f6
eb
0e
f2
ed
e2
ee
15
01
f5
ff
19
f0
e4
f2
1b
07
11
15
09
f6
f1
17
11
06
0e
00
1d
07
e5
1c
03
f0
e7
e2
03
fb
fe
1c
10
fd
12
fa
e5
19
03
03
06
ff
f5
e7
05
12
f9
e6
08
f0
06
e2
1b
1d
07
e2
e2
0c
1b
e4
ed
00
eb
ea
f8
f5
16
ec
e4
f4
f1
f3
17
19
fe
fb
e2
ee
ef
17
f3
fe
16
f4
14
e8
0d
fe
1b
f6
f9
09
e8
fa
17
1d
17
e8
1a
0c
0b
08
e7
08
e4
00
1c
e8
13
09
e7
ff
0a
06
e6
ed
13
18
fa
f0
02
0f
0a
f7
01
ec
13
11
ed
e7
f9
06
e2
ea
14
0d
16
1d
f3
f6
e3
f7
ed
e9
11
f1
f4
16
fa
ea
e5
fa
f3
e3
ec
19
f8
1d
f5
13
f8
0a
fe
ea
fd
f0
19
fa
f1
03
08
ed
0c
fe
1c
1b
04
f3
ff
06
fb
0a
fe
0b
04
1c
e2
06
00
e8
e5
0c
f8
05
17
ed
ea
f8
f8
17
09
f1
0e
09
05
15
11
11
0c
f4
e3
ff
ea
fa
fa
ef
e6
fe
f4
0d
00
08
0b
ef
1d
0a
1c
fb
ff
e9
f3
04
f1
e2
0d
16
11
f3
11
f1
ed
17
ff
0d
e7
e8
19
e3
f2
16
f1
0e
eb
18
e9
02
00
0f
0b
fc
09
eb
e6
e7
f5
10
15
ee
09
f5
0d
fd
19
ee
11
f6
eb
e5
ea
e5
14
ed
ea
0d
0f
14
1c
fa
10
e7
1b
00
03
10
ec
f9
f0
fb
fd
01
fd
0e
17
ee
1b
12
f9
ff
f4
13
ee
08
ec
13
e7
fd
e4
f1
17
0e
07
f5
0c
1d
09
07
ee
e7
e4
05
1b
fd
0b
15
0a
1c
f7
10
18
17
0f
1a
04
07
1a
0c
fa
e7
f1
fd
f6
10
11
02
0c
fe
1d
f0
ff
fe
04
ee
f6
e9
16
f4
11
e8
f2
e6
f6
f4
00
00
14
18
19
f0
08
fb
f7
f3
10
e8
f2
fa
e4
0e
0b
ed
f8
f9
08
fb
fa
ed
f4
09
0b
1b
12
1a
0e
e7
07
14
01
ea
fd
ef
e9
02
f1
0b
07
15
03
1b
07
18
f8
18
f5
05
18
16
f5
f5
eb
f5
f9
19
ff
e4
f1
05
14
10
12
11
f2
f8
e4
18
0f
fd
e7
1c
10
f4
19
f0
1b
13
f0
fe
0a
ed
e4
13
01
f8
f0
1a
f9
f8
ff
0f
18
13
f6
0a
e3
e9
13
f1
ff
f7
f1
0c
18
f1
14
10
fc
ed
ec
00
eb
1c
e8
00
18
ec
06
e6
ee
13
16
e6
f6
0e
fa
f7
e7
05
08
f3
09
f0
1a
f7
09
06
ea
f1
ee
f3
16
1c
fa
19
f2
f3
11
14
ea
04
03
e7
f7
0f
ee
e7
f3
eb
0f
0c
f3
e3
09
08
e2
0d
00
f3
f1
f5
ee
eb
15
05
f7
03
f7
ea
0e
1a
0c
10
1a
16
fd
f8
16
02
ee
ea
e2
f4
f3
ee
f8
1c
0d
e7
03
0e
fd
fd
fa
f9
12
ec
e3
08
19
0d
1b
e5
fd
1b
fb
17
fe
14
18
f5
03
1d
ed
e9
0d
f9
e3
0e
16
12
e8
f4
12
07
1a
e9
11
e9
e9
01
14
05
17
09
09
f4
1c
f0
06
f3
fc
ec
00
0c
ef
e6
08
f4
13
12
e2
f1
13
ef
e7
ed
e8
17
fe
ea
12
f1
04
17
18
12
ef
15
13
e9
ee
e9
fb
ea
f5
fc
14
08
e8
01
03
0f
f2
f2
04
18
ef
e6
0a
f4
09
07
0e
1a
0c
f5
eb
f5
f1
ff
e4
f0
18
13
e7
17
e4
e5
e9
e3
03
0e
0f
e6
e9
ee
fa
f8
ed
0f
fc
fa
07
10
e9
f7
ed
18
e3
1a
01
f8
02
f4
06
00
01
07
fb
11
f2
ec
ef
ed
07
e6
0e
16
16
12
fb
e2
fe
f3
07
ec
ff
16
fa
1b
fb
15
f7
00
fb
04
fb
18
04
ef
11
06
fa
ec
0f
f1
16
08
f0
f5
15
15
e5
03
15
0c
ed
e4
fd
ea
18
e4
11
1a
f0
f2
16
00
e2
16
f7
ef
ee
01
f8
1b
13
ec
e8
fc
0b
eb
06
08
13
fa
ec
1b
e8
0f
f4
1b
1b
e4
ed
0c
1b
e8
09
0b
f1
04
fb
16
f3
fe
00
f6
fe
00
09
e8
15
19
f2
fd
1d
03
00
10
08
07
04
e2
07
f1
05
f5
0a
e3
00
04
ee
13
12
15
01
1a
04
12
ff
02
18
f5
05
ea
fd
f4
ea
ec
05
e7
18
e7
14
1b
e2
f8
eb
ee
fc
fe
06
0d
f7
e3
e8
ea
05
f8
fb
0b
fd
03
f7
0a
f8
19
f4
f5
04
f2
1d
11
e3
1c
1a
01
0a
e8
f9
0d
f9
06
fa
f7
f2
15
fd
ec
10
f3
fc
e7
08
1b
0d
e6
f3
f0
e4
ea
1c
08
18
1c
13
fe
0f
01
17
eb
f3
1c
e2
0b
12
fe
10
f3
02
eb
1d
ef
f4
e5
ee
18
0b
15
0d
f3
f3
fb
07
02
e9
f2
e4
fa
00
e5
12
f5
0d
fa
ec
e2
07
f1
f8
0b
eb
09
f6
fd
f0
0f
f5
1a
f0
e4
00
fa
0c
1a
0c
18
fe
fd
f6
f1
f0
fa
f1
0e
08
12
1b
fc
19
ee
10
ee
14
ea
01
fb
0d
16
15
13
19
f1
fb
03
05
17
00
0c
1a
f0
06
e9
fd
f4
07
17
0a
e6
f9
08
11
19
16
05
1c
f7
06
15
04
fc
e6
00
f8
1d
1b
fb
fc
e3
e2
e6
0c
09
fc
16
1b
e2
ec
08
f1
ff
06
f8
eb
ef
0d
1b
fb
09
18
14
02
f2
fd
ec
17
15
ff
e5
f7
e7
09
ed
12
ec
e8
0d
fc
11
15
09
07
ed
e5
13
f6
1c
fe
16
f9
f9
f2
07
f8
e4
18
f9
17
02
15
05
10
13
0e
17
e4
16
07
10
16
0c
f4
03
12
01
ef
0a
e7
ee
f7
00
e5
00
06
f5
ea
08
10
f1
e8
0e
fa
e4
19
06
eb
f6
0c
e3
19
0d
0e
01
e4
0a
06
e6
17
1a
f5
eb
0e
f7
05
ea
ee
13
e5
ec
17
14
14
01
05
17
e4
0c
08
eb
f0
ed
f6
12
e3
ee
f2
fc
1b
eb
fc
f6
f7
e9
0b
17
02
0b
f6
f3
f1
18
14
f9
e8
1a
ec
fc
02
11
ed
09
ee
f5
ea
01
f4
f4
f4
f5
0c
fd
e3
05
fc
e5
ed
e3
0a
e8
f6
f8
f7
02
ef
f0
1d
fa
f2
e6
0a
07
05
0a
e7
0f
0c
e8
0d
01
f0
f8
e4
e6
18
09
e2
e4
13
e9
18
1d
15
14
ea
08
f5
fc
fb
e4
1b
f7
1c
e9
e9
09
00
fb
02
ee
ec
fc
09
0f
eb
f1
15
fa
1c
0f
ef
09
07
f6
f0
e6
fb
0f
ea
f4
f4
11
f0
1a
1b
f7
1d
0a
08
10
e3
03
1a
f7
f9
00
e2
e3
15
ff
e4
fd
e9
1c
16
f2
12
e6
fe
0a
f6
e5
ef
1d
e7
fb
f7
06
06
f7
00
e9
f6
f7
15
fd
ec
e3
e4
f6
0f
09
0e
f8
f6
15
1d
1b
fd
f3
0c
f0
ec
1d
e8
fb
03
fd
03
fa
e2
ff
15
0c
15
e7
11
f8
0f
fb
18
00
f3
f2
f5
00
17
f5
00
12
ff
14
fe
ef
0d
fa
0c
ee
fb
f1
00
eb
0f
13
10
eb
0f
fc
e8
0b
f6
06
10
f8
e5
09
0b
03
09
0f
02
fb
fa
fb
12
f0
ee
f0
08
1c
f0
e7
fd
0f
01
f5
13
03
e9
f6
ea
13
fb
1d
15
17
ee
05
e2
1a
ee
03
1a
f9
f2
f6
0f
fe
00
03
e8
e4
e7
15
0c
ed
13
f2
f4
f4
ee
e7
04
e9
16
14
e6
e2
1a
18
ed
09
f5
f2
f4
0b
0d
06
18
07
06
f1
fa
10
f8
f0
fa
06
e3
03
03
14
14
f0
fe
16
15
17
e7
e3
13
15
01
fa
e9
fe
1d
18
ed
f3
04
f6
f7
fb
fb
fb
f1
05
0d
e4
f1
ff
0a
14
fa
fd
ef
04
f6
f9
0f
01
f0
e6
f9
0a
f8
f1
fa
fb
e5
ee
fa
ee
f8
14
e6
08
1d
e2
17
19
f7
1d
15
06
05
17
1c
e7
02
ff
15
0d
15
fd
f0
f7
e4
f4
00
f9
ff
e6
1d
fe
16
fd
e7
e7
e2
14
e2
01
e5
f8
1b
04
12
ee
e7
00
1a
ee
eb
ec
11
e2
f2
f6
0d
0d
11
e2
1a
eb
09
13
e5
19
05
ef
f8
ee
ee
f5
1c
12
e7
00
16
0e
e4
16
fc
0f
f4
04
04
ee
06
e5
12
02
e5
0b
19
f8
f4
e8
15
e6
e2
fa
fc
0a
ef
02
eb
ff
f8
f2
ed
e9
e3
0f
08
0d
06
f7
02
16
14
18
eb
08
ec
eb
06
f9
f0
16
e3
fa
fd
03
e7
f2
10
e5
f6
f9
ee
19
f8
08
fe
13
e5
13
0c
f4
04
0e
16
15
18
fd
ef
00
ed
fd
f0
14
07
11
19
12
ec
f4
eb
ec
e8
07
11
e2
e8
f1
18
15
e8
0e
ff
07
ef
fd
05
fc
ea
1d
f8
e3
12
02
e3
09
06
19
ff
f1
e4
0f
08
e7
ef
13
f1
e2
f8
14
ff
03
04
f5
f2
e2
15
01
ee
1c
f6
04
0c
fc
04
ea
19
ea
e6
f5
10
1a
f4
04
f9
1d
e3
0e
04
e6
f1
fc
f9
11
ff
f1
0d
0b
01
e8
19
ea
fe
18
eb
ef
02
1d
f4
1b
1a
e4
ef
e5
e7
fe
06
e6
15
12
13
eb
f2
e4
ff
01
04
19
fc
13
fd
f1
e4
05
e9
e7
03
ea
ff
ff
1c
e7
f2
e6
fa
e3
08
11
19
14
1d
f7
10
1c
15
fe
1b
f1
06
08
fe
f8
14
f9
eb
eb
e9
14
e7
06
e7
13
0c
e2
e4
06
f7
19
f0
14
18
e7
0c
19
fa
16
ee
ea
fc
ed
16
19
f5
1b
ee
1b
0c
0f
eb
03
15
fb
fc
16
07
e7
09
ee
e3
eb
18
f1
00
03
0e
ee
fa
f9
f5
e9
03
e9
17
12
15
f7
12
e3
0c
19
ec
fe
07
e7
0c
00
10
f8
ed
10
f1
f5
17
f2
e3
ff
0b
0b
0d
09
f2
0a
08
14
00
10
1d
02
fc
e5
19
f0
fd
ed
eb
f8
0a
12
04
1b
06
0a
1b
1d
f1
1a
13
08
f3
03
ef
05
ff
ef
0c
f7
fa
08
e8
0c
f1
fe
08
ff
fb
19
ff
01
ec
18
f9
11
0d
e4
ff
f3
14
00
f8
ed
02
08
e6
fa
fa
07
04
f6
fe
1a
0b
19
11
f5
e3
16
fe
0e
fe
eb
ea
0c
e2
ff
eb
07
ec
05
ef
12
0b
f8
12
fe
16
02
eb
fc
ea
eb
06
1a
f3
e2
00
e2
1d
07
11
fb
1b
00
ea
11
05
1a
1a
04
08
eb
fe
eb
02
ed
e4
f6
12
fb
fc
ee
f5
02
e5
e3
17
fa
e7
10
f3
fe
e3
f4
e3
e2
0f
f2
0e
06
e5
0c
f6
0c
eb
fc
1c
fb
13
ff
09
e7
fa
e3
e5
fa
f1
fa
0a
e3
19
05
10
e9
f1
fa
f8
eb
e9
e6
e4
1b
11
1d
f5
0e
fe
03
02
f2
f0
17
09
06
e8
f7
fc
f3
0e
0d
0a
07
01
0e
0b
19
07
1b
05
e9
13
ef
f1
0e
f0
ee
ee
e4
ee
e2
10
0c
e7
14
f7
ec
ea
fc
05
fd
f8
e9
10
0c
f4
e3
f8
f4
fd
ff
06
e5
e7
fc
15
14
1b
e6
1b
00
eb
11
18
f2
14
ee
0c
0e
1d
f7
fd
13
11
f8
10
f7
ee
fa
f3
fe
eb
ec
17
03
e2
17
0f
fa
18
fd
06
10
0f
17
ff
18
03
12
fe
18
15
f5
f8
0f
1c
f9
00
01
0d
fa
05
16
f1
09
07
19
e3
12
06
ff
fa
ed
06
0f
04
09
0f
17
f2
e6
14
0b
0a
06
0f
1c
06
ed
fd
10
ef
f0
0f
fa
ea
01
01
ef
07
e8
0f
fb
03
18
1a
15
ee
0c
11
ea
04
e5
0f
ea
fd
e4
13
f9
e3
f5
fc
13
00
e4
0a
fc
f2
fe
e9
07
10
16
f7
ff
09
fb
06
08
0c
0f
f5
00
16
ec
05
f4
ea
e5
05
fe
f5
0a
f9
01
0f
ef
e7
fe
f3
f4
ec
fe
01
ea
08
06
e8
eb
03
19
e3
f6
0d
12
e3
e8
13
f8
08
16
0c
19
11
f6
ed
19
e5
03
18
11
f8
ea
ec
ec
13
1c
f9
f4
11
12
ee
12
17
e5
e6
fd
07
fb
f4
10
01
f0
e6
fa
04
03
e9
eb
f8
0b
e5
09
14
14
f0
13
ee
e2
f7
14
08
ef
ee
ee
fd
01
f9
e3
14
fc
f7
e4
e9
0a
e9
e4
1b
0b
1d
11
f1
1c
f3
11
01
10
0a
fe
e6
e8
f7
06
f5
f0
f2
ed
03
eb
ef
f7
16
f5
e4
10
16
fd
ef
17
f2
f2
1b
15
01
ec
1b
e6
f5
19
f3
f9
10
11
1c
e9
10
07
f8
16
ea
06
f3
12
f7
e4
0a
0c
f0
f5
ea
10
f5
f1
05
ea
13
e8
15
fe
fe
eb
0b
e9
fc
eb
ec
12
1d
19
fa
01
fe
ed
19
04
e2
00
e4
ef
10
12
e4
06
1d
08
15
e4
ff
e7
f5
07
e4
05
fb
fb
f3
01
f9
e5
e8
11
eb
19
f6
03
06
1b
fb
fe
e6
e5
04
f4
12
f3
fa
fd
1c
15
f6
ee
f0
e9
e4
f1
16
1a
fc
ec
17
f2
e6
f3
1b
11
02
e2
1b
f1
f6
1a
f6
01
1d
06
15
ff
e8
1a
e2
08
05
e6
0f
16
ff
ee
0a
f9
0b
e4
fc
1d
fa
fc
02
18
f8
fb
18
06
f3
1c
eb
e4
14
01
03
fa
0d
0d
0e
05
fe
0a
1a
f9
ff
fa
e9
e8
e9
0c
fa
e4
02
0d
fd
f4
fd
ec
f8
02
fe
11
17
f5
0e
05
01
0f
0f
10
0d
02
0e
eb
f0
fc
e9
eb
07
fa
e9
00
03
ee
ec
f3
01
fa
f7
f6
05
ed
02
e9
e9
17
0c
f7
f9
f2
e7
1c
0c
ea
f3
fa
03
e7
f1
10
0c
0f
07
17
f1
ff
06
ee
f2
e8
ef
e4
19
f6
fb
12
0f
fd
fa
0a
fc
09
ee
01
1b
e4
f6
fb
f3
05
f2
f5
fa
e4
e8
e2
fa
0d
13
12
0c
fc
ff
11
e8
eb
0e
13
f1
e4
09
e7
16
f8
e8
e6
e9
09
fc
1b
1d
f9
0e
f1
1d
0f
fe
05
fc
07
f8
f2
e8
0b
01
13
ef
14
04
0b
02
e5
ed
01
ff
e5
e3
11
e4
09
08
0d
00
1b
f0
e4
02
08
f6
05
00
eb
ef
16
fd
10
fa
ec
eb
08
1d
ee
0f
10
e8
f0
14
1b
fe
18
04
e3
0d
1d
17
10
fa
e6
14
ee
08
e8
1b
fe
14
f8
13
10
12
0d
13
e3
19
02
16
f8
18
f0
06
04
ff
1c
1d
01
03
ff
18
01
0d
e5
06
07
ef
e8
1d
e3
fb
f0
e8
07
1a
e6
e3
e6
f9
07
ea
18
15
0d
f2
06
fa
0d
13
f3
f1
13
e7
05
fe
e3
1d
0d
02
e8
f5
0b
f9
14
17
0d
1c
0a
eb
f3
0e
ea
0c
04
f8
0f
f1
f8
e2
e4
f1
e6
1b
f6
f6
14
13
f8
e4
19
13
0e
ec
0b
1a
07
09
1b
f2
fa
f1
19
0c
ed
fe
ea
eb
fa
0f
12
12
13
fd
ec
0a
e5
f8
fd
ef
1b
ea
e7
03
ef
ee
13
1b
f6
00
09
f6
15
1b
e4
f1
15
f8
19
1c
eb
f1
e9
14
07
f4
f0
e9
05
ec
08
f6
18
15
0a
04
07
1c
17
0a
fd
1a
e3
e5
05
f4
fc
0c
14
0b
fe
12
ff
04
f8
ff
f7
1d
fd
09
fe
f9
02
1a
03
0c
0b
07
fe
11
e4
1c
f7
f9
1c
e2
1c
e3
eb
e2
e7
e3
19
10
01
ef
08
07
07
f1
11
eb
18
03
eb
0f
f2
f0
14
15
12
f3
02
0d
f2
02
e6
1a
11
f1
11
03
10
0d
16
1d
08
e2
00
1a
14
fd
04
e7
ec
f9
f3
f2
e6
0f
e6
09
fc
18
fb
e8
e4
f9
f4
e3
ee
10
f5
ee
f9
15
f9
19
f6
15
16
07
1c
16
f9
00
0e
16
e2
17
09
10
0a
02
e3
11
11
00
00
03
10
01
03
1a
0a
1c
1b
0b
ea
f4
fd
ec
0e
04
17
ef
08
05
f4
e8
e9
e6
f9
eb
f3
08
09
ee
f5
f0
0a
1b
01
f5
ed
f4
10
e7
fe
ff
18
e7
f4
ee
fb
ff
e7
01
12
ec
e6
0e
09
e8
0d
fb
e8
18
e4
e7
f6
09
05
02
ff
09
e2
fe
0e
ea
e9
f1
f3
f2
e5
e2
15
f5
16
01
04
14
f1
03
04
f9
fe
f2
fe
fe
f8
17
0e
f7
fe
0b
ff
12
0f
ef
fc
05
ec
fa
09
1b
18
e6
fc
1d
03
12
1b
0e
eb
09
16
0b
0c
f1
e2
15
0d
1c
1b
ec
e8
ea
fa
f9
f6
09
f2
09
07
08
0b
0f
ed
f8
e9
ef
fc
14
15
04
0f
0a
13
f6
e9
08
19
10
ee
f4
11
1b
0c
11
f1
ed
1d
04
fe
15
e7
e6
ff
f4
1d
e4
0c
11
ee
1b
03
00
18
f1
16
e5
15
f2
0d
f7
f2
f3
17
0c
0b
01
fd
04
ec
ec
0a
ed
19
e7
f7
f8
18
13
f8
ed
17
ed
f5
01
0d
02
e8
06
0d
f9
0a
eb
fc
14
04
f2
ed
e4
f3
e3
e5
0c
f5
0c
f3
13
ed
08
e4
01
05
ea
03
fe
f3
f3
0e
fc
e7
f9
19
02
0a
00
e4
e3
01
00
fa
1c
ed
08
1b
18
08
e5
02
ec
0c
fa
ef
11
06
10
fe
00
1c
17
00
0e
e5
e8
ee
13
07
06
18
e8
10
fe
1c
07
f8
fd
00
e7
e9
16
ee
03
01
ed
f6
ff
13
1a
0b
ec
17
ee
0c
e8
f5
e9
f0
0c
fb
e6
f4
18
ff
05
ee
02
ed
f2
f9
f8
ed
0f
ee
12
04
05
fe
f7
13
0e
f3
e3
04
e4
f3
fb
f3
0d
0b
0d
07
ec
e9
e8
17
f7
17
02
19
ff
ee
ef
f4
16
16
ed
04
04
f1
fb
e2
1d
08
19
e9
1c
0c
1a
fa
e4
f2
00
ea
1c
e4
14
fb
07
eb
fd
f9
e6
0b
ff
f9
fa
fd
18
ee
06
f3
03
09
f7
06
10
fd
e2
01
0a
e2
f8
e4
04
1a
01
fb
f4
05
e4
18
fe
05
ed
05
fe
15
12
f7
f4
1d
1c
17
11
f7
fa
f9
f7
e5
ec
e4
04
e6
e4
0f
fd
11
fd
1d
19
e4
ec
0d
e2
04
ed
fd
00
11
1d
f9
02
01
f9
f0
04
f2
ef
e5
1c
1a
0e
e5
ec
f8
fc
0e
fd
f8
e2
ec
00
e3
f3
e2
0e
06
e6
ed
1d
07
1c
f2
11
13
14
0d
fc
12
f5
16
f4
18
e2
f3
f0
0e
1a
15
00
00
09
f2
09
19
18
04
11
fc
f6
0c
05
ec
e4
e7
15
17
15
e2
fe
fb
fa
f7
e6
06
14
0d
ea
f9
09
03
fc
01
0a
f1
fa
eb
1d
f0
e2
e7
f4
11
f4
1a
e8
11
eb
18
fd
f7
0d
e3
03
e2
11
e7
f5
01
13
e3
00
1a
e7
16
fc
00
ee
17
f5
fd
13
00
19
f4
ef
00
f5
ee
fa
fd
1b
fe
ed
13
0e
e6
f4
0d
0c
1a
f6
1b
e2
e5
04
f5
09
05
07
ff
19
fd
ec
11
10
10
f0
f4
19
1c
f0
fa
00
eb
ef
fb
16
15
0b
e3
06
06
e5
1a
f8
e9
e9
07
0d
ff
0a
f6
fa
10
ed
00
11
f6
fb
05
fe
e3
01
0c
e3
fb
02
fa
09
09
13
e3
f9
ff
00
f3
f3
e4
18
0f
15
ed
f5
fe
07
14
f0
f5
e6
ea
ea
16
10
0d
0f
fb
e5
0e
ee
fd
15
12
f6
19
e4
e6
e5
f2
f5
ec
13
e4
f3
05
eb
f2
f9
fb
16
f3
01
0e
15
e6
ea
12
0b
05
f4
15
f7
04
eb
e2
14
09
1b
e3
e6
09
01
fc
f0
12
f3
e5
e2
11
03
0f
05
0c
fb
fb
e9
e6
fa
01
0f
ff
16
eb
10
e3
16
f5
1d
04
0a
f8
f4
19
f6
fe
1a
0f
04
12
12
fb
13
0c
18
e4
e5
e2
04
fc
f8
00
fc
1b
fc
f4
f3
f6
11
06
ed
05
e8
f7
f7
11
1c
f8
fb
fb
f3
f9
05
0d
09
f6
eb
0b
00
01
ed
ff
0f
06
13
0f
0d
0a
06
0d
f7
fa
ef
f3
18
ee
10
1c
fd
e9
12
fc
ec
f3
06
12
e5
f8
ff
02
fb
e4
14
08
e8
0c
f0
e4
e7
03
e4
1c
0c
f4
e4
e7
06
17
07
f7
eb
f1
09
0e
07
e5
f4
08
ea
fc
1d
0d
13
11
e7
fc
00
01
fe
ef
fc
eb
1b
e4
0f
0b
ff
07
f4
11
f2
12
09
ff
00
1d
ea
f8
fa
00
eb
e7
fe
16
19
05
17
17
ee
f6
f0
e7
05
fc
14
e9
17
f4
01
e4
fb
f8
fe
fc
02
fb
e8
e7
19
f4
e9
f3
0c
e3
f1
ff
e2
0e
e9
eb
ec
0c
15
15
e8
0e
0c
1b
ed
10
12
11
ed
09
07
f7
0a
fc
fa
16
03
ee
f1
e4
e4
f6
ff
19
f6
13
f5
ec
f1
07
13
f1
f4
1a
e7
00
18
f3
0b
e6
14
14
0e
f4
01
f6
05
f5
02
07
fb
f8
f0
f2
06
04
0c
12
1c
19
e7
0d
ec
ff
18
03
1a
e5
16
07
08
fb
f7
ea
09
1c
1c
ec
0d
1c
fb
0e
f5
eb
e5
e6
0a
07
e5
1b
01
f7
19
11
eb
08
f6
17
e2
14
08
11
07
ef
0d
e7
e4
19
12
0e
fd
16
ea
0e
f0
08
00
ec
f8
f9
0f
05
f4
10
fe
f2
10
f7
1d
09
e6
ff
04
f4
f9
e7
0c
02
fd
e6
0c
f8
02
06
07
f2
f7
f9
0f
01
e9
ec
f1
05
ef
f3
fe
06
ef
12
19
f5
1d
06
1c
09
01
e7
e4
01
1b
e6
f0
0c
fe
f7
e4
0e
fd
fc
1d
f4
ef
11
e9
fe
12
ee
e4
ef
e5
fd
eb
03
ed
12
06
13
f5
07
f7
1c
00
18
fe
10
0a
ef
0f
05
ec
fd
e8
0c
e9
0c
e3
e7
e5
06
09
e4
ed
f2
e4
ff
f0
ed
fd
0c
17
02
f9
15
18
1c
f7
05
ff
10
19
e3
09
fc
ed
e8
13
05
0d
00
00
11
f9
11
fe
03
0e
f5
1a
00
e4
0d
f9
07
01
fb
e3
16
0a
fd
05
f0
f1
f7
04
09
07
f3
fe
f8
e8
e5
00
e5
13
fc
fd
00
01
12
02
17
0c
17
e4
e3
fa
fc
ef
0e
06
11
f4
e9
f7
0f
fc
f5
1d
0c
19
13
e4
1a
f6
0a
fd
f2
f2
f6
01
06
e4
0b
12
19
13
e5
02
03
1b
e7
ed
12
0f
ee
10
19
02
1b
fb
1b
f4
fe
e2
04
15
08
02
f9
f1
ed
09
03
1b
e3
09
19
fd
01
e3
09
1c
ff
f1
fa
1a
f5
f3
10
01
e6
fc
e9
18
f7
fa
e7
00
ff
00
1d
17
fd
17
e8
f2
0f
01
10
0d
f7
02
f1
13
e7
08
1b
f6
0a
13
e4
f0
12
ff
fb
0b
f1
05
0f
03
e3
fc
11
11
fe
08
15
ec
fb
e8
ed
1b
0e
e9
02
07
e3
ec
1a
18
10
0c
ff
f5
19
0e
13
07
05
13
09
e4
16
02
0f
01
fd
02
fc
17
0d
0d
08
11
f6
0d
0f
19
ed
f2
f2
06
14
06
e6
1c
02
12
f3
14
0c
e8
05
19
07
10
ec
07
e6
16
02
13
0b
1d
08
ee
15
0f
e9
f9
06
17
f7
1c
10
f4
0c
0b
0d
e6
18
14
08
1b
14
0d
0e
ed
0a
10
e4
e4
1b
ee
1a
f4
19
f5
1a
0b
10
13
e4
1d
ed
16
f7
ed
ef
15
04
10
03
0c
01
18
fe
0d
14
e6
ed
fc
fe
ef
12
f7
eb
0c
14
06
14
fc
f9
f5
10
18
05
fe
09
15
12
09
ff
ef
03
0c
eb
1c
e3
1c
0b
e6
e8
10
fc
04
ef
fe
e8
17
06
17
f7
19
15
1a
03
07
f1
fe
f6
11
13
0f
f7
09
e4
00
05
1b
e3
f0
ef
09
f4
f2
fb
17
0a
f1
02
13
12
fe
e7
08
fc
07
fe
f1
15
ef
f9
f7
1a
06
fa
e8
06
e8
07
12
f7
e8
f4
12
03
07
ee
06
fe
f6
ef
fe
0f
f2
11
0f
08
eb
f3
0f
ea
18
e6
16
f5
f5
e8
f5
0d
14
0e
fe
e7
03
04
f5
e3
f0
ef
1c
17
f8
f1
f8
fa
f8
f5
e9
1a
ee
f3
18
0b
f4
13
fe
fe
19
1c
fe
e8
05
f8
e7
fe
f3
0c
e3
ec
fe
e7
f8
16
f8
fa
1a
10
fb
f0
07
19
0e
0e
fd
f4
f7
fb
f0
ea
ed
10
0b
f5
fd
18
10
0d
f0
fa
15
01
00
0b
f0
0b
18
14
ef
00
04
16
0c
12
f8
e2
19
18
19
17
fb
e3
10
e8
17
08
09
08
13
09
11
eb
f4
eb
e9
00
ea
e6
09
1d
08
14
0f
02
f5
13
fb
06
00
0f
f6
1a
fc
06
00
ff
f0
f7
e3
09
19
17
06
f9
fb
e6
f9
f8
0a
f4
ff
06
0c
f2
18
1a
ec
17
f7
16
13
ff
eb
0a
f8
fd
f4
e8
ea
e7
13
16
07
e7
f7
03
f6
ec
00
e8
13
17
e9
09
f5
0b
e3
e7
f8
e3
ff
fb
0b
1d
f9
eb
fd
19
0a
fb
f8
07
16
ea
1c
19
f0
ea
f7
0f
15
f7
ff
08
e3
09
06
e5
01
17
15
0b
00
0f
07
ed
f5
fd
fd
f2
18
0c
0b
f9
01
f7
f7
ee
08
0a
08
08
0e
09
f3
1a
05
e4
0f
03
09
fd
e9
07
09
1a
e2
16
02
09
01
fe
fb
11
0d
fd
eb
0a
07
f8
f5
01
18
13
0f
e2
1c
03
f2
f0
f4
14
0b
fb
11
e7
1b
e4
e8
f0
f6
15
02
12
17
01
ec
16
ed
e7
ff
ec
12
07
09
ea
0a
ea
e5
e5
ed
f9
00
14
0b
00
01
11
fe
f3
e3
e5
11
e4
fd
02
19
f6
00
e3
e5
14
f8
e9
06
f8
1a
f5
00
01
05
0a
e5
13
0a
f2
e7
0a
e3
ff
ef
15
00
14
09
eb
0b
ff
fb
f9
f3
ec
ee
f5
f9
ee
12
e8
e6
f0
0b
f7
11
fd
f0
e5
13
f8
13
ee
fb
13
f4
f7
f0
05
01
13
1d
0f
ee
10
1d
ff
0b
fb
f9
e6
f2
fa
07
e6
02
16
e3
12
ef
01
15
f5
fa
f3
e8
03
16
09
fe
fe
ec
e8
fc
ef
15
fa
ea
14
14
f7
fa
e5
e7
e4
f4
1b
e6
fb
e2
f3
06
ee
15
03
0d
f0
ed
f7
1a
0f
ee
ea
e4
ee
ef
0d
e4
04
fd
e3
e3
04
15
16
07
05
e7
fc
fb
fe
00
e2
0a
e8
17
eb
0a
e4
1d
e3
11
16
08
f3
06
ea
0e
e7
11
e9
ec
f5
0c
07
ee
f1
10
f2
10
ec
0c
f3
e2
10
ef
18
e3
18
01
1d
ef
1a
e2
0b
13
f9
f7
f1
e6
ec
f5
e3
e2
fe
ed
ed
07
fc
1a
fa
08
0d
0c
e3
e9
16
05
f6
f8
fd
e2
11
f3
e4
f6
e5
e6
f3
06
06
10
ee
f1
e5
fd
fc
01
1c
f0
1a
f8
fb
f8
0a
1a
0e
08
ec
0e
01
08
ee
fe
e4
1a
05
1a
e8
f7
e4
f8
f1
f1
00
ff
ea
15
e2
04
f9
08
09
13
fd
04
f2
e3
eb
02
09
f5
e3
f7
11
15
ed
fd
05
e5
e2
19
f1
05
18
07
1b
ef
0a
08
14
f5
e4
f1
ed
fa
01
e2
16
05
e4
f6
f0
18
fc
e6
e3
e8
09
1a
f7
e8
f6
e4
19
ee
f2
19
ed
fd
f9
0f
11
ea
ff
0e
08
fb
ed
06
f0
ff
fe
1d
e4
eb
13
00
e8
01
06
f9
fd
f8
ef
19
0e
01
f5
0a
f5
ff
0a
e8
e3
f3
fd
01
12
0b
1b
11
e3
fa
18
17
f0
f3
e7
fc
16
04
f1
13
fb
13
e8
f2
1a
02
f4
e7
0b
e6
03
0c
f5
0f
e6
14
17
0d
f9
1a
03
ec
13
05
01
f7
e6
ec
11
e2
eb
0c
18
e4
05
1c
0d
01
eb
e9
ee
f3
04
14
1a
0d
f3
f2
ec
f1
08
0d
f4
f0
fb
0e
16
f9
f4
ee
03
05
11
f5
ee
ec
fd
e6
09
14
11
09
ec
ec
e9
f1
0d
f0
f9
fc
19
17
14
eb
0b
19
e8
10
0a
f0
fd
0c
f8
0a
19
e9
e4
f7
ec
ff
e9
13
1a
0e
e9
02
07
e8
19
e8
f9
11
14
12
fe
f8
19
06
f0
f1
1c
ef
05
e3
11
f7
02
07
0d
11
1c
05
0e
0b
fa
0e
f3
13
0e
ff
ee
e3
fd
0f
e8
13
ea
f1
17
ed
e8
13
09
ea
eb
fd
1a
18
10
0d
08
e2
08
ed
fa
ef
09
fc
13
ea
15
13
14
fd
e4
fd
e6
eb
1c
0c
02
05
1c
09
03
0d
ef
1b
05
fe
fe
ee
f7
e4
f1
06
0c
f0
0f
f1
15
1d
fb
0a
e7
fa
eb
14
1a
f0
fb
e8
ee
fa
03
eb
02
0e
19
ef
fa
ee
0e
e4
17
13
18
fa
06
14
15
04
19
fd
00
18
0a
0a
0b
f6
e6
17
09
0c
e2
f2
e2
1b
1a
1c
ea
17
10
f1
18
f6
fd
13
ea
fc
f4
e4
19
0a
f6
e5
f6
e8
14
1b
ff
03
04
ed
e5
06
16
f4
06
e4
ea
f3
fa
0e
f0
1c
fa
ec
e7
09
e7
f4
e2
08
ee
e5
f5
1c
09
10
0a
1d
11
f1
04
19
07
02
13
ec
05
f8
ff
f8
e3
01
f2
08
13
f2
13
13
08
eb
e6
04
0f
fb
f0
10
e9
14
1c
e6
04
fa
12
15
ef
ec
06
17
07
14
ef
f6
05
e2
fa
00
f3
ef
15
fc
f9
e2
f9
ff
fc
fa
09
01
e2
0c
ee
eb
f3
f3
19
0c
0a
18
1a
01
0c
02
00
ef
f5
e9
05
f8
fe
fa
fb
19
02
ff
19
e2
11
fd
fa
1b
ee
0d
02
ed
0b
02
17
05
05
1c
01
f2
04
0c
19
06
05
ed
05
e7
0f
e9
05
10
01
1a
03
04
18
fa
11
e2
18
0c
0b
f1
13
e7
f1
10
f0
e9
f7
ed
0b
e8
fd
10
f9
f7
17
1c
17
e9
f2
17
eb
eb
fa
09
15
09
1c
ee
13
0e
0e
02
ff
f2
01
e5
01
e6
13
ff
12
08
1c
01
01
1c
09
10
02
f9
e2
17
fc
f6
14
ea
fa
12
1c
e6
ef
14
05
eb
e8
e2
ea
fd
ef
08
f5
01
f4
f9
f0
f5
fa
04
00
e4
15
ff
f0
fc
fc
0c
ea
e4
15
07
07
03
f2
19
1c
16
1c
f6
18
fe
fc
f4
e3
e6
fd
fd
15
18
14
1d
fe
04
e9
04
14
ea
e4
f0
f7
e3
0b
e5
f7
11
0b
fb
0f
f4
f0
10
04
17
e3
03
e9
fe
01
0a
f7
13
17
e8
e9
eb
f9
fa
ff
fa
e6
0f
f8
eb
1d
e7
05
ef
16
ff
e5
f3
f3
06
0e
f3
f3
15
ea
ea
13
1b
f5
e8
15
fc
f8
f7
05
ea
02
10
fa
fd
f6
f4
15
fd
f4
ff
f6
e4
f5
ed
ee
fb
e6
ef
0e
ea
ed
1a
15
f5
f1
1a
e9
0c
e6
eb
15
0e
17
f8
1b
f0
fc
09
01
0e
00
0a
e4
eb
01
12
0b
e5
1c
05
ea
0f
e8
00
17
fa
f4
09
12
04
e5
08
fa
08
fa
e5
e3
f2
18
01
fe
f2
0e
05
16
0a
0c
0f
e3
ee
11
05
fc
0e
f9
f2
02
00
f5
fd
16
f2
fa
fa
e5
10
ed
1c
1c
e4
fd
fc
e4
f3
ef
f1
1b
ee
e4
18
13
18
05
ed
08
04
0e
e9
e8
e2
15
0f
eb
e5
14
ff
f7
18
0f
fe
0d
13
ed
e7
16
01
f5
03
02
07
e7
01
0e
07
04
fe
ed
16
eb
f6
02
0d
f8
03
0c
04
1b
01
0a
f8
e9
0e
14
f4
f3
fc
0b
14
0d
f5
ee
f4
1c
10
fb
09
ec
1b
f7
ff
0d
1a
e5
0c
05
18
eb
0b
e8
f3
09
0e
0d
18
1b
11
03
0e
e3
e7
19
ed
f5
ff
04
0a
eb
14
03
ed
1a
16
16
ea
f9
1b
12
fb
ef
f1
f2
ea
04
e4
0a
fe
0b
f2
18
1a
0f
0e
14
06
e5
0d
17
00
14
0a
1d
fb
0c
0d
eb
18
0e
1c
0b
ee
e7
00
16
e2
ec
ef
07
fb
f9
ec
02
f2
fc
0f
e2
0e
00
08
ec
02
0c
f6
fb
e9
f9
02
f7
1d
ea
0d
ff
10
15
ff
18
f5
0d
03
1c
09
09
f9
08
0f
0d
e2
ec
10
e5
04
0e
04
fd
f6
f4
ee
fd
0f
0d
fe
04
01
ea
e5
0f
0a
0c
ff
e6
f2
ff
12
e6
e5
f6
e9
e7
1c
f5
ea
1b
19
ea
e7
f4
ee
e7
f7
16
fb
e4
fa
ea
f0
0d
ed
0a
fb
0f
e8
06
fb
e7
15
11
05
fc
04
01
e2
fb
01
e4
e4
f0
ea
fd
1b
02
ea
19
12
eb
eb
ef
06
10
e4
04
e2
f2
f9
02
0d
0f
e9
00
fa
fe
f7
fe
0f
e3
f0
fc
18
07
1c
f3
e8
17
09
19
0d
16
eb
fb
f1
1d
0d
e9
06
f2
f2
f0
1b
19
e6
0f
fd
1d
14
1d
f8
e8
ed
19
1a
08
e6
09
eb
02
00
e9
1a
f9
ec
11
00
18
f0
1a
f5
15
1c
1a
0c
fc
f8
0e
06
1a
11
15
f8
e4
0c
02
0a
f6
02
0c
04
10
1b
10
03
e4
0f
03
0e
09
0e
fc
06
ee
08
f0
11
18
12
0d
f6
ff
0a
17
fc
11
f8
02
fb
e3
03
16
e4
0d
01
06
03
ea
ec
f5
1b
f8
0a
07
fa
0f
07
11
f1
01
ea
fd
0b
11
10
17
18
1d
f5
ff
08
1d
17
0e
ee
1b
00
09
08
e7
f5
e7
e2
e9
e9
ed
fa
fa
f4
0b
f4
0a
08
13
07
04
eb
13
0b
eb
f4
13
11
fe
f1
1c
f8
ea
04
fd
04
e8
f1
fe
10
06
1c
08
fa
06
f3
e9
f0
fd
f3
f4
f1
0f
f9
e4
f3
14
1b
fe
ed
f4
fd
f7
1b
f2
1b
1a
e7
18
fe
ec
1a
f3
f3
03
17
f9
1d
03
f5
f2
e7
ea
0c
1b
06
14
07
e8
07
0b
0e
10
e6
03
10
13
f4
10
fe
1b
fe
14
0a
e8
ec
09
f7
e6
ef
0b
1a
f8
f0
e8
ee
ff
19
14
f9
02
fa
f0
19
16
ec
04
f3
fd
0d
eb
e2
f1
ee
ee
02
f6
e3
1a
0d
e4
ff
f9
02
09
1d
fd
ef
04
19
03
e9
f0
04
ff
15
0d
0a
f7
f9
1b
1b
f4
fd
fc
05
02
0e
ee
f0
fb
0a
0e
ee
0b
00
e8
17
f1
0e
ec
f2
0b
e9
0b
e9
eb
1b
f0
fb
f4
fb
f9
fc
15
f6
01
e9
e3
eb
e7
06
f9
01
f9
e9
ec
f9
ed
ea
1b
f5
f6
1a
02
fe
1a
e5
f0
ec
e5
09
12
f0
e5
e5
fc
14
ee
ee
f8
eb
0e
f7
04
e2
e3
19
19
ec
13
01
13
0b
0b
f3
01
f7
fb
ef
f5
ec
16
07
1c
ed
f5
e8
e7
e3
e6
f5
f9
ef
05
11
f4
07
e4
e9
e8
e8
01
14
f0
10
07
02
06
04
f5
f3
0e
fd
01
ee
fa
f9
e7
18
18
fa
ee
f5
e6
fd
ff
f9
fc
0c
16
09
fc
ea
19
e7
f7
ed
03
ed
e6
0e
1d
ed
05
ef
fc
e5
07
15
18
0d
00
19
ea
e9
ff
0d
ec
f6
02
f0
05
18
0d
05
12
17
0c
02
06
eb
fd
09
f3
f0
09
19
ef
00
e9
f1
e8
10
09
0c
f2
e2
f2
fc
fb
e2
f9
01
ea
10
ee
e6
f2
08
0a
16
f4
e9
f4
ec
01
e9
1d
ed
e8
11
01
e9
ee
e8
e3
1c
00
17
01
14
03
fc
f8
fa
ea
f6
00
01
f7
11
18
fc
01
06
e6
0f
18
ff
f8
e7
f9
0c
ee
eb
10
e9
03
fc
06
fd
04
f4
e7
e7
ff
07
ee
f3
e3
0d
fc
02
f0
e9
fc
fc
fa
16
e5
07
f2
f0
11
17
18
fd
0a
fe
02
02
13
0a
fd
f3
13
04
ec
fa
17
0b
eb
11
f8
ff
fe
ea
f7
1b
0e
eb
0b
ef
eb
0b
08
f5
f9
1a
0e
18
f0
10
00
f0
f7
f1
1c
e2
e3
fc
0e
e4
f9
1c
01
02
ed
e7
10
18
04
0e
ee
00
18
0a
f0
f6
fb
e5
10
fe
e5
00
0f
ec
ff
08
1b
e4
03
f9
f9
e4
e6
f4
05
1b
fa
04
12
f6
02
0c
13
f9
1c
ed
15
0c
12
13
fd
0c
f6
f1
15
ec
ff
f1
f1
eb
13
e5
ec
14
19
0b
02
ea
eb
e4
ff
f1
e7
12
e6
09
03
e9
ff
e2
06
10
09
ec
15
14
1b
0f
06
0c
fc
01
f5
0f
ee
f9
10
f2
f4
fe
f7
e4
06
08
12
01
09
1b
14
10
f8
05
16
18
0a
0d
e7
f0
19
e3
e5
05
e8
e3
09
19
ff
14
14
09
1c
ed
e9
f4
0e
1c
11
05
e2
16
16
eb
05
1d
f5
0f
0d
ea
ee
0e
eb
0d
ee
00
05
f0
00
f5
19
0f
f4
03
14
1a
0a
13
ed
0a
02
0d
eb
e9
1b
ec
fe
1d
0b
04
17
1d
fc
fc
1b
09
f0
00
12
07
ec
10
19
fc
eb
fa
1b
0e
ea
1b
ee
eb
0a
fd
01
03
f2
ef
1d
02
10
ee
fc
e7
f0
1a
ff
09
f2
fa
09
e5
09
1b
08
e3
e9
f8
10
ea
11
01
0d
f4
f5
16
16
13
1b
12
e5
f8
00
17
03
f4
1c
e8
f3
fc
f3
ec
e5
02
e3
13
f0
1a
18
17
11
f3
03
f8
e6
12
0e
ff
0c
1a
f3
18
f9
0b
f6
fd
19
1c
e9
08
0e
ff
f0
14
14
0e
ec
07
ee
16
f1
f4
18
f7
f6
09
12
16
03
f0
f5
08
eb
f7
07
f8
ed
11
12
1d
0b
ee
f8
02
f8
00
f1
07
e5
e8
02
f8
fe
15
17
0f
0e
e7
0a
19
e3
07
0e
19
06
fb
0e
eb
01
ec
f0
ee
f8
08
04
13
ea
f5
13
07
f9
03
15
1d
11
13
fd
1a
0c
14
e8
e8
1a
17
fa
05
f4
1d
13
06
0d
1d
ea
eb
ef
16
ef
09
ee
17
fc
fe
e4
e5
ec
ee
1c
e7
f8
09
14
19
fa
f6
f0
ec
16
0d
13
0a
f4
fd
f7
16
12
07
1c
16
fc
1a
17
18
f8
f6
05
e5
04
0e
ff
f5
12
1d
ff
f0
e4
fa
09
fa
fe
ff
0c
f0
f5
19
fd
12
ea
f2
f0
04
00
e4
07
f9
fb
17
08
e3
04
ed
0a
ea
f2
ff
e6
1a
fb
15
01
1d
00
eb
ff
e2
03
f5
eb
19
f1
13
05
ea
01
16
fd
e8
15
fa
00
f8
05
f8
f0
13
11
e2
ea
1c
13
e6
13
10
0d
0c
17
10
eb
09
05
e4
11
ef
e3
e9
e8
18
ef
e8
08
fb
f9
ee
1b
15
e9
e9
e2
f3
e9
fa
00
0e
0d
1d
1c
fe
ff
03
02
e4
04
ff
0c
01
e3
e3
e3
e7
17
fb
ed
05
f8
0c
1c
f0
f6
07
18
1d
13
fe
14
fa
f9
fb
01
0d
ec
08
ff
09
10
16
f0
0c
14
fc
f6
0e
10
ec
02
ec
1a
f3
1a
1a
e7
f9
19
f0
f4
f9
fa
f0
0c
14
1a
f6
f2
ee
03
06
0d
ec
eb
f1
ec
1d
ef
1a
13
18
f8
17
17
f9
16
0c
0d
03
fa
f7
14
1b
02
19
ef
f6
16
13
ea
03
03
1b
e7
14
07
1a
1b
eb
09
eb
e7
f5
0d
e9
07
f0
ec
eb
19
ef
03
08
10
e5
04
0b
e5
08
11
0b
11
04
10
10
f9
1d
e7
f0
e6
07
06
0f
ff
ea
ea
e8
15
09
e9
0f
e5
0d
1b
f8
17
09
04
fe
f0
13
1a
14
f6
e2
1b
f5
f1
ff
10
0c
e4
ff
ed
19
05
12
fe
fe
e8
09
e3
05
fe
18
e9
05
04
06
1a
e9
e4
00
04
0a
12
0c
f4
f7
05
e3
eb
f4
e5
1b
04
f9
f1
e4
0f
0f
08
fc
ee
12
e5
ea
10
ff
e6
0c
e4
ff
f8
0c
02
1d
0a
13
e4
e9
1a
fe
e5
e2
f4
fc
f7
02
0f
ea
f5
fb
e7
ef
02
eb
04
ea
04
e9
06
11
fc
1d
f7
05
0d
e2
ed
08
e4
ef
0e
01
09
ed
13
17
14
03
fd
fe
f0
f2
eb
f1
1b
ef
09
12
ef
02
e2
f3
ec
ec
05
15
fc
fe
04
f9
00
fa
0c
ef
0e
f2
e5
f4
19
ec
01
03
fa
f8
f9
fd
0b
e2
e7
00
e3
ed
02
f6
ef
ff
07
ef
07
1d
f7
04
f0
0c
f5
01
0a
14
12
1a
fd
f8
ee
e2
18
0f
07
10
f3
06
fd
f1
fa
1c
10
f7
fb
fa
15
04
1d
e5
14
13
01
16
fe
e6
1a
1c
16
fe
02
fd
e3
1d
f2
e4
e8
ee
0c
0e
1b
f6
e3
0b
16
15
f3
ec
02
f9
fb
1a
1c
1d
00
19
13
f5
fd
e2
e9
fb
17
1b
f4
f8
0f
14
0d
e8
16
e6
e2
eb
e3
03
1a
fc
10
e2
ef
f1
fb
0c
ea
fe
0e
e8
15
16
ff
f2
0b
e9
15
08
ff
e3
0c
e2
09
1c
06
07
e2
08
f8
f3
f1
f8
f9
1b
00
16
e3
e3
e4
05
e4
14
f4
e2
e5
f4
e3
0a
e3
13
13
f5
16
fc
fe
16
18
00
e3
1d
f0
f1
0f
03
ea
f1
10
0b
09
fe
0c
19
ee
02
1a
e7
f2
f2
0e
0a
17
f2
1c
ee
17
ff
fe
0e
10
f8
f7
fa
fe
1a
12
03
0d
09
05
1a
1b
13
05
ef
e8
06
17
00
11
f4
18
17
f2
13
fc
e5
1b
ed
f4
09
ee
09
0e
f9
16
04
0e
ec
fe
1c
fa
05
16
09
0b
ee
ee
0d
f7
ef
f8
18
e8
08
08
1b
e4
e7
e6
e5
1c
f3
0d
17
e9
04
07
13
12
0d
1d
fd
ed
02
18
16
f7
ee
e6
13
17
15
f0
05
e2
00
e3
e8
06
fe
1b
1b
e6
fc
f7
05
12
1b
1a
fc
1b
03
1d
ed
05
fc
05
10
f4
eb
0c
ff
09
fe
03
18
e8
f8
e3
09
f4
0a
fb
00
f8
1b
f0
eb
f9
ec
0b
f9
f7
e6
f9
19
f3
f7
fb
f4
f1
f1
ef
00
e3
e4
e9
0f
17
13
fd
04
ec
0f
12
f6
fa
0a
19
ee
f3
02
08
02
ee
05
11
ff
e5
fa
16
f4
e9
06
f0
f2
fe
0b
f1
e7
e6
17
0b
fc
ee
fc
eb
01
11
e8
fa
17
10
14
ef
ee
0a
18
08
ee
14
ed
f2
f0
f6
0a
ff
ff
03
1b
10
0a
f7
1d
ff
e9
fa
0a
ed
1d
0b
e3
10
08
04
1c
00
00
fb
0a
ea
14
fc
1d
fd
07
1c
03
e4
fe
f8
e8
0c
eb
f6
f0
fe
15
09
ff
0a
09
f1
f7
00
f5
14
e6
ff
f5
13
1d
e7
f7
eb
ff
12
ee
e4
fc
06
ef
fa
ef
0f
e5
1d
f6
f6
10
ff
03
05
1d
fd
05
f2
e5
e4
ef
1d
f1
19
00
1b
08
0d
04
e2
04
f1
e3
04
01
f3
0f
0b
e9
1c
f7
fb
03
02
0b
17
e9
ff
f4
10
ed
13
1d
ed
e2
01
fb
fd
ed
02
10
08
0d
13
12
fd
16
10
ec
1a
ed
04
e6
1d
0b
03
f4
16
0f
10
08
0c
eb
f8
fc
ff
00
e8
f2
f8
0f
1b
fb
f4
0d
00
f3
0b
f4
0f
18
f5
0a
fd
0f
f6
fa
03
0a
0b
1d
f0
09
f3
19
11
16
0f
f3
0c
e9
fa
e5
e6
eb
1d
f4
ec
0d
f9
16
1c
e6
09
fe
eb
12
e7
ef
f6
01
e6
ff
fc
09
f7
0c
ee
11
1b
f1
17
15
0f
1c
e4
f0
f0
11
e6
08
fc
1b
fe
19
19
fc
ee
fe
f4
fb
12
0f
ed
02
02
10
12
ed
10
fe
e2
0f
07
e9
f8
04
0a
f2
fa
e5
03
e8
1d
1c
18
0f
fe
0e
08
f2
0c
0b
18
1a
0f
1b
fd
0f
e3
e4
e7
02
ff
0b
14
01
f5
10
ec
f2
17
14
f4
0f
e2
01
0c
ed
e9
1c
f0
11
ef
e9
eb
fb
fe
03
06
f5
0f
05
02
e9
f1
e7
fe
1a
11
0a
0e
0f
e7
e2
1a
04
01
0d
ef
f4
00
0f
16
1c
fc
19
00
e9
e7
08
15
04
00
14
18
ed
f1
0c
08
fe
e9
16
e8
02
fa
ed
f0
02
11
02
ed
0c
ff
f0
1d
f0
11
ea
e8
fd
06
f6
eb
fe
fb
eb
fc
02
11
11
06
e8
eb
1c
ec
03
fd
0b
e3
f0
e8
e5
fe
09
18
1d
f7
06
ec
10
fd
17
08
ef
ea
12
08
1c
f9
ff
e9
e5
0c
fa
f5
06
18
05
18
ed
19
0e
ec
0c
07
05
e8
e2
f8
14
ea
09
e4
15
e7
f4
ff
02
eb
02
05
11
f0
e3
13
f7
f8
f5
f3
e5
ec
1c
08
e3
f8
18
0b
13
f4
10
0a
18
e5
f6
ef
ef
03
e5
0e
e3
04
1b
0c
17
ed
06
f0
f8
01
11
f8
02
ed
f9
1a
0e
f2
12
16
fb
ee
f9
fc
f8
ee
12
f4
02
f8
1c
e7
06
f5
0e
fe
f0
e7
1c
f2
07
09
0f
e8
ef
17
19
fb
ef
ef
eb
0d
15
11
f1
02
10
05
03
f2
f7
11
0d
ec
16
e4
f5
f5
12
0c
f9
02
18
02
f7
f7
ff
f6
ee
f6
ef
0f
f4
05
ff
15
f4
0e
0a
f9
06
03
0a
19
e2
0c
e9
15
e6
ea
19
f0
ed
e5
e5
ea
02
09
f8
f5
04
19
f4
0e
1c
e6
1a
f6
12
e2
14
0e
06
1a
fa
00
f1
fd
10
f2
fc
fc
0f
1c
f3
ea
16
18
05
01
09
e3
ed
0b
07
f2
e3
e6
15
07
12
e5
19
12
e6
f2
fc
f5
0f
e2
e9
15
08
f8
0a
0a
eb
e3
fe
e5
1a
f7
0a
09
0a
f1
ec
f2
fc
15
1a
15
e7
19
0e
04
1c
f3
0d
fe
ec
f0
f0
f3
0b
0a
ec
f9
0d
0e
19
19
18
1c
1c
0b
e9
1c
f0
fe
e9
e3
e2
03
01
fb
e4
ef
fe
e5
e4
f7
19
08
13
e5
ec
f8
03
10
1a
01
f2
16
04
11
14
fa
f9
f8
1d
fa
06
fc
0b
fb
e6
04
f5
1c
e9
fe
f0
e6
15
e3
0e
19
1a
00
fc
e3
fe
00
0c
00
f6
15
1c
08
f3
0a
05
13
e3
f7
0f
ea
0b
04
fc
fc
fc
0a
18
f0
f6
e3
eb
e5
ee
19
f6
f8
14
fa
f5
0a
17
e2
1d
16
f5
1a
11
fd
11
fb
fa
02
08
ee
f0
f0
16
0e
ea
eb
03
15
ec
19
e4
1b
12
ff
0f
e6
fa
08
10
02
f1
eb
03
07
02
07
f7
1c
ed
f5
f3
13
f6
14
03
0c
eb
00
11
16
f0
e4
f0
17
ee
0b
14
16
ed
f1
02
e7
ee
17
10
19
e9
07
f0
13
f7
0b
e5
ea
fe
fc
0e
15
11
1b
10
fa
ea
ed
fa
f4
f5
1d
11
1c
ee
f3
00
13
1d
f7
0d
02
15
e7
17
e4
e5
04
e7
16
1b
f0
0b
fa
e9
eb
ed
f1
0f
0f
11
eb
f2
eb
fe
17
f7
f9
11
04
1d
ec
ef
00
f9
e4
00
ea
05
e4
13
e8
e4
00
0f
0b
ff
fb
1d
04
f5
f4
fd
07
00
16
16
fd
ee
13
10
ee
18
ff
ff
03
11
15
e5
f4
00
04
f7
0c
07
e2
e2
09
05
fd
fc
f2
07
01
e3
0a
01
04
fb
ed
ec
f1
00
f5
e5
01
07
18
fc
07
f4
1b
0c
14
1d
e3
ee
e7
0f
ea
e4
f7
09
e9
07
16
f9
f7
f2
e6
16
08
ea
06
ff
0f
08
16
07
14
07
00
fa
14
e7
e6
11
ff
f1
0e
f0
ea
e5
19
ed
13
1b
16
ef
e8
f1
f0
15
ed
f3
fb
19
f7
ec
15
06
f0
0d
e9
f4
00
18
e8
ec
e4
04
15
fc
0e
e8
17
1b
fd
1c
08
19
fd
03
1b
0b
1a
0b
e5
01
f6
ea
0e
1c
eb
14
18
17
e4
f8
eb
1d
19
0f
f3
fc
ea
f4
e6
14
14
e7
fa
f6
14
1a
e7
f6
e8
f1
ec
17
03
06
01
f4
e9
10
e6
0c
05
06
ed
fa
ff
17
ed
07
fb
11
ef
f4
e4
10
01
ef
0a
03
0a
fe
1b
f7
e9
15
f4
fd
02
1d
0d
13
10
00
f8
0e
0f
19
f3
f2
1c
12
e6
f0
f9
f8
e8
1c
0b
02
0b
0d
13
06
0e
07
e9
f0
06
18
f5
ec
ed
0e
13
02
0c
03
03
0c
fc
19
f7
f0
1b
07
05
e4
f3
15
e3
02
f3
03
18
e2
09
11
11
07
ea
f6
1a
1d
17
05
f2
ea
fe
12
12
05
f4
e9
f5
07
19
fa
19
0a
00
ee
e6
15
e2
fb
02
e4
f3
0b
f1
17
ec
e4
05
e5
19
19
08
f5
f6
01
fd
16
f7
0a
09
f9
0a
1d
0b
e5
0a
09
1d
f6
f9
fd
1d
17
09
f9
ea
f9
f9
1a
07
eb
eb
e5
e9
0d
16
e8
e3
01
e7
1c
fb
1a
0d
11
15
ff
e8
00
01
1d
f3
ed
e8
01
02
19
fa
f9
12
f7
fc
0b
ef
14
16
fa
0e
e8
0e
fc
e2
13
e4
0b
14
ea
e9
eb
05
f5
f5
f7
e8
06
1b
fb
f3
10
e7
e4
f5
11
00
eb
08
ef
ea
e5
f7
19
09
0e
11
0d
02
f4
f0
02
07
12
e9
f3
14
0e
1b
ef
e5
fd
e7
f6
f9
1b
01
04
ef
0d
10
09
16
f8
e5
0b
f7
ec
0e
09
04
1b
0b
ef
e8
18
02
f3
0a
f9
12
19
07
09
05
f4
10
e5
f7
f6
15
09
f3
1c
07
ed
ff
e5
07
18
00
0f
e9
ec
fa
f7
0d
0d
1c
1a
e8
0d
f2
ed
ec
08
ee
f3
ed
ee
0d
14
0a
f0
ee
11
0e
1c
ee
0e
0b
fc
03
10
ef
f9
fe
08
e7
1c
13
14
fa
05
ee
1b
1c
16
eb
ff
11
ef
ea
0c
f6
e9
f3
11
08
1d
09
16
fe
e6
f1
fa
1c
0b
e4
0e
10
0c
07
f6
02
ee
08
17
13
f2
fe
18
f9
f5
07
ea
fb
15
f8
0b
e2
e5
ea
07
16
15
13
07
0e
04
05
06
15
18
ec
14
f2
e6
e7
f6
0f
18
ed
eb
e6
14
07
f9
f3
e2
11
f7
12
07
13
ea
e5
e2
10
0e
f5
fd
14
f2
12
fc
00
f0
15
e2
1c
1d
f2
e2
18
0e
00
f4
06
0f
eb
fd
0d
fb
e8
0f
04
e7
0f
e4
fc
1b
f7
fd
ee
18
eb
0f
fd
ea
0f
ed
fb
01
f6
f4
1a
17
fd
e3
1b
1d
02
0b
ee
e6
14
1d
ed
f4
ef
f1
16
ec
0c
10
01
11
fd
16
ed
ec
f6
e3
14
1b
e6
0f
f4
07
0f
00
f7
f7
f6
0c
e2
fa
13
13
f5
ff
ef
f8
f3
01
f2
e9
00
13
0f
e3
f7
fc
14
ea
ff
f6
17
f2
0a
03
fc
05
fa
1d
f1
ff
f6
08
0d
18
f6
19
0a
f6
01
1d
12
ee
0d
e6
09
ef
f1
15
e3
e9
ee
03
0e
1d
fb
04
1a
0c
0c
ff
15
0d
f2
f1
ec
11
06
ec
0a
f9
12
f7
ea
06
e6
1b
f6
1a
1c
f9
e9
13
19
0c
1d
1b
01
18
e5
0e
f9
14
11
ee
08
17
1c
13
18
05
f5
f8
f4
14
f5
0c
0b
07
00
15
e7
f1
19
ef
0b
07
04
1d
f9
f9
ef
e5
f7
00
fe
10
0a
e5
f5
15
f5
e6
1a
e3
ee
17
ef
0f
1a
19
09
02
0b
19
1d
09
16
e5
ea
e2
e2
e3
f6
e3
0b
15
e3
e9
19
f5
19
17
12
ed
f1
eb
ea
fe
13
0a
0f
f2
e5
0d
e3
e9
19
01
f7
eb
fc
09
fd
08
04
1b
02
f2
f4
13
e2
05
11
07
0e
04
1c
0a
f4
04
04
1c
fc
07
e4
fd
f3
03
07
e8
f1
19
13
f6
0c
ee
fe
00
fe
fe
e9
19
ee
ed
ec
1d
1d
ee
19
ff
e6
11
0b
e9
02
05
13
00
1a
f9
0e
ef
16
16
f9
e3
f2
fe
f4
e4
f7
eb
07
f6
01
0d
07
fe
e4
e7
13
15
f2
e9
f2
07
0a
f2
0c
00
0e
f2
00
0d
0b
eb
00
09
e6
fe
09
ec
15
13
1d
e6
1c
0f
03
f1
1a
10
16
1c
f3
02
0b
e7
fa
14
f1
ec
04
ed
19
ef
e6
fa
10
fc
0a
08
0d
0d
10
ee
1b
08
15
e5
f8
09
fd
fe
17
01
ee
ec
0a
0b
f1
06
e2
ed
f1
e7
eb
16
07
10
fa
fe
1b
10
10
eb
03
ef
eb
1a
1d
1a
17
f9
fe
e4
f0
f4
f9
01
07
1b
15
0e
1a
fe
0e
13
10
e8
07
fb
f9
02
fd
14
19
eb
10
f9
f2
03
05
04
0a
06
1d
01
11
00
06
0a
f3
e8
ee
04
08
08
ec
08
17
ea
1a
0b
0a
08
15
10
02
07
16
0e
f7
ec
0d
19
06
f9
0d
e9
f4
e4
f3
1a
16
0d
f7
11
06
ee
0a
05
fd
06
e4
ee
1a
1a
00
e7
fa
14
e2
16
02
19
f6
11
fb
e9
e6
e6
0c
eb
1b
0d
16
f2
05
f1
04
e2
ec
12
ea
07
e7
eb
00
16
07
01
0d
ff
f8
eb
05
11
10
1d
f5
17
e7
08
0d
1b
ed
e9
0a
03
0e
08
fd
ef
f0
e8
f9
e5
12
0d
0a
e3
09
fa
f9
04
0e
03
f5
f0
0e
f5
e9
f8
ec
eb
1d
e8
0f
e2
fd
02
17
19
07
e6
fc
1d
e7
13
f0
e7
f5
01
16
16
e4
f6
1c
16
08
00
e2
19
ef
fe
f7
15
fa
14
ed
05
ed
e3
1c
0b
fd
f9
ea
04
f7
0a
f5
fd
10
0d
07
01
e3
ed
0c
f0
e5
ff
10
1c
18
ed
02
0b
fb
e9
1b
19
16
0b
08
14
01
e4
08
f4
08
19
e4
fb
e2
0d
e6
ed
02
fd
18
03
16
0e
f6
e9
e2
e6
17
18
0e
10
fe
e2
ec
12
0f
e6
ff
e7
ed
09
fb
00
e3
0b
ff
f9
e4
ef
15
f6
16
fc
f6
ed
ec
e2
16
13
e8
f3
fc
e4
e6
1d
ea
e3
f4
ec
08
04
16
fa
f4
ff
14
f3
f8
e2
00
ef
19
f4
1a
e6
f8
f6
01
fb
05
fe
14
f3
e8
1d
1d
12
e7
f6
06
11
1d
1c
ec
1d
15
ec
ff
f7
0c
1b
eb
14
e9
00
e3
10
14
f7
08
00
00
f8
11
e4
f9
0b
15
0a
08
04
01
fc
17
03
14
00
15
0c
f6
18
e3
f2
e7
f8
0e
f3
1c
00
12
0e
0c
e7
f7
e8
1d
f3
f7
08
0c
f0
06
03
e6
e3
1d
fa
ec
f5
05
fa
09
19
f3
10
19
04
f2
e3
fc
fd
f4
1d
fc
e7
f5
09
e8
f5
0a
fb
f6
fa
0d
17
f7
07
ef
f4
05
03
0f
17
19
f1
10
e9
12
fe
00
1a
04
eb
e4
e5
f5
05
e7
10
1a
e8
02
f6
f1
e9
18
00
01
11
fc
e8
f3
19
07
05
f5
f7
16
03
1c
e2
15
e6
f9
15
ec
e2
17
16
02
e4
0b
e3
ef
04
00
11
03
e7
fe
0c
00
ed
0e
f9
15
0b
06
eb
e8
0d
1c
e9
0a
10
04
fc
f3
ff
14
12
f1
e5
10
0a
17
e8
13
ee
f1
02
f1
e9
e7
fb
e7
0c
f2
ef
09
0f
05
16
0d
14
11
fd
1d
16
0e
1b
fe
ed
f2
e3
fd
14
00
04
0a
06
e6
ff
e9
0d
02
e9
00
eb
e5
15
0e
e7
eb
fa
e9
0e
1b
0b
e9
01
16
15
0b
06
10
e8
11
f1
ff
ee
0c
fb
10
10
1a
e8
15
ef
e5
18
fe
ed
f9
eb
fb
0e
02
16
02
09
07
f7
05
0c
08
06
e2
e9
0a
08
f1
16
0b
06
15
15
1d
e7
fa
fc
eb
fa
f5
e4
0a
03
06
07
13
f3
e7
f7
18
f2
0d
e4
e7
fb
f5
15
f3
0f
13
f6
18
10
e4
eb
12
e8
e7
ea
fb
f5
e9
13
05
f8
f0
04
04
0c
08
f3
e6
f3
e8
f5
18
e4
09
14
f5
15
1d
e2
ff
15
f8
17
09
05
01
e2
f7
12
05
11
10
0d
06
e5
fe
07
0f
e6
06
fa
01
04
f9
f8
f6
13
e4
0e
02
18
12
13
05
15
1c
ff
0a
13
e6
f1
11
ec
e5
e9
ef
00
13
14
fe
05
02
0b
0d
14
f9
1d
0b
1a
00
05
f8
f5
02
0c
00
08
eb
14
01
09
f8
f9
0e
e9
f3
1d
04
fe
10
0f
f4
15
13
0e
e2
02
f2
13
04
12
f5
11
ee
11
19
f3
ee
e5
12
f0
f2
05
f9
fb
ec
02
07
ec
ec
ec
ef
1d
08
fa
ff
01
03
06
f8
18
fe
f3
11
fd
1d
1b
15
e9
f6
13
ea
09
f4
f2
0f
fa
fa
eb
0f
06
18
eb
09
fc
f3
1a
03
1c
e6
ec
04
e3
16
fe
e3
e7
03
fd
e5
ec
e9
16
0c
f2
1b
fb
f0
08
0b
eb
ec
fd
02
f8
ff
e5
0e
0e
1c
0d
f0
f6
1c
fe
e5
f8
05
fc
14
04
0b
18
09
f9
e5
e6
07
fa
e3
14
fd
0b
ee
01
fe
e6
08
02
f1
07
e3
fc
fb
1c
12
f4
f4
f3
11
e3
10
fd
e8
f3
12
f2
18
12
e6
ef
f3
e9
0c
e2
e9
19
02
02
fd
f8
0f
e5
e7
e4
0d
f1
f2
f0
12
e2
0c
e4
e8
1b
f3
14
0a
0a
0f
f1
e4
00
e4
19
eb
17
f4
ee
05
e4
f0
0e
f6
1b
e3
e7
e5
fe
05
f2
f1
0d
01
09
f2
0b
ec
0e
15
ff
14
19
e3
ff
fb
15
e9
15
0f
e6
e4
06
13
03
ff
13
04
0d
11
08
04
f5
f1
00
10
0f
f5
02
f3
e6
09
e4
0d
f6
02
10
10
1b
11
fb
11
fe
0c
f4
e6
ea
17
e7
0d
08
1b
e8
ee
f3
f0
e2
f0
e9
19
09
e8
08
f9
11
0a
ea
12
ed
18
fb
10
ef
16
04
09
e2
f2
05
1d
1c
e5
04
f5
fb
03
02
eb
02
0f
ea
0a
e8
ef
19
ef
1b
ea
e2
ed
fd
04
04
f9
08
f2
1b
18
f5
ee
e3
e7
07
ea
05
f6
ee
14
ee
1d
10
fe
f3
e9
f2
06
f1
f6
1a
07
0a
e4
fc
fe
ea
0c
ef
13
ff
fc
e9
e4
1b
e4
07
1b
fd
f9
eb
f5
e3
fb
15
17
0e
03
f5
fc
fd
fd
e9
fb
ea
f1
04
e9
fe
e7
f8
05
f5
09
16
f2
eb
0a
07
04
f9
19
18
eb
ea
07
e7
0f
04
f9
ec
0e
00
fa
04
ea
eb
f7
ef
fb
e7
f4
09
fd
12
06
f2
1c
13
f3
f0
10
02
e6
f1
f4
ef
13
15
17
ed
f3
e2
09
0c
03
f1
f6
f5
0a
06
ed
10
17
08
1d
f4
ed
e2
fe
f9
0a
10
f2
ea
18
e8
e7
1a
e4
fc
e5
00
fa
04
ed
e5
f0
1a
08
11
07
e8
04
e5
13
14
f1
0e
fc
f6
10
1d
fa
19
fa
ff
f1
fb
f8
11
0e
1a
0e
f9
16
eb
e2
f8
e8
e9
12
e8
16
13
0b
04
fb
fd
ea
e5
1b
18
ea
05
06
e2
f8
e4
16
ec
1b
fc
1b
eb
ec
0d
1b
11
11
ea
15
ef
10
05
11
0a
1a
ea
ee
f4
fe
f3
f3
01
eb
f0
ea
1d
1a
0e
0e
f0
00
04
00
f4
f8
15
10
e2
19
fd
02
f3
04
06
1a
07
e6
10
eb
12
ee
10
06
fd
fe
01
14
02
06
eb
18
e2
ec
ea
f1
0a
03
06
ff
06
ee
08
fa
03
0e
fa
0b
0a
e3
f9
1b
16
03
08
e6
01
10
ed
f8
e7
ec
fc
03
11
e2
fb
16
09
fb
04
06
0d
00
e8
ff
0e
10
06
1a
1c
11
e9
f3
f1
f1
0b
15
0c
09
ff
f4
0c
13
1a
e7
16
0f
03
08
f5
0d
f3
14
e5
e6
e6
16
e5
e9
0a
ff
15
fa
11
04
eb
11
19
13
eb
f8
1c
e8
16
fd
0c
17
18
f0
e9
e6
13
1d
f4
09
0e
03
eb
12
e4
fd
0a
ee
00
fd
e8
f5
f4
0a
ee
ea
f9
fe
e4
ea
0a
12
e7
0c
f0
1c
04
09
17
f5
1c
0b
f6
06
f3
f8
e9
e4
ee
ff
e3
ff
08
e4
12
04
e4
02
e5
18
f0
fe
01
f7
08
0d
fa
e5
ee
08
fd
19
f6
0e
eb
0f
eb
e4
ff
08
10
f1
04
e2
ff
1c
ed
05
0c
18
19
0e
f0
f0
f1
f1
09
14
e4
f7
e9
ee
08
f4
fd
fc
00
19
f0
fe
eb
19
1b
fc
e4
f8
ee
e8
e6
fb
e7
01
f9
f4
1b
fe
02
14
1b
f9
e8
07
f7
0e
07
f2
f9
1b
06
f8
0b
fe
10
f7
fa
fb
e3
f5
f1
f9
e5
e5
16
1a
e5
eb
eb
e8
1b
e8
f7
e2
04
10
ec
fc
f2
0b
eb
f1
15
1c
fe
02
fe
f4
15
0d
f2
08
15
14
e4
ef
0d
f9
f2
f1
ee
1d
19
15
f3
00
04
09
01
f0
ee
07
e2
fd
05
f3
fc
0c
10
e3
fd
f2
fc
e3
ed
e9
00
ff
f6
fc
10
f6
18
0e
12
e6
04
e3
00
07
e2
06
17
f7
e3
e6
f7
ee
0e
1d
fc
07
09
e4
e8
fb
f1
09
06
ff
06
f6
f5
12
f5
03
13
19
ed
12
04
0a
07
16
ee
eb
ef
f3
1a
0e
e8
f4
0f
fe
ed
e9
0c
19
f2
e8
fc
0e
07
e8
0d
e7
04
eb
e7
f4
14
07
13
00
fa
06
10
08
f2
1d
07
ff
10
16
02
ef
1c
0a
13
10
ea
08
fc
09
01
06
f3
e2
12
07
04
00
01
f8
e9
0d
12
0f
11
ff
fd
e7
01
e2
08
eb
e7
10
eb
16
f5
f8
f1
f4
0c
1d
fa
02
16
19
18
03
e5
f5
19
02
0e
f4
fb
f2
12
00
fb
fa
1a
e7
0d
fd
1c
1c
05
fb
16
f0
15
ed
e6
e7
f8
f1
e9
f9
ff
10
0d
06
e9
1c
e6
0f
f6
eb
e4
0c
fa
f3
e6
f9
01
e8
07
0a
19
17
16
ec
04
06
f4
e9
14
ed
06
f0
12
0e
f9
e4
14
ea
e4
fc
f4
e9
ea
fc
eb
1d
e4
fa
13
15
e7
1a
12
ef
05
00
08
e5
fd
01
ec
f5
13
07
04
fc
f4
fb
e7
0c
06
fc
e5
ee
f1
f1
f7
fd
fe
fe
1d
11
00
fe
e4
12
fe
1b
e8
fa
15
14
15
ea
03
08
e6
06
15
19
18
0e
f6
17
eb
0e
ee
18
01
05
02
fb
fe
e9
0a
14
ff
f3
08
0e
11
ff
f0
0f
05
e8
eb
fa
f1
17
f8
e7
e8
e8
15
ea
ff
18
0b
16
fb
0e
08
ea
00
03
05
f7
e7
15
16
02
0b
e9
f9
e9
1b
09
11
ed
f2
19
10
03
16
ea
fb
fd
fc
11
1c
fc
19
ec
05
e7
e9
0f
ed
16
f9
0f
f4
e5
0d
0d
15
fe
16
0a
0e
00
e9
f7
e2
04
17
f8
f9
1d
15
ed
0e
fd
0d
fb
07
1c
0c
03
16
09
07
ee
15
f9
e6
e9
1c
ee
fb
1a
f8
14
11
16
0a
e9
16
fd
00
08
fc
15
04
13
00
12
1a
15
13
0b
ed
13
14
e7
09
08
f1
04
17
f4
fe
eb
08
f5
17
14
1b
0e
ea
e4
f3
13
eb
13
f9
0f
f8
08
e5
0b
11
06
1b
03
00
fe
fb
05
eb
1b
f7
e9
e7
15
f0
06
07
ec
0f
13
fc
ee
11
16
fa
1b
14
04
0b
fa
e2
f3
1b
ee
05
e7
0c
06
ec
f3
01
ff
0d
f1
e8
11
11
f3
1a
1c
ea
13
ff
ec
e3
0a
00
11
17
12
ed
f9
0b
f4
16
ec
f4
0c
0f
f5
e6
e5
00
1c
02
08
02
ee
ff
13
0e
f9
16
11
16
f2
e4
f4
fe
e4
02
ee
f8
0e
00
e2
f7
e6
f1
03
f0
17
11
fd
16
f3
e3
f6
ed
ef
fd
18
06
e5
e4
19
fa
12
f6
08
ef
08
e4
1b
e9
ea
06
ff
f5
f3
f1
0d
19
fc
e8
02
16
0d
f9
ff
e4
1c
fa
0c
1a
e7
04
e9
f8
10
f3
fd
fb
06
1b
fa
fb
0e
e9
fd
e6
ee
e4
ff
08
e3
17
17
0b
05
0c
f5
eb
e3
0c
11
06
16
f0
11
e7
f2
e8
04
e8
e6
ef
f0
ed
ed
e2
1c
ee
13
f0
1b
1b
fd
e5
fd
f3
ea
16
14
05
f1
f4
ff
f3
ef
0c
f8
00
04
f7
f8
e3
ec
1a
e2
f4
11
ff
12
ef
fb
fb
03
1c
1a
08
19
fd
04
fa
10
12
e6
f3
ee
e8
07
f6
f0
0a
05
f1
0a
08
e6
fb
e6
e6
e7
ed
e3
1c
f1
f4
17
11
e4
f0
0c
f8
e4
0c
e3
ee
11
fd
f9
13
0d
0d
08
f1
0c
fa
1c
06
12
f3
f8
ea
02
fa
e7
f4
ec
fb
07
0c
fc
17
1b
e8
14
f2
eb
fe
15
04
e2
e9
08
f2
0e
e4
f1
15
fd
12
ff
eb
e4
e3
e2
e8
eb
f7
0b
12
e5
ed
04
e2
fa
10
f3
1c
e4
03
0d
ee
08
e4
0a
fb
1c
fa
ed
f6
fe
16
15
0a
16
fc
18
ff
19
f4
ea
f3
f3
ee
e2
1b
1c
ee
fa
e4
09
fb
ff
eb
02
05
e8
17
fd
f3
f1
13
fe
1a
02
fc
f9
e2
fb
02
0d
f2
fb
1c
e3
ee
15
07
1c
02
10
12
14
fd
ed
18
f6
01
f2
e5
ea
00
f6
0e
e6
15
1c
16
08
0d
f6
0b
16
f5
17
09
fe
f2
0b
f7
f0
ef
f5
11
16
13
02
f9
f8
09
15
00
19
01
15
ef
12
06
e5
05
14
0b
19
fc
f8
14
1b
0a
04
19
05
0a
1a
ee
e9
0e
eb
06
01
07
09
e6
0c
f5
ec
f4
e9
f7
1c
12
ee
e5
ee
09
05
03
fb
0e
f6
06
eb
f9
ec
0e
e3
f1
12
08
e6
fb
f2
ee
fa
fe
14
1d
fa
1d
1a
ee
e7
08
fd
0a
09
1b
08
ed
fc
10
fa
f2
1b
06
12
fe
f8
05
f2
02
17
e6
e8
16
08
e7
09
08
ed
f9
f4
0c
0b
e4
10
ee
09
ff
07
eb
fb
e5
04
0f
f8
13
fa
01
1b
f1
f8
00
ef
eb
08
12
0a
f0
ff
f7
f7
10
f0
15
17
f3
02
e6
e7
ee
e3
0f
e2
fc
fc
09
15
f4
eb
e8
01
f3
12
1d
e6
eb
08
15
fb
13
19
0f
00
15
0b
1c
19
19
fb
ea
fd
e7
ef
f4
eb
1b
fa
0c
01
0d
f7
f7
e8
04
0a
17
1a
e9
08
ff
07
e5
03
0a
ec
f6
fd
e4
f3
ed
09
13
eb
fc
e3
0f
15
e8
e8
fb
03
14
fd
f1
01
10
ef
09
ed
11
01
ed
11
18
f2
f5
16
f8
f9
15
f6
18
ef
ff
07
fa
04
ed
01
14
e5
fd
eb
f2
ff
1c
05
ee
11
ef
10
f9
0f
f3
f3
fe
09
0a
e8
e3
00
09
02
ec
ee
0a
e8
12
f9
e8
f0
0b
f9
14
0a
04
0f
05
ff
1b
f8
18
fc
06
e2
0e
fc
14
f8
e9
e7
e3
e6
18
02
e9
18
18
04
eb
f8
18
fa
09
0e
15
1d
02
02
01
fe
ed
13
0e
e8
fb
02
0a
ee
14
e3
0d
ed
15
1d
ec
f8
08
f4
18
12
0e
eb
10
f5
14
e3
ed
0b
0b
f2
07
11
f3
e6
ff
1d
e2
11
19
06
e8
eb
02
f5
1b
02
17
e3
0b
e6
f5
ef
e3
13
f3
e3
fa
1c
f4
f9
04
e6
e5
01
e3
fe
ee
02
1c
f3
f6
f9
04
11
f8
f2
10
f8
0f
00
06
01
0e
e8
17
0d
0c
12
e2
05
04
1c
15
e8
fc
fb
ef
ee
e6
16
02
e6
e4
09
e6
ef
19
f5
1b
1a
f9
f9
1b
fd
1a
03
ec
e5
ee
ee
f2
fd
1c
fe
06
0f
e3
03
03
e4
ff
f2
19
01
0b
e6
0a
18
e8
ff
1d
fa
e9
fb
03
fe
e6
1b
1d
12
e4
ed
0c
10
05
e5
06
10
e7
00
e6
e2
04
1c
f6
1d
ef
10
09
18
e7
fe
f7
f7
1c
1b
16
09
e3
0b
f7
f2
1c
02
ee
fd
17
e8
00
04
0a
f1
f2
ff
ee
18
14
1c
fb
e7
f2
f9
eb
0c
e7
fb
fb
fd
e2
e7
f3
f1
e7
e5
e5
ff
07
02
16
1d
ea
09
e7
e6
f5
e5
0b
0e
f7
0b
fc
00
fa
19
00
f4
e6
fa
04
1d
fe
ff
e7
fa
01
f2
ef
e8
e9
f3
ea
18
0a
0b
e8
e2
fc
e7
12
ed
15
02
f3
10
ef
e7
fd
00
f0
f8
fd
e4
03
ee
e4
06
eb
fe
10
01
02
e3
05
14
0c
0d
f7
1c
fa
f6
ef
f3
ed
e5
f6
ef
e7
14
ef
e9
ff
10
1a
1a
e8
f2
ef
1a
14
07
0e
f5
0e
ea
11
02
fc
ef
e7
f3
fb
ea
f3
fc
fb
1a
16
0d
12
01
f9
06
fc
1d
1c
e5
ff
ef
e5
0a
10
e2
01
00
0f
e9
f4
ef
f2
ee
e5
14
f5
f7
fc
02
05
1c
e5
fc
0a
e2
f8
ed
0a
f4
ea
ef
e7
13
18
11
08
11
12
f2
ee
14
1c
fc
06
f8
f4
ea
00
1b
e2
18
e9
ec
1d
1b
f2
f3
01
0a
f7
00
08
14
f6
18
e8
12
13
1a
11
07
fe
f1
f6
10
17
04
fc
f1
fa
07
09
01
01
19
fb
04
fd
1c
06
00
fa
18
16
14
e3
ec
e9
09
ff
0b
18
1d
02
ee
ee
11
08
f4
f1
11
f4
f0
fd
1c
f2
12
0b
f8
e2
17
07
ff
f2
eb
00
ee
09
e9
16
f6
1a
14
f5
16
0c
19
fa
17
06
18
e4
ee
19
1d
fa
e4
e6
ed
e9
1a
02
ee
f2
01
f0
13
f3
13
0c
f6
12
f7
fd
e8
f4
f1
05
e2
07
f5
fc
04
f8
14
e4
f3
01
f0
ea
f8
08
ed
0f
16
1a
ff
01
0d
f0
fa
e5
ee
f8
0e
e3
09
0e
01
01
f1
ec
f7
fb
1b
1a
ed
14
1d
1a
0c
16
f7
13
06
ec
fc
fe
16
14
0e
f8
18
f4
e8
0f
01
e5
e5
ec
12
ef
17
1a
1c
e2
09
1b
16
12
ee
ed
08
e4
08
f8
0f
1c
07
f7
1b
ff
f3
17
ed
1b
0e
10
19
12
15
ee
0f
ea
16
1b
ed
fa
1c
08
f4
11
f7
11
1d
fa
e3
f6
16
f9
fe
0b
0a
f8
fe
fb
f0
e8
f1
1d
03
fc
06
f7
f8
f4
18
f0
e8
f0
14
07
06
ee
1b
01
ef
f4
ed
ff
f5
00
1b
06
10
f0
e5
eb
eb
e7
e3
e2
ed
02
ff
f1
f5
f3
ea
01
1c
1d
f3
fd
f3
fa
e4
0c
11
f1
ec
e4
0c
12
f7
01
fb
0c
f0
e6
ea
0a
e3
0c
1d
01
e7
08
e2
11
ff
01
07
f7
f0
f3
19
16
ff
f5
01
06
15
12
13
ff
12
ed
07
04
14
ed
f9
0f
09
e5
02
0a
ee
e3
1c
f1
08
e5
1c
01
fb
e7
f6
07
f6
fd
fc
18
1a
f4
04
17
fa
12
0c
1d
17
18
01
07
fc
ec
f0
f5
f7
19
18
ee
07
1c
ee
13
e9
0c
fc
06
13
1c
06
14
1d
ea
f1
e8
19
0a
f3
0d
f3
f0
1c
02
1b
fa
ec
fd
f8
01
e7
12
ec
09
f3
0c
ec
15
eb
fa
e8
01
05
13
16
e8
13
f8
1d
e4
eb
e9
06
12
e3
ea
e6
0a
0a
ed
05
e8
f4
1b
0a
15
09
f6
f9
e9
14
e2
1a
03
12
f0
07
f3
e9
ed
00
06
1c
fa
05
19
fc
0d
1d
13
00
16
fd
fe
ee
13
1b
ec
09
1d
ed
1b
ec
f7
0a
15
e6
1b
e2
00
0c
0e
1b
1c
10
f8
ff
11
e4
1d
0a
e5
ec
e7
f2
16
06
e7
13
05
00
f4
14
fe
07
0f
ee
ec
0d
e9
ee
e5
08
05
05
ef
e2
f4
07
ea
ee
e5
f9
eb
f3
f7
f0
f5
14
e2
08
ea
14
12
05
1c
e6
02
1a
ee
17
f8
14
fe
f7
f6
f2
e4
f0
ef
f0
fe
f2
18
18
12
f5
f8
08
e8
1a
16
08
e4
fa
f6
11
eb
fc
07
0a
fe
05
f8
16
e9
f2
e7
fd
f8
16
13
fc
03
1c
15
00
fd
05
f9
ff
e3
09
e3
0e
e2
f6
16
17
e5
1b
0b
ee
ec
ed
01
eb
1b
e8
e7
eb
f4
f4
ec
01
00
0a
fc
f0
f6
03
05
18
1b
08
f6
10
e6
07
f6
1b
fd
f9
f1
f0
e7
ea
ff
05
1d
1a
1d
ed
fd
e9
f1
e2
17
0f
f9
fa
12
05
f1
12
f5
fc
fc
0e
f3
eb
e8
0a
e2
ed
fd
f9
15
0a
13
01
ef
04
e5
00
11
03
f7
ed
f9
fc
ff
ea
f5
00
13
ec
e9
f5
e4
1c
10
e8
f9
f9
15
f9
e4
f0
f1
fa
0e
e4
f3
eb
09
1b
00
18
fb
10
ff
f3
19
01
ff
f9
e3
e7
f2
08
fe
03
01
fa
ef
08
e9
fa
f9
08
0a
e7
e9
01
1b
ec
14
00
07
fa
f4
f3
1a
08
10
01
06
e8
e4
18
e8
0f
fc
ef
07
11
ea
14
f3
ff
18
fe
e3
03
17
e9
08
1a
ee
13
fb
07
f0
1b
05
f0
18
fe
f1
e4
f2
e9
e6
11
e2
00
0e
0a
13
0c
0c
16
fb
f4
07
e3
02
f3
14
fb
08
f5
0c
eb
f0
1a
10
f9
f9
12
f1
13
fa
e4
f2
e5
eb
0b
01
0b
04
ef
04
e4
e4
ed
fa
0b
f2
eb
f5
f0
1a
07
f1
ec
f2
ea
0b
17
f1
ec
f6
e4
f1
10
13
f5
ee
0f
e3
ed
fe
e4
05
f7
e3
10
02
1b
0c
fd
f0
04
e5
10
0e
e8
13
0f
e6
f3
0c
07
f7
ef
e5
10
0e
09
06
ef
f6
10
0e
0d
ff
0a
fb
f8
fe
f5
15
ee
fd
ff
12
0d
15
f7
e4
13
11
09
04
13
16
fb
0e
04
1b
0b
ed
05
f0
ff
02
fa
08
fd
08
08
e6
f1
fd
0c
eb
e7
f5
0a
17
ea
ed
f4
f5
eb
fb
1d
09
08
13
09
17
07
e9
09
f3
0f
00
14
e2
1c
01
0c
e6
0b
0a
05
e2
e3
f1
e3
f4
19
11
f8
f7
f6
03
e5
fb
0b
0c
13
1a
e3
fa
e6
e6
e8
fd
16
f6
f2
12
12
ed
e8
17
03
16
08
03
eb
17
e5
e4
1c
ee
f5
ef
00
f3
f6
f3
eb
fc
f9
05
14
10
f8
16
e7
f2
f6
ea
ec
1c
f2
04
f5
e4
f4
ea
01
00
08
1c
fd
01
15
f8
e9
0e
f7
0b
f1
e4
0d
e8
f1
14
e7
fd
04
e5
05
0d
11
f8
16
0c
e5
09
e7
14
1a
12
00
05
f9
f3
eb
1b
1a
fb
02
fa
18
fd
15
1c
06
02
e3
e7
e9
e2
eb
e7
10
07
e3
18
09
f9
06
fa
14
11
05
e5
1a
ee
ef
0a
f9
e6
1b
fd
0b
1a
01
17
02
e4
08
13
f7
0b
f8
fa
f5
02
fc
17
13
00
fb
f2
13
f5
11
1b
13
02
01
00
e4
13
ec
e2
e7
f4
e7
04
11
1b
1c
16
e9
13
ff
05
f5
e9
f5
f9
17
18
ed
eb
ee
f7
1c
10
17
16
0f
e6
09
15
ec
e3
fe
e4
09
e2
0f
f0
19
fd
f4
ea
ef
f1
14
ea
ec
05
0d
ee
f0
e5
ee
f4
17
01
09
ef
01
05
f7
02
15
06
12
18
11
f6
1b
08
0e
1b
01
08
fe
f0
f4
e8
0c
10
f4
18
1b
fb
e9
00
f8
ec
05
fd
fc
14
03
0d
1a
e7
06
08
e9
e8
e5
01
e7
05
fe
e8
f0
f8
f6
ef
12
f9
15
fc
13
e2
f8
0f
1d
09
f7
f6
19
12
fa
1d
fd
f0
ef
e8
02
03
0e
ed
ef
04
fb
12
0d
ff
ed
f2
e6
07
19
f0
06
f7
19
f2
ea
07
fa
09
f4
f5
10
f7
16
f3
11
16
1d
ea
e7
13
0d
fb
ea
02
03
f0
02
f5
e9
04
1b
e9
e9
17
13
f0
12
fd
0f
eb
fd
ef
06
ef
12
10
1b
fc
1b
e3
01
fc
18
ed
e2
e2
15
1d
fb
f4
15
02
e8
eb
ea
0f
ea
f8
f0
f1
f7
13
16
e6
ef
f6
04
e3
fc
ef
ec
fd
f3
f3
e4
f4
e9
e2
0f
19
fd
fb
f7
fe
19
02
ef
00
e4
fc
07
08
01
17
ea
f0
18
f3
0d
e5
ea
19
04
19
0a
e2
12
03
e2
02
f4
0a
0e
0d
1d
12
13
0d
19
ef
f8
ee
19
eb
e4
ed
f8
0d
ff
ef
0a
e5
ee
f6
f7
0c
ff
e4
ff
0d
ee
e2
0c
17
e9
15
15
0a
07
e3
ff
fa
10
09
ee
1a
08
18
0f
f5
05
fe
0b
04
f1
06
f8
0c
02
ea
12
19
1c
0d
f9
19
0d
e4
fd
06
1d
e8
f8
f8
0d
1d
07
02
ec
f7
1b
e6
10
15
0d
06
fe
f0
e7
fd
fb
03
0a
e9
fd
16
ee
f2
12
f8
f8
f2
00
f9
0f
14
0b
1c
ee
f0
e6
04
fb
19
ea
17
ff
10
10
ed
0a
e8
11
ed
f8
f8
f6
eb
ec
f9
f9
17
17
0d
01
16
0a
17
0e
e8
fe
0b
e2
e4
0b
10
f4
06
f7
ed
ef
09
0e
fe
e9
04
e2
ec
ec
f4
e3
f6
0c
fc
f3
19
f6
e3
f3
10
e7
ff
0f
fb
17
fe
f1
08
04
06
09
0e
f7
12
e6
e3
01
05
e3
00
0c
f7
16
1a
0d
06
ed
17
f5
e5
f7
f7
15
02
18
18
03
f7
f9
13
ec
ec
10
ef
05
ed
e3
f8
eb
15
11
15
0d
e7
f0
06
fd
fd
03
e5
ed
15
09
16
ee
e7
e4
04
05
16
fe
04
0e
f1
1d
e6
0f
ee
0d
f3
17
19
f4
f9
07
f2
f4
04
12
e9
00
fb
e2
1a
1b
14
12
e8
02
ea
e7
19
1d
0b
f8
fd
fa
09
fb
e5
04
18
fb
ff
12
e9
fd
fb
0a
0c
16
ff
ea
05
fc
f9
f8
17
13
e9
f6
13
fa
02
e7
ed
f2
0a
ee
12
05
ed
fa
0c
11
06
0e
17
0d
e4
07
ee
09
f6
0b
fc
13
fd
e4
0c
f9
e8
12
02
0c
e7
0a
fa
03
ea
f7
fe
f0
00
1c
ec
f3
fd
eb
10
fa
17
fa
ea
1a
e2
08
1b
e3
fb
fd
fe
08
f9
e6
ea
02
11
fa
fd
1d
0d
f0
03
14
ec
ee
11
fc
0d
fb
f4
f6
fe
18
e8
f9
f3
07
10
e9
f5
00
0c
f9
19
0b
18
15
1b
0d
15
0e
ef
1a
f8
07
ee
11
e9
e6
16
f4
0a
e7
0e
e5
ff
0d
ff
1a
0e
fa
fa
0e
1a
f5
ea
16
15
0f
ed
ea
0b
1a
0f
05
eb
00
09
f8
f0
19
ff
e4
fc
e3
0c
15
e2
ec
11
15
0d
1d
05
e9
11
0b
e4
e8
06
f9
fe
07
14
09
ed
fc
e9
f6
f8
fa
fd
ec
f3
f4
15
e6
f8
11
ea
13
06
18
01
14
f0
05
07
19
f6
e8
16
f7
e5
0d
fd
f6
fe
eb
fc
00
f4
1b
0c
07
f4
1a
ee
1a
ff
fe
0a
06
f3
e8
1b
f1
f6
15
15
05
ee
15
ee
08
11
f5
ee
ee
00
f9
ef
0d
1d
e3
0d
0b
ed
fa
05
f1
0c
15
03
06
0d
16
e3
04
f6
f0
1a
03
f9
0f
e9
e3
f4
1a
06
ee
ee
0d
0c
13
fa
19
f1
07
ef
f3
1b
19
11
ee
e2
f3
05
11
1d
0d
f4
0e
09
0e
fc
01
f1
fb
ed
0f
ff
f2
e5
fb
02
fe
ff
1b
e8
ef
e2
e4
f3
11
08
f7
e9
fe
0f
f1
13
12
ea
e5
e6
11
e7
1a
e8
16
13
ea
e2
03
16
18
03
0c
19
f8
0a
e6
06
ef
ff
e7
0c
e3
0c
e5
e7
e9
10
16
0c
14
fc
18
18
ed
fc
ea
fd
fc
fe
1d
f4
10
f5
06
f8
0b
e2
f0
18
05
03
1d
1a
0c
05
0f
f8
1d
e7
ee
f1
f8
ee
f4
00
f7
02
fd
1a
07
e4
eb
e6
06
ea
fa
e9
f5
ed
f8
0d
08
fc
07
e5
18
10
f5
0b
f9
18
02
f9
07
0c
e4
f0
04
1b
10
17
f5
1a
e3
18
fb
f9
04
01
13
ec
e7
e8
e4
ff
e3
05
0c
11
06
08
e5
fd
f8
f6
0d
f8
ea
ef
e7
0e
e7
e2
1b
09
fb
e3
10
f7
ec
e8
ec
f6
fd
01
e7
04
01
fb
04
f4
01
fb
0e
ff
02
ec
05
e6
11
03
ed
08
11
06
0e
05
f6
fd
f7
15
00
0a
09
f6
07
ea
fc
eb
f4
fc
13
e9
11
0b
0a
09
ea
08
04
01
ef
03
1b
04
eb
f9
1c
f8
fc
1a
fd
1c
f1
ef
f1
14
16
0a
1b
07
17
ef
0a
07
f5
f0
f8
02
fb
e9
f7
f2
ee
f8
f8
1c
0c
fa
08
07
0c
e5
00
0c
f4
e8
ef
1b
1c
1a
12
fe
19
f5
09
fc
0a
01
ec
ed
fa
e2
e3
ef
ee
f0
ef
11
09
01
e5
0d
e9
0d
fa
0f
f7
f9
02
ef
12
e5
f2
18
ef
ef
18
ef
eb
fb
ea
e5
1a
e7
06
14
f4
e7
fb
07
06
e5
05
f2
fa
ef
f5
e3
0c
e9
f3
07
16
03
fc
10
1c
1a
18
ff
ed
1b
e3
0b
0e
f0
00
fa
12
05
15
19
e9
fe
f4
18
1b
f0
03
fd
e6
e6
10
f8
ff
f4
f4
1a
f1
13
11
16
fa
e8
ee
e5
e3
08
eb
e7
11
1c
ee
e9
01
e3
fb
14
fc
1b
19
0c
03
f6
07
fd
f6
07
0b
05
14
14
0f
e5
03
15
10
1a
19
12
ef
12
14
1c
0b
fd
f1
13
19
11
ee
06
1b
1b
f0
f6
f1
0f
f5
e7
fa
12
e5
1a
10
0e
ef
09
f7
e4
10
07
f8
e3
10
00
03
19
1a
ea
01
f6
fe
14
07
08
1a
f5
10
10
1c
fa
0f
eb
e2
12
0a
18
ed
1b
fe
f6
fa
15
e7
f8
08
ec
1a
ed
ec
f5
05
19
e8
e8
1c
fa
f9
1a
0c
00
0f
02
f9
f4
07
18
07
1d
13
11
18
0d
f4
07
f4
f5
f8
e4
0e
fe
f1
1a
06
1a
e8
05
f9
15
ea
1d
13
19
04
0d
19
fd
07
06
1b
ec
f7
11
fb
fb
e5
02
05
ef
e4
11
fa
ff
07
1b
1d
01
e2
01
03
f5
f2
ec
0e
1b
17
13
ef
07
f6
04
e2
ec
fe
0b
0c
0e
05
f2
fd
e9
1c
eb
19
eb
12
f3
1c
ef
17
18
fb
0d
f8
f3
f3
ee
e5
17
e3
02
1a
f8
e4
18
02
f9
08
e8
0c
0b
fd
f6
e5
f5
0c
fa
1c
1b
12
fd
f1
eb
04
16
e6
fc
01
e3
02
e3
f6
05
e6
09
e4
1c
ed
f6
11
00
f2
f3
1a
fb
17
02
1b
19
fa
fb
06
14
ef
11
03
e4
e7
1b
05
ea
17
f4
04
ea
01
11
f1
fa
ef
08
12
e9
f2
05
1c
e7
15
fa
0a
17
ff
e7
f5
e4
17
02
0f
14
10
10
ed
19
f2
f6
1c
0b
f1
02
1a
ed
1c
07
1b
e6
0c
0c
e6
ec
05
10
1d
0f
e2
09
fa
13
0e
0f
13
09
f4
f7
e7
f0
eb
1d
e3
03
ff
09
e5
ea
02
19
01
05
e5
08
0b
f3
15
0e
0e
f8
fd
16
f8
e4
f1
e5
0e
f7
06
fd
f8
12
0a
e5
f8
e2
0e
f7
ec
10
15
fc
03
e8
16
ff
e6
1d
fb
1c
0c
e2
f2
e4
19
0b
13
17
e4
04
17
f0
04
e6
07
01
fa
07
ec
17
e6
0a
15
09
f5
f6
fd
e6
f5
f4
e4
f8
e5
0c
e5
f2
1d
ef
e6
f8
11
0e
ef
ff
00
15
f2
f1
1c
05
e6
0d
f6
10
ff
0c
f8
11
0f
18
f8
0d
03
e6
fc
15
1c
ea
0f
ed
ef
f6
e3
f1
e8
0e
e4
0d
f7
ff
fc
e9
f9
f0
e9
12
0f
e7
ec
01
1c
f1
1d
ed
fe
13
0b
f8
13
f0
13
eb
f7
e9
ee
e7
1b
fb
f5
09
f8
1a
e2
02
13
e8
e4
ff
f7
f7
ee
ff
0b
09
f9
05
10
19
16
07
11
0b
e2
1c
e4
f5
06
fe
f9
f6
09
fa
0e
03
16
12
04
e9
00
e4
ee
f0
f7
11
ed
14
03
ef
f8
12
1b
06
16
15
1b
16
e2
06
ec
f9
f5
0e
e7
ea
0c
0b
12
16
0b
18
fa
1c
fb
06
fe
e2
ef
08
f9
f1
01
19
05
eb
ff
1d
0d
02
05
e9
0e
f4
eb
e6
15
f4
1b
fa
fe
f5
0e
06
1b
ee
0c
18
16
f6
01
0a
0a
10
0c
ed
08
08
ec
ed
fd
e4
0b
fa
0f
09
f3
16
e8
eb
17
fc
f6
f5
03
f0
e4
12
e3
0d
05
14
ec
12
f5
e6
00
ed
f1
02
e5
fd
1d
03
09
e5
f7
1d
ff
f2
03
fe
e4
01
eb
e9
eb
f2
f2
fd
17
f8
1b
00
f4
0d
18
0a
ed
f6
fe
11
12
1b
fd
17
07
1a
16
eb
f4
18
f2
e3
f3
f2
f6
e3
fb
14
ed
07
f9
e4
f8
eb
1b
0b
ee
00
e3
e6
13
0b
f8
e9
f9
0f
1b
00
13
15
09
ff
08
eb
0e
f6
0c
11
f1
e7
ff
10
0e
15
e5
19
f0
0c
05
f3
08
fd
0b
18
f9
e3
f4
18
13
fa
0b
fa
fe
e4
09
17
16
03
10
01
0c
16
fe
19
17
15
e2
f3
11
f8
f3
09
1d
16
e2
0d
19
06
ee
e8
15
eb
e3
0f
08
ed
ee
e6
fe
06
16
01
15
00
17
0f
14
f6
09
f9
f5
fb
ff
e5
02
fc
e6
f6
f6
f6
0a
fa
19
13
e9
ec
ea
10
08
f4
f6
02
ee
f6
19
00
ec
e3
0e
09
04
0d
fd
fc
e6
ea
14
e3
ff
1c
0a
fb
10
ec
16
fa
08
e6
09
e4
ff
ea
f6
0d
ef
f7
05
04
01
f6
01
f0
12
1d
ed
e9
0c
fa
0e
ef
1c
e3
f7
15
e8
17
f4
ff
16
e3
0a
f3
f5
0e
14
11
11
00
19
17
08
e4
ea
e8
1d
ef
0f
e9
17
e4
05
f8
fd
17
f3
f0
ef
07
f8
09
0f
fa
1a
1a
18
0c
f2
f9
ed
15
0f
fc
0a
fb
e9
14
e9
ee
1b
eb
e6
10
0b
13
17
08
09
e3
0a
e9
02
f2
02
f6
03
f7
f4
12
eb
16
e3
eb
18
06
1a
e5
14
ed
f0
ed
01
00
ee
16
e5
17
f7
14
e4
17
e8
11
13
06
0a
03
e9
e8
e7
e4
0b
13
0e
16
ee
03
18
fa
ef
14
ec
fd
ef
05
e9
ee
fd
f5
ec
f6
fa
ed
18
e4
e6
14
00
0a
e8
0b
03
f7
14
f4
e2
f1
ea
0d
00
02
02
e8
10
1a
fa
19
fe
e2
e3
07
1b
fa
f1
06
f3
ed
e2
e8
04
1b
ea
04
fc
ea
10
fb
07
12
18
ec
ed
19
00
ee
ef
02
03
04
1d
ed
08
17
f2
e7
e6
05
10
fa
18
ef
f8
f0
13
ef
f4
f2
1d
0c
e3
17
e5
e2
eb
f9
0e
e7
09
ea
10
18
f0
0b
0d
10
ef
e4
ee
e5
f6
f5
ea
f0
19
08
0c
10
fb
0f
04
f3
11
1a
07
0c
1d
0c
09
01
0d
ff
e8
fa
04
eb
fc
f2
06
1d
00
1a
e5
e8
03
0e
17
e7
f4
0d
13
09
fb
e7
0f
14
f3
e6
06
ed
e4
09
07
15
ef
01
eb
07
08
f1
e6
ee
f5
fa
ff
10
f3
0c
09
fc
0b
fb
ee
f3
1c
16
ec
19
e3
ff
f5
f8
0b
f4
01
ee
1c
ef
ea
e8
0c
e7
f0
14
18
eb
e4
e7
05
e2
0f
e6
e3
07
03
18
08
14
03
ed
08
f8
07
ed
1a
0a
07
15
01
0b
14
0a
ed
04
e4
09
f7
0f
f6
15
10
08
1c
17
ed
0c
e6
e8
f9
fb
05
0f
fd
01
13
0b
ff
02
f9
ec
09
06
f3
fa
05
fc
e6
e9
1c
11
f3
eb
17
1b
f8
e6
f4
1c
f5
09
0e
0d
07
13
e6
18
01
e2
ee
f5
09
f4
ef
f3
05
0e
06
f9
e5
02
e5
f2
0e
12
f9
17
08
f9
05
03
15
0e
0f
12
e5
f9
f7
0b
13
11
e3
e5
ee
02
04
17
f8
1d
0a
02
e5
f2
06
e8
0f
e6
eb
15
ec
10
00
fe
09
0e
e8
f6
19
1d
1a
16
14
ed
10
e6
15
08
08
f3
f9
15
18
f8
eb
ea
0f
f8
10
1b
14
f1
fc
1a
0f
10
0b
08
fb
e8
03
17
1d
e2
08
05
f7
ef
fe
e6
e8
0a
08
e5
1d
f0
01
06
f3
ee
0d
11
ff
f0
11
f5
e3
18
0b
f2
0e
0f
0a
08
e7
ff
f7
18
12
fd
05
ef
f0
00
18
10
1c
ef
10
f6
07
fd
09
10
03
0d
1a
02
f9
e4
ef
ed
ec
14
e7
10
fc
12
16
05
e3
1c
07
01
f2
ee
08
f1
f1
0a
f6
03
e5
1a
f9
06
e2
f3
04
e5
ec
ec
18
f7
0d
ee
14
e7
01
f1
01
ec
e6
13
00
e4
fc
15
19
08
e6
17
f2
14
f8
15
12
07
15
12
15
09
f4
ee
f4
0f
fc
1b
05
0d
0a
ea
f8
f2
14
f2
17
0d
1b
07
14
0b
15
e9
0b
00
ef
f9
ea
1a
0e
1d
fb
0c
eb
05
eb
e3
fd
13
fe
e7
03
e6
e8
11
ee
e4
11
18
01
1d
09
f7
12
f1
e7
05
0d
fe
e9
e4
fe
01
17
e5
15
14
e3
e8
03
04
f5
15
17
1c
eb
f7
fc
07
18
e3
19
ea
1b
1c
09
1b
e8
e7
0f
0e
e5
02
f1
00
f7
1b
17
f6
18
e6
00
10
e5
f5
0b
f7
01
e6
f5
1a
e6
13
f5
1b
0e
04
0e
10
fd
0a
fa
f6
09
f9
10
0a
1d
e6
1a
ec
07
fd
f7
fa
05
ef
ff
15
f4
19
ed
1b
1d
07
f3
04
ef
ee
12
10
15
fc
ef
e9
14
0f
13
fd
12
f0
1c
13
e9
1c
f0
f8
e9
16
0d
f6
14
0e
e2
ed
0d
14
1d
0b
0c
09
f0
eb
f5
10
f3
05
18
e2
e3
f4
f6
e3
05
18
10
14
13
1d
ff
02
e5
ec
1a
11
08
04
0f
1c
e2
e3
14
ec
1a
f9
12
03
e5
18
e5
1a
f8
f6
e5
0a
19
19
e3
fd
e4
f6
ef
fb
0f
07
f7
13
fe
16
e4
e2
fe
03
e5
e5
f4
ec
f5
fc
19
e5
f2
01
fc
f7
e9
0f
1b
19
0d
ef
18
01
0c
fa
18
ff
e4
0b
07
01
fe
09
12
17
02
15
e4
0c
f0
e2
0f
fb
e5
09
16
e8
16
ff
0d
ed
e4
07
13
10
f4
08
1d
09
ea
06
fa
e7
fd
0d
08
06
ee
fb
fa
05
19
f8
ef
02
0b
1c
ff
09
e7
01
09
ff
15
0b
e7
f1
09
ee
0f
e9
14
ee
e6
e7
1b
06
0e
ff
0f
f4
f1
15
f2
e6
e2
ed
f2
0e
1b
e6
f6
1b
01
05
18
f9
fe
0c
f9
e7
1b
f5
f2
ee
0f
02
0f
ea
e9
01
15
07
e4
f8
06
0c
e4
09
13
e9
e9
ec
17
eb
fe
13
04
06
06
16
01
e2
fd
e9
03
0c
f8
0a
fb
fb
e6
ed
ef
09
ff
07
f8
02
05
0f
15
ff
1b
ec
f1
13
01
1c
e4
ed
0c
0d
e3
ec
1d
1d
eb
02
e9
ee
f4
07
f0
eb
f4
e8
ee
01
fc
fa
e2
e7
1c
00
ea
1c
eb
1a
f8
e7
e3
f6
0f
f4
1b
e6
ee
03
07
0b
0c
1c
1b
fa
02
e3
f3
12
1c
04
1c
1d
f9
eb
01
0d
10
17
f2
04
02
12
f8
ed
01
16
fb
fe
02
e7
06
ff
e4
01
0b
ec
1b
eb
0b
00
ec
1c
06
07
f1
ee
f3
0a
08
06
fb
fe
ec
01
0c
1a
10
13
05
19
03
01
06
e3
ed
fd
f3
07
15
04
1c
ff
0d
f7
0f
02
f3
11
ef
f4
f8
03
f7
05
05
ee
fc
e3
14
e3
ee
06
02
f0
ee
f4
f4
f0
1d
f4
05
f9
f0
f0
0d
00
f2
e9
f6
0d
f9
1d
fd
ed
e5
05
01
1d
13
0b
01
ea
fe
00
0b
19
fc
e8
ef
eb
1b
1a
16
e6
e3
09
f5
e3
17
0d
e9
e7
f2
19
e7
ff
ea
f8
ed
19
17
f9
f6
f7
0d
ed
03
1c
0c
1c
13
05
fb
ea
0d
f3
17
05
fa
fa
0a
e2
09
0e
f8
f3
f4
11
02
e7
0e
ed
f3
f8
f1
04
e9
0d
05
e8
19
15
13
f8
fc
fa
0e
0d
0a
15
11
f8
e8
12
0e
f2
e3
f9
00
f0
09
10
0f
03
ff
14
08
ff
ee
0a
f5
16
13
19
ef
f7
14
06
ff
f6
05
f2
05
eb
f3
16
15
1a
e9
00
1b
e5
12
f9
fe
e9
07
f1
12
e6
fb
e8
02
11
eb
ed
06
ec
14
00
0e
04
0d
e8
0f
06
14
e5
1a
ff
10
04
e7
ed
04
ec
10
12
18
08
fd
ed
e9
ef
07
07
f3
19
fd
ea
ec
0d
14
14
12
18
04
07
0c
13
e4
e2
11
f9
f9
e7
0d
0b
ed
fa
11
1c
e7
f3
1b
ff
11
0a
f5
f3
e3
e9
f8
00
fa
00
13
ef
eb
ee
15
14
f9
1c
17
16
06
f0
06
fc
03
e3
fa
eb
fa
e3
1c
f1
0d
00
ea
fc
f9
e9
17
0e
e6
eb
19
05
04
f2
00
fc
04
1b
fb
ec
16
f4
12
09
02
03
1c
11
f8
02
0c
e4
13
07
f0
f4
12
e4
e3
1b
f4
ed
fd
f0
e7
02
fd
04
17
1d
f1
13
1d
ea
18
09
0c
02
fb
11
e8
0a
f7
13
13
07
ed
e8
ff
05
fe
07
e3
0f
e9
08
09
f8
0c
13
06
14
15
04
e4
f0
11
f7
19
e4
1c
16
eb
e9
1a
f3
0b
16
12
03
16
00
fb
16
0b
ee
16
0f
1a
0f
02
01
0a
f6
01
0b
f0
fa
0f
0d
04
14
1c
f5
f7
ee
0d
ff
e5
1c
f9
f4
1c
17
e2
f3
0b
ec
f6
ee
fc
f1
e5
f0
ed
f8
0b
00
11
e6
f3
1a
e9
f5
0a
13
00
f9
1a
e7
10
e9
13
f6
04
1a
e8
02
08
f2
0d
1a
1d
0a
1c
01
eb
03
fd
01
e3
f6
0e
fc
10
f5
e4
06
1c
03
1b
fd
f6
fc
e6
1a
ec
02
04
fe
0e
f9
f5
1a
f5
f3
e9
f0
17
fe
14
14
ee
ef
f9
16
fc
e7
ff
f6
02
1b
e6
ec
04
fd
f2
17
f1
04
f4
ed
e3
15
f1
14
e3
e8
e8
f9
18
ec
f9
f3
05
00
1d
f0
e5
03
08
07
13
ef
e7
00
ec
fc
f1
fd
1d
16
19
01
01
e6
e2
fe
ed
1b
07
0b
0f
1b
0b
03
09
0e
06
e9
15
e9
09
e8
0e
10
06
17
ee
1a
f2
17
e7
e9
0e
17
15
00
09
f7
f2
13
0c
f4
f5
04
01
f8
1d
06
10
19
ea
e5
f8
08
14
f8
ed
1d
0e
f9
0b
07
f0
19
1b
09
e4
f5
09
02
1b
12
eb
ef
ee
f6
1a
ef
e8
ff
fa
ec
f0
0d
01
02
f2
fb
02
06
f2
08
fa
ea
00
f5
ed
f0
fc
e7
1c
00
06
09
ee
f2
03
e8
06
19
15
00
04
f2
e5
f3
08
16
e9
0a
ed
f9
02
02
f2
f7
04
05
09
0c
f4
14
11
19
ea
08
e5
02
0d
e5
f9
11
0e
08
1b
1c
f0
f1
13
07
0e
13
09
e4
f7
03
f4
ec
13
0a
0d
ea
17
11
f4
fd
e2
e4
0e
f4
1b
12
e4
09
f1
fa
e5
e2
0c
f3
e9
ee
14
f2
f3
e8
13
16
00
e2
f6
0f
f9
ea
0d
17
02
f2
e7
07
18
f5
03
ef
07
06
0e
06
f1
f4
14
16
1a
eb
f5
07
e5
10
e9
f9
0b
05
04
17
05
ed
f3
0a
14
f8
ed
03
04
0f
e6
eb
e6
fc
03
f5
0c
02
f6
19
f6
14
e9
0f
07
e5
0b
fa
0c
f0
1b
eb
f6
ff
10
0c
0f
15
15
11
f4
0d
ff
01
18
f7
09
16
16
e2
08
ea
14
f1
ef
11
f8
0c
01
fb
f2
f8
e4
14
06
04
ff
12
03
13
f1
e6
eb
0d
0b
ed
f1
f7
fe
08
fa
eb
fa
05
11
1a
11
16
ed
13
0e
e9
ee
ed
0c
06
f2
19
18
02
1c
11
eb
f3
e2
0b
12
ff
18
f4
18
04
ee
10
11
f4
e2
fe
f7
00
fc
1b
18
04
19
0e
01
1a
ea
ff
09
ec
f9
07
07
0c
05
e4
f7
e3
03
0b
f5
06
18
fb
15
f2
19
02
08
ea
0f
e3
ec
06
f5
fc
e8
0a
f2
19
fb
fe
f4
12
f0
13
16
02
17
0a
03
fc
fc
ed
e5
f8
fa
04
17
06
ff
f5
fa
0b
13
f0
f2
f5
05
03
ef
ef
e3
17
0c
ef
16
01
1c
16
fb
ef
1d
f2
06
f6
1b
07
0f
09
0b
12
f0
1d
f4
16
0a
03
0a
fa
e9
14
f1
11
e7
0f
e7
14
11
e4
19
fc
fd
ee
1a
11
05
f7
07
0b
17
ff
ff
09
ed
16
0c
07
f4
03
13
e2
13
f1
e6
fd
07
f9
f3
01
04
e8
f0
f4
fb
f5
18
f9
19
ea
08
0f
1d
e5
fc
1d
fe
1a
11
f0
f9
1b
18
18
ec
00
eb
ed
ee
e6
f0
e8
01
13
01
11
e5
15
f9
11
0c
fb
f8
fc
e6
eb
f7
06
ef
ff
04
0b
19
f2
ff
ff
01
fe
e5
18
e9
f0
10
06
13
e9
17
08
0e
f6
04
0b
fe
f0
f0
ee
f8
0d
e9
15
e8
f4
13
18
07
e6
0c
12
f3
16
06
05
e5
1b
15
f8
fb
f7
e2
f1
ef
f3
0f
1a
18
f2
fe
18
f6
ff
19
15
0c
e6
01
06
f7
1a
ee
f9
f0
04
fd
01
f3
1a
0d
f8
ee
e6
1b
f1
1a
0d
1c
0b
ea
15
15
f4
06
1c
19
fc
e2
17
12
01
12
07
ff
1d
0d
f0
ff
03
16
f5
02
0f
e3
05
1a
00
f6
f0
f3
0b
ef
15
ec
07
fe
03
1b
06
0a
0b
01
0c
ef
0f
e4
18
09
0b
ee
e3
11
0c
00
fe
15
09
12
16
11
16
04
16
1c
12
fb
09
13
0a
03
f9
03
1c
08
fc
06
15
11
08
14
01
07
e6
f9
1a
e9
ee
f8
eb
ff
17
07
e2
02
f5
ee
18
14
ec
1b
01
04
f2
ef
e8
f8
1c
0c
ef
f6
11
0f
e7
f4
e4
fe
ff
04
0c
f5
f0
f0
19
18
e5
0b
ea
f7
05
02
12
14
ef
06
ec
e5
e7
fd
f5
19
ea
fe
f1
07
01
0c
f2
16
e6
f6
e2
e6
f8
e2
fb
02
0a
f3
ff
e6
08
14
06
0b
f3
f5
f8
f5
f6
f8
f8
e8
01
fb
ee
f3
f3
05
0f
05
1d
05
1a
07
e4
f3
12
fd
ee
0f
03
19
08
f4
05
ef
0b
12
0f
ec
01
07
11
e7
0b
f7
f3
16
e2
0d
18
1b
e9
ff
ed
02
ed
e3
0b
18
f1
0d
ed
04
0c
f1
fd
f8
e5
15
1c
eb
02
09
e6
ef
01
eb
05
fb
fe
e3
1c
1d
e2
04
16
e9
0a
e8
12
f9
e4
e7
0e
0c
e9
02
f2
16
e7
09
03
1d
ed
18
e2
f2
f3
11
fe
16
ef
ea
10
09
1c
eb
f3
00
10
f3
02
19
fb
fb
0d
0c
0a
0e
02
0a
15
fb
f9
03
e8
e8
f1
f2
ee
fe
e2
15
05
0a
ee
0d
f9
12
f7
e5
13
06
e8
1a
16
f6
10
e8
ed
07
e9
19
f3
eb
0a
f3
16
12
ee
03
f5
00
fe
15
ef
fd
08
e3
f2
11
18
03
e8
17
e9
e7
14
e6
01
09
0e
0f
18
03
e8
f2
04
fb
16
16
00
07
18
01
16
eb
07
f2
f3
ee
e8
ea
06
12
11
ee
e2
e9
0d
1d
ee
f2
fd
e3
15
0d
ef
f5
1a
0e
f2
e7
f6
06
05
12
14
ea
14
10
e6
e4
02
e8
e8
f4
11
07
00
ef
09
09
1d
e3
f5
03
ff
02
0f
f6
e9
f3
1d
1c
f5
0d
e7
1a
14
10
f7
e3
e3
0b
01
07
ed
fa
1d
02
00
1a
0d
fe
0c
1b
0e
03
f5
03
13
14
17
e3
e6
ee
f0
e5
f1
0c
f0
07
0e
f7
ea
f3
01
ea
fe
ed
f1
1a
18
11
13
f8
ed
e2
08
03
ef
e3
1a
1d
1a
f1
19
e4
13
06
ed
fc
ec
f8
06
09
fe
ed
f0
ee
19
16
16
0c
0f
0e
15
e7
e6
03
13
f3
f2
e7
18
11
f9
01
1c
fd
fb
03
0b
e5
e6
18
16
fd
e6
0e
ed
14
fc
f2
16
1d
f7
e7
1c
fc
e6
06
e2
0c
04
e7
e8
0c
ee
1b
e8
e3
fd
18
06
f1
09
13
10
11
02
f4
00
07
10
09
ee
08
f8
fe
0a
f5
e8
0a
ec
12
ef
fb
0e
e9
f2
fe
fe
1d
f6
e7
19
15
f9
ea
19
1a
05
0d
16
e8
06
fa
ed
0a
06
17
f5
05
f3
10
07
f7
ec
13
05
ff
14
06
05
1d
03
f5
f0
03
05
ec
1a
17
f3
02
0b
e6
09
1a
e7
05
fb
ee
ec
ea
13
17
f6
fe
eb
e4
0b
13
e4
12
0f
07
f2
0a
1a
ed
ec
e5
01
f0
f2
e5
ec
1d
0b
07
1d
0d
fe
01
f0
ff
e8
e2
ea
07
05
1d
0f
eb
06
fe
04
fa
f5
ec
f6
f9
fe
f6
1b
f3
19
e6
fa
10
1c
04
13
fd
12
02
ec
f1
eb
fb
17
12
1d
10
05
ee
07
e3
10
e7
ec
e2
f8
0d
0d
e3
04
17
00
fe
1c
19
fa
05
1c
ef
ee
05
1d
f2
e9
09
11
14
1d
07
18
f0
16
0b
ff
10
e9
14
13
eb
eb
11
e9
f0
f3
f4
08
02
05
00
16
01
fb
e9
ec
e2
e4
ff
0a
05
12
ee
fc
fb
f7
0f
04
e6
e5
01
fe
1a
08
fc
e3
fd
ee
01
17
08
f1
e3
16
ea
fe
eb
ef
0e
0b
ee
ff
13
11
15
fe
02
e7
0f
fa
e9
e2
09
f2
f2
e2
f5
10
08
18
e2
19
ea
f5
09
ed
13
f5
fd
e9
02
07
07
03
19
12
0b
19
e2
ec
e6
e6
ee
11
0a
e9
14
f9
e5
f5
0b
14
1a
10
0f
07
03
12
0f
e7
f2
08
fb
16
f1
fd
14
12
13
0e
0c
0f
f6
eb
19
1c
ed
17
f9
fa
ed
f1
fc
e9
06
fb
e5
0d
f4
ea
00
17
f5
eb
16
f7
10
12
ea
1b
fe
f2
02
ef
fc
07
f5
f3
1a
fb
05
0c
13
17
f9
09
18
0d
e3
16
fb
e5
08
f4
f3
fe
1c
01
f1
1c
e5
1d
02
f7
1b
e8
1d
f8
1b
f0
f3
e8
07
14
0b
ff
f9
e4
f8
13
12
e8
ee
e6
10
e5
f0
0d
eb
f5
e7
0c
11
19
e6
13
ec
0c
f8
f4
ef
03
ef
ee
03
ff
eb
0d
fb
11
0b
04
10
02
f4
e8
08
1a
fe
f6
ef
e5
f3
e7
0f
05
f3
f9
0d
e5
0f
09
f0
fb
f5
f9
fa
f9
10
00
17
19
17
09
04
19
07
ed
f2
14
19
02
ea
f9
e8
03
ec
09
f5
ff
07
06
12
ff
00
03
19
ee
f5
19
09
e4
03
fd
1b
00
01
fa
f7
10
16
e5
1a
13
e9
eb
15
1d
11
eb
ec
f8
eb
f7
02
f4
16
01
03
e3
e8
19
00
0d
f1
0b
e3
0d
f8
e7
08
03
e7
ea
e5
f3
14
e2
04
03
fb
07
0d
1a
fa
ec
f6
06
f3
f5
fa
05
1a
02
16
09
04
09
01
ed
02
e6
f0
06
1b
15
fc
f2
19
e6
1a
1a
fe
ef
fa
fa
01
ff
e6
e4
f5
08
16
08
ee
fc
1c
ee
1a
09
1b
02
fc
f0
11
04
0d
ec
1d
1c
f7
07
ee
02
04
e9
e2
0c
11
f6
11
fc
f1
07
04
f9
e7
19
fc
11
05
0e
1b
f8
f8
0d
19
0b
f9
0d
09
04
e7
1c
fc
1b
f7
0e
f8
0c
12
1a
ec
14
11
07
f6
0c
0b
18
e3
15
f0
fa
ee
01
e4
13
15
fb
f2
1c
1a
16
fd
ee
0d
10
17
1d
14
e8
fb
f6
04
f7
07
1b
10
05
0e
17
14
05
e9
0a
0b
ec
ec
12
fd
1d
f1
f9
ff
e9
f8
f1
e9
fc
17
15
00
f2
0c
1a
18
02
fb
0c
08
fa
0b
e2
19
f4
0f
ee
15
02
07
e6
14
0c
14
1a
ee
ef
05
e3
ff
f6
f7
ea
e5
ec
e7
f5
f0
fb
eb
16
1b
16
16
f1
09
1b
f3
fd
fc
1d
f8
19
fa
e6
fa
fa
f8
e9
03
fb
1d
fd
04
f3
13
ec
e3
f9
ff
07
16
f1
f8
eb
ef
1b
00
04
06
f0
f2
0c
f6
1a
f0
0c
e8
0c
f4
f5
07
00
fa
e2
e2
12
f1
05
00
03
fa
fa
e6
15
01
f4
02
f4
e2
18
08
12
fa
09
07
17
e4
f3
f0
fa
00
e4
03
16
e5
f0
ea
f3
e3
e7
f7
0b
fe
08
12
13
f8
ef
00
f3
14
e5
15
f5
09
eb
0a
e9
09
15
f3
05
fb
ee
e8
0a
14
e8
f5
f5
09
07
0f
fe
18
e6
fa
16
0b
15
0c
fd
eb
f9
12
15
0e
e9
0a
e5
e6
16
e4
18
0e
0b
f0
1a
e6
03
ea
ff
fb
f4
19
00
10
e7
e3
1c
f3
10
f4
f1
f9
00
17
fe
07
13
e2
11
13
0d
19
e3
19
13
14
12
f3
ed
ea
ed
01
14
10
e5
f5
ec
fe
ed
fb
e2
06
ea
19
f0
0a
e2
0a
eb
1b
fb
ee
06
fd
fd
ed
07
08
e4
04
14
0d
06
ea
15
f6
1a
1c
17
e8
f2
0f
05
13
09
fa
1a
ef
f6
f9
1c
16
01
ef
e2
18
ff
f8
05
0a
eb
18
f2
18
f8
16
07
f8
0f
e8
f5
fa
01
07
f1
04
ef
1d
04
1c
08
e9
0e
13
1c
fd
f2
f1
e3
f2
f4
f2
08
e5
ee
ee
e7
08
e9
1b
06
11
0a
15
09
f2
f2
e7
0c
ef
e9
fc
e3
1b
e5
f2
fe
e5
0b
06
0c
1c
fc
e8
f2
fd
1b
07
ff
16
11
19
02
18
fe
fe
f7
ff
09
f4
12
08
16
19
0a
01
19
f1
f8
00
e7
04
ff
f9
ee
04
08
ec
e3
f8
f1
0a
04
f2
11
e3
fb
f5
f7
05
15
1a
01
00
00
e3
0f
17
ea
f4
10
fc
11
eb
04
e5
e2
f1
fb
03
ea
11
0d
03
f8
0f
0e
06
13
fb
e6
02
02
16
e6
e4
e5
e5
ee
02
17
05
e2
fb
eb
f2
1b
f4
0e
14
16
17
0f
ea
ff
06
ef
f6
00
13
fc
01
ed
17
12
14
04
07
17
eb
02
0e
e6
11
f2
ec
f6
12
e5
02
0b
f9
09
ec
15
f0
fd
0e
16
ed
04
0a
0c
e5
0d
f9
f6
e9
08
18
14
fe
eb
0e
17
f8
f1
f1
e2
ec
fb
1a
fb
16
e7
e6
05
e4
10
f6
1b
f3
ee
0c
fc
f0
14
f7
e5
e4
f0
f8
0a
fe
03
0e
0d
fe
e2
0b
1b
e8
00
e3
01
fe
0f
15
ee
e5
fa
08
00
13
01
08
09
e5
f1
1a
e8
fa
1d
e4
01
e7
1b
fb
1b
1d
04
f7
13
02
04
1d
fc
1a
fd
ff
0c
f1
ea
09
0b
05
f3
f2
14
08
0a
f4
f6
1b
e3
15
0b
e8
16
fb
f0
f4
1a
f8
fa
0a
0b
e7
02
ec
13
ea
e8
ff
0c
fd
00
e2
0c
e3
1b
18
09
e2
0f
f6
1c
e4
03
04
15
f7
14
e4
ee
03
ef
ff
f5
e8
e3
0f
f6
fa
0f
f5
1d
0a
fa
1a
f3
e7
12
e9
ee
f0
1d
13
ff
02
fc
07
f8
fc
05
1a
01
e6
ea
10
ec
f8
16
e2
1c
ee
09
02
f5
18
10
0f
03
09
f6
ee
00
1d
f6
e4
e4
e9
ef
00
00
13
05
03
fb
17
02
13
10
0c
13
f1
19
fe
fb
03
fa
f6
e6
18
fa
ee
17
e2
0e
e5
10
05
e8
f8
e3
f1
1c
fe
f2
ed
f3
ed
0b
e6
0d
0e
08
09
0e
ee
f1
0f
fa
e2
f7
1c
10
17
0a
09
fa
0f
fa
ec
1c
f0
eb
fc
09
1c
01
fb
0f
01
ec
10
e3
e5
1a
e8
15
ee
fb
ea
e9
07
16
f9
1b
0b
0d
e7
f7
e8
f9
ee
fa
f3
fb
f0
12
19
10
f5
01
1a
14
01
fb
17
f4
12
f6
f2
e6
e9
e8
16
05
f4
ff
12
0e
1d
f6
f8
10
06
0e
0d
f7
1a
ed
e5
e4
e4
0f
13
08
01
14
fb
02
13
0d
1c
ef
17
e5
f9
e8
ed
09
17
fb
ee
15
02
f0
17
f7
f4
f8
eb
13
e8
e5
fa
e9
18
07
e3
fa
09
f2
f3
03
0d
0b
f2
e5
e5
ef
e4
f7
fb
f6
ea
03
f2
1a
e5
05
1c
19
f5
ef
f3
eb
1a
f0
05
e8
e3
03
fa
11
15
fb
01
ea
f2
e4
ee
e7
f7
ec
0d
12
ff
00
15
1c
e7
e8
f6
e8
10
e7
15
10
1a
e7
1b
fe
f9
f3
fb
fc
1d
0b
07
ff
e6
fc
ee
08
11
06
19
16
12
1c
e4
fc
09
e4
17
15
fe
fc
e2
0f
0e
02
16
fd
ee
14
e5
ee
05
ea
f4
fc
0f
e4
e9
1c
ee
f1
e6
09
15
09
f6
01
0c
1a
1d
ea
1d
01
ea
16
06
1b
ef
f1
18
f9
1b
ec
16
0b
11
ef
16
05
00
f6
ff
ed
ee
fb
19
fd
08
fa
16
02
eb
1c
10
fb
e9
08
10
18
f8
08
f6
0e
0d
0f
fd
e6
e5
1a
f2
e6
e9
fc
e3
0a
f4
10
00
f8
11
10
0a
0a
10
ff
f9
06
0e
fe
0d
ef
ea
fc
13
1d
f7
f3
f0
ed
fa
e5
ef
19
fb
19
11
f2
03
e3
0a
07
f8
19
07
f6
f3
02
e9
f2
ea
10
ff
e3
1a
ec
17
15
0a
17
19
0d
09
1c
ff
f5
0f
1c
ec
18
04
16
04
07
15
f4
e7
ee
08
eb
ef
1c
e9
18
ef
f9
1c
ee
17
08
0e
e3
fa
ed
fc
ed
10
05
19
07
e8
ff
f6
15
e2
08
15
fb
0e
ff
e4
03
12
e7
fd
14
01
e9
f8
ef
f8
fc
04
0b
e2
ff
11
e8
10
04
fd
12
e6
e5
09
f3
e4
11
18
06
e9
e2
03
ee
0f
f9
ec
e6
fc
fc
08
0f
e9
e4
05
0d
e6
f8
12
f8
1d
1b
ff
0d
e3
02
e4
16
00
19
fc
e5
09
e3
10
1b
e5
1d
1d
ea
0e
e9
e3
14
11
0f
ef
e4
ef
f4
f3
07
f2
12
f3
f6
16
09
0d
0b
f2
0c
f5
17
f9
15
03
fa
18
05
f7
0d
fe
f6
14
1c
08
ed
02
1b
f2
ff
f9
03
0d
fe
ed
f3
fa
1a
12
19
1d
10
1d
ea
e7
f2
1a
f2
f3
14
e4
ea
1d
f3
e6
f1
17
0e
07
e9
13
1a
1c
ef
0d
f2
02
09
0c
0b
f8
05
f4
0c
e4
fb
e7
e6
f4
15
f1
08
ff
0b
ff
e6
19
ee
03
eb
16
e7
fa
0f
11
ef
f9
e7
11
ec
1d
f6
0b
e5
f9
07
fb
12
12
ee
e5
fe
19
1c
14
f9
03
ed
11
ed
14
f6
07
02
f7
0b
f2
e8
e7
0e
19
07
f7
13
e8
f1
04
04
e5
17
e2
ed
19
ea
e5
17
1a
17
f2
1a
0d
01
f8
1d
f3
ea
ea
ff
fa
03
fa
0e
0f
07
fb
0b
0b
0a
f3
0a
0f
ec
e7
f1
f5
02
ea
e8
ed
1a
1c
18
19
0e
ed
e8
fe
04
fe
0b
fc
f8
0b
f9
04
fa
12
ff
e6
1b
13
17
ef
ea
04
fd
0c
15
04
07
01
10
04
11
00
10
ee
0c
19
e8
f6
11
e8
0b
f5
fd
ef
0c
1a
0b
01
f4
02
01
0c
e4
fa
f2
08
e5
f6
0d
11
fe
f2
14
12
e3
e7
f2
e3
02
02
e2
0d
f1
00
11
f8
08
ec
e5
08
01
19
03
1a
fd
08
e5
f3
fb
f9
11
f1
e6
12
0b
1a
18
ee
fc
0f
00
fe
e6
e2
09
fc
1c
ea
fd
ec
ff
0d
1b
10
06
0a
e9
13
fb
13
f3
04
1c
10
f8
ec
e2
02
e2
ee
f7
07
0e
0b
e3
18
13
06
ec
18
ec
ed
ea
f1
f0
eb
1a
0f
f3
19
f3
fa
eb
06
ff
f3
fe
09
02
13
07
1a
0e
09
1b
12
1b
e7
17
08
11
f4
fb
1a
01
fa
ef
f1
ff
03
15
0a
fe
ec
12
ed
e2
f9
f0
0a
04
14
f0
fb
e7
f6
e5
f2
e5
fe
16
e3
11
f0
18
f1
e7
fb
15
fb
06
fe
17
f9
01
0e
e6
07
fd
07
e4
e7
ec
eb
e7
19
1a
05
0c
eb
01
1d
0c
04
fc
e8
04
e2
ec
11
e3
fa
e5
00
e3
1b
1a
f4
ed
15
0c
17
14
e7
17
e4
10
f2
11
fc
ec
08
e8
ee
04
06
17
0b
e8
e3
f6
15
ef
1c
e6
e8
0d
1a
e3
05
03
fc
fc
e9
e8
e8
f5
fa
05
19
f9
e5
00
0e
0b
e3
14
1b
09
fb
ef
e9
03
16
f9
13
f5
ef
fd
08
0d
e6
06
fd
f2
02
09
e4
1a
18
ed
19
16
0b
0f
f7
1b
ff
e2
f6
1a
03
06
13
f9
ea
13
fe
ee
ef
04
13
02
f3
fe
eb
0f
07
1b
e4
0c
1a
f6
05
ed
ec
f9
17
e4
e2
08
06
01
e3
0b
ea
f0
e3
fe
f7
f6
ee
e8
fc
f8
f1
f1
e2
f3
0b
fe
e7
ec
16
ed
ff
fd
ed
ef
e5
e5
f3
f5
1b
e7
18
e8
1b
eb
e3
17
ea
0b
eb
0c
06
0d
05
15
18
0c
f9
16
f9
0b
ed
06
e2
fa
f0
03
18
01
f3
12
fe
e9
ff
18
fa
1a
09
18
e7
f1
07
11
12
1d
05
1a
0d
ff
f5
16
0f
05
0e
1b
fc
e8
05
0b
f9
ed
f7
ef
17
ea
ff
e3
1b
14
e5
13
e7
16
f3
0b
e9
0b
e4
f0
ec
17
15
ef
fe
fb
fe
16
17
03
e5
f7
eb
ea
09
f5
0b
ea
f4
f9
f0
e7
e5
11
fc
f8
04
e7
0a
ff
10
11
fc
02
f8
ed
f2
fd
eb
19
01
1a
1d
f4
fc
0d
1d
17
1b
f0
ec
fe
1b
09
e3
19
e6
10
1d
ef
09
f1
f3
f3
fd
f2
17
ff
e3
fc
e9
12
0d
06
f1
fd
18
1a
ee
fb
fe
0d
f1
f8
ed
fa
fb
19
14
1b
10
0b
fd
f8
04
fa
17
ed
0b
ed
03
ec
ea
ff
02
ee
f6
0c
04
e9
03
0d
fc
0b
11
f9
05
03
ee
0a
0c
1a
00
f8
e5
f3
16
15
f4
0b
1c
18
f2
e3
13
f8
ec
14
18
0f
f8
f4
17
e6
f6
12
e4
ee
01
fb
e7
18
f3
fc
fb
fc
f1
02
e8
04
ea
07
15
05
1b
f5
ea
f0
0c
e9
f4
18
18
12
f0
19
e8
03
eb
13
e5
f7
19
10
e6
fc
15
03
f1
07
0e
1a
f6
16
e2
f7
e8
1d
ed
1c
16
0e
ee
f8
1b
e6
fc
f2
ee
e5
12
f9
ea
ff
e4
f1
17
19
f6
03
03
12
f9
02
06
eb
f9
e9
e8
ef
ec
01
ed
0a
f0
e6
fc
0c
10
e4
f0
1a
f9
15
e2
fb
1b
1b
0c
fd
10
06
1c
00
f1
09
e7
0a
12
ee
f1
02
14
13
1b
ed
05
e4
10
eb
e9
1d
12
fd
fc
14
e3
16
12
13
0b
05
ec
eb
eb
05
18
08
07
e6
0c
ed
06
18
f6
1d
08
0a
18
14
01
07
0d
05
11
1c
fa
18
f8
f2
f2
11
e7
19
e7
f2
e6
18
11
f2
04
11
ff
0d
0e
e5
f7
f5
03
e9
f6
ee
17
14
13
e9
ff
1a
07
e3
e4
e7
1a
f3
f1
f5
17
fe
f3
fa
01
0f
f9
ef
fd
0b
16
09
0e
e5
09
07
0c
0c
eb
11
14
11
19
0b
fa
ec
f4
f4
f3
0e
12
1b
04
1a
e4
07
03
e4
f0
07
ee
01
14
e6
f0
fc
13
ea
0c
01
13
12
04
ec
f3
13
f0
00
e3
ed
15
19
ea
03
17
ed
1b
02
04
06
fa
ee
14
e3
fe
e2
06
00
19
fa
ed
fe
19
17
e7
ec
f8
06
0a
e6
f9
1c
0a
15
18
18
fd
e6
0d
e8
ed
03
00
f2
f9
fd
f0
ea
ff
0b
e9
00
e5
e8
01
05
15
08
17
ef
ff
02
ea
0c
16
18
f3
0b
ed
f7
e8
fc
1c
f0
15
ed
e8
e4
fc
1d
f5
ef
f4
e8
1b
12
08
1a
0b
fa
00
11
e8
e8
0d
0b
0a
fa
13
fa
e9
eb
09
10
f8
ec
e2
e4
13
04
06
12
0b
ff
15
04
1b
16
f9
eb
fd
fe
0e
0e
f8
16
e8
f3
e4
1d
10
14
fe
0f
03
17
e9
fb
f6
04
fe
12
ea
01
0e
17
fd
00
1c
03
03
e2
0e
05
09
08
16
e2
11
e7
1c
ea
ed
0d
f0
05
08
17
16
01
fc
fe
e7
f7
f1
01
10
10
f5
04
ee
fa
ec
0c
11
f6
15
f1
f5
fc
fe
e6
eb
fa
03
12
f4
13
11
f1
19
02
ef
f3
11
13
19
10
ef
e2
eb
0c
0b
0a
e5
ff
1d
09
e3
04
1d
04
01
01
fa
eb
f6
08
1d
16
f5
15
e9
e4
17
05
16
02
01
01
f9
ed
15
19
fa
11
f1
eb
07
e7
fc
18
e8
f0
ec
0d
0c
e8
f4
0d
e8
e5
fe
0a
1d
e8
1b
fe
0c
ed
ef
e7
08
17
fe
fe
02
e2
f5
03
fe
06
f3
1d
e9
f6
13
1d
11
06
14
1d
16
f0
09
01
1b
1c
09
10
f9
0e
09
e7
03
11
fc
ed
f7
06
0c
f6
1c
03
fb
0c
1c
0f
f3
f7
f5
f4
f2
14
0f
0a
ef
e8
f3
ed
f2
11
f7
ff
ee
e6
13
fb
ef
05
08
03
f9
04
19
f1
07
04
e4
09
f0
16
18
04
e7
07
18
f9
05
e2
e8
f0
11
fa
0e
fd
17
1c
1d
e7
ed
f3
eb
15
08
e4
19
07
11
e7
f6
01
0c
13
11
12
f0
e4
e8
e3
16
eb
12
10
0d
18
15
eb
e3
ec
1b
1d
19
f0
ff
0d
02
ee
f9
1d
1c
14
e9
f2
0d
00
08
15
f4
01
f8
f8
0e
ed
0a
1a
ea
15
e8
f8
01
1b
f0
ee
fc
00
1c
0e
fc
06
e7
ed
ff
e3
05
ec
ec
17
02
ee
08
ef
e5
ec
fd
e7
14
e7
16
ee
15
e8
01
ea
19
f3
06
fd
e5
0d
eb
1c
16
11
e9
14
f1
f6
16
fb
1d
11
00
f3
fa
15
f9
e2
ec
17
12
03
f4
f9
18
f9
0b
f0
ee
0c
ee
eb
f7
04
ee
15
fd
f0
ec
09
ff
11
f3
1a
0e
f4
1c
0a
11
0e
e6
f2
fd
13
0e
ed
10
04
fa
00
f8
16
0b
14
19
fe
f0
0e
e5
0b
05
e3
09
0f
f5
1c
07
1a
0f
16
13
0c
10
e3
05
fe
05
e8
ed
1c
ea
f6
ec
f6
f2
ed
08
08
f6
e3
fd
f5
12
f7
0d
14
1d
e7
19
f1
1c
17
17
ff
04
fa
f9
ea
14
ee
f0
ff
e6
05
fc
f1
f5
01
ef
ff
1b
0b
04
f6
01
ff
16
f1
19
f4
ff
0e
0a
0c
e4
e7
08
ef
fd
02
e6
f1
e6
19
e3
ed
e8
ea
0a
1b
f9
16
ec
16
09
e4
0a
ef
1a
09
e3
1d
19
0c
15
10
f5
ef
16
f1
04
0c
ee
15
12
03
07
01
0f
02
0f
fd
05
f5
0e
f3
15
15
09
0e
10
f7
0a
10
f4
10
02
f1
03
ea
f1
ee
19
ec
08
ea
02
fe
e3
19
ee
fe
0d
ea
17
e3
ff
fc
17
f4
03
e5
09
ec
f5
02
e3
fd
12
eb
f3
e2
f6
f5
fb
09
14
ec
01
15
0c
fd
ef
f0
f8
18
10
ea
ed
ea
08
05
0f
fb
f7
f8
e8
f5
e8
ea
f1
f0
f9
fe
f2
05
18
0c
eb
f8
06
ee
08
ed
f1
14
13
00
01
ff
00
fc
ea
0f
18
18
1d
eb
1c
0a
e6
ee
fb
18
08
e4
17
17
f5
f9
fa
16
e9
e3
04
f2
f5
fa
09
ed
0b
0c
fe
f5
e8
1d
1a
10
f1
ff
ec
e2
f1
ec
eb
0b
08
1d
f5
ec
18
1c
16
09
07
04
e8
0f
ea
e5
e3
f5
12
18
0b
f0
f2
08
09
0e
e9
1b
f6
fb
10
1a
e6
e2
fb
f5
e6
04
12
12
10
ea
1c
f4
0c
f1
f5
ee
f0
15
f4
e3
fb
16
e3
f5
fe
04
06
fa
e5
f3
16
0d
0e
1c
03
10
11
07
06
e8
0e
14
12
e4
05
e5
03
fa
00
0e
f8
0e
02
f8
ef
15
1b
e3
1c
02
ff
11
17
f9
ec
e5
01
ec
0d
f3
18
f5
f0
f6
03
f9
f1
f0
ec
11
06
f9
fd
02
1a
06
f4
17
1a
f0
e3
e2
f5
f5
12
f1
17
fd
0f
03
1d
1a
10
fc
03
fc
e3
f9
f2
11
ea
0b
e7
e8
10
00
e6
f3
fb
11
f6
01
e3
0c
08
e2
e7
ea
ec
00
ed
16
f5
18
12
01
00
fa
f1
02
e8
1a
1b
01
fb
00
f6
f2
e9
ec
f2
18
17
09
ea
f1
ee
1a
0d
f2
10
08
0d
00
f5
12
04
e2
fd
08
02
f2
fa
09
e4
17
05
1b
08
11
e8
0e
e8
e9
ee
10
13
09
ec
ed
17
12
0c
f0
14
0d
f2
fc
fc
fa
e9
09
10
e3
18
ef
07
f2
fa
1a
f6
ee
f5
0b
f3
f6
1d
fc
f4
1d
eb
fd
f9
ef
f3
0a
04
00
f7
ef
fb
ee
f9
0a
ea
f1
09
09
ea
ff
13
01
fa
00
1a
ed
fe
13
ea
ec
fc
0b
ea
ee
1d
00
ee
1c
1a
e6
0f
1d
03
f8
1b
f4
0b
13
e9
17
e7
f4
02
e2
11
e5
19
ef
e7
e5
ee
14
09
03
f7
1a
f0
19
fa
1c
f6
19
e5
1b
1a
e2
f1
e4
0d
ea
0f
e7
17
ff
fe
ee
e3
19
f6
f3
00
0e
1c
e2
f2
13
16
11
06
e5
f6
f5
1a
19
01
f7
08
ec
10
05
12
14
0a
11
e7
f5
00
04
06
16
f5
e4
19
0e
1d
e3
f6
07
ea
18
f5
e6
e5
0e
05
e5
0e
01
15
f5
0e
1a
15
03
fb
f1
0e
01
18
f2
ed
06
e6
f5
fc
e8
f5
e5
0b
1c
f8
fb
0d
f0
e2
10
16
0f
f5
10
05
f6
06
ef
1d
ea
ec
1a
f9
1c
e2
eb
17
e3
eb
08
05
f6
f9
eb
16
e3
14
fa
fe
fb
e7
ef
19
0f
12
1d
f8
1c
06
02
fc
0d
fb
0c
fd
18
fc
0f
0c
f0
1a
13
f7
f9
fd
1c
1c
08
f8
1b
03
f2
ff
ec
18
f8
1d
fa
e2
fc
f6
06
07
06
f2
f3
0f
00
08
0b
ea
19
ff
e8
0c
18
ea
06
0c
18
04
f9
e9
e6
e3
11
e8
ed
e7
0b
11
fe
05
e5
e3
f3
1c
14
17
ee
07
fc
e4
f4
05
19
f2
e2
f7
fb
16
fb
e6
ea
e5
1a
15
f9
0a
0a
e7
15
0a
f2
e2
1b
0b
08
14
ef
0a
17
ee
ed
f8
09
0e
0b
eb
fe
01
e4
1a
17
e7
e5
1a
13
f2
09
fd
fc
1d
f0
f2
08
f1
02
16
0c
06
0e
e5
0b
e8
19
11
02
0b
1c
e5
01
1a
05
07
02
1a
15
f5
f6
1a
17
05
f0
f6
04
1d
14
f2
f5
eb
e6
15
f7
0f
fc
e3
10
e2
ee
f2
e5
0d
eb
09
03
18
ee
f2
f4
0a
0d
f9
0e
03
f6
1a
0d
1a
17
f3
0b
15
1b
ed
e3
13
eb
14
ed
f9
07
17
ff
0b
02
ee
1c
14
1b
0a
1c
f4
e7
ff
00
e2
0c
14
16
f8
0c
00
f9
f7
0a
04
1a
0d
0f
01
fa
ec
ec
f4
f9
19
07
15
eb
ee
17
e2
f7
fd
0f
f0
eb
ee
14
e3
03
0c
ea
14
0b
fd
0f
f6
12
fc
13
ec
02
ec
01
09
f5
ec
17
fd
09
1a
0a
fa
01
17
11
ec
ea
ff
05
0b
ee
07
ed
ee
fb
f9
1d
18
f4
ea
11
f0
e5
fa
07
ef
03
f1
17
0a
e3
11
07
f3
0b
06
12
eb
0d
0f
e3
0c
16
16
16
19
f7
12
fd
10
0c
f5
e6
19
00
e7
ef
0c
e3
ed
0c
14
e2
02
09
e8
ea
f0
04
ec
f9
0d
1b
17
f2
f8
f7
e8
f4
eb
04
0e
1b
f1
13
eb
1a
0a
e9
08
f2
e7
e6
eb
ff
08
10
f4
19
12
11
fc
02
0b
f6
fd
12
08
13
06
01
0b
ff
03
19
e3
f7
17
ec
05
16
0b
e3
f5
18
e8
02
f1
e9
18
01
00
14
06
fb
05
10
09
f6
02
1d
f6
f3
fb
09
00
ff
e8
16
13
03
09
e6
18
e6
18
14
e2
f6
12
07
13
ee
07
18
ea
fb
e2
fc
19
08
f3
ff
17
12
fd
fd
18
e8
f9
fd
ff
e8
e6
05
08
06
f0
0f
ff
ee
13
e8
15
f5
ef
e3
e9
0e
ec
0f
f4
16
0b
fa
02
01
19
fd
ec
0d
0f
10
f0
ef
16
ef
07
0c
03
07
e6
ec
fe
13
18
f9
0b
e9
07
f2
f9
14
00
0f
e4
0a
fa
08
18
06
e9
ee
e9
06
02
05
01
12
e7
0a
06
f3
19
07
02
e9
f2
18
07
e4
08
f8
0a
f1
13
ee
e2
0c
ed
09
e4
ee
14
ed
fb
fc
17
10
12
13
17
f1
fe
13
0f
19
02
f1
fd
1a
ef
fe
1d
ec
ea
0d
e6
16
1b
fc
f5
09
ee
f1
1b
17
f5
e7
1b
1a
f6
e8
07
01
01
10
e5
01
f3
e4
f8
0b
19
1b
f4
e5
fb
eb
10
07
fd
ed
0e
06
0a
fa
15
09
f6
e5
f8
e8
08
03
e7
ee
f5
09
08
ff
0a
e4
08
ed
0f
04
f4
ed
01
04
0b
0b
e9
16
07
e2
1a
ec
06
09
02
f9
17
f6
1b
18
fe
1b
12
02
17
0f
08
13
07
ec
f5
05
f3
13
ed
f9
e9
f7
f8
f8
0b
19
04
03
fe
ff
15
e5
fd
1c
e3
fe
0c
ec
14
02
fc
06
e6
f7
0a
02
eb
08
fd
f9
f5
ed
fc
f7
10
1a
e5
00
ec
e3
f7
fc
1a
f0
06
f8
1d
0e
e6
f9
e5
ea
ee
1c
f1
e6
ee
0f
fe
1a
1b
e2
0b
fc
0a
0f
ed
ee
07
15
e3
ed
0f
15
10
0e
ec
14
ff
09
e5
07
f3
13
e2
f3
f5
03
fd
e6
ec
e2
02
18
18
e6
12
08
ef
18
0f
f1
10
17
0a
ec
11
0e
e6
01
eb
00
e7
16
1d
0d
18
1b
f3
f5
17
07
1c
e4
e9
ee
eb
e4
1d
13
17
f5
fe
05
f0
07
0e
14
0f
f4
e6
f8
e2
f9
03
0a
1d
03
15
f1
10
f6
e8
1d
12
0f
0a
e2
ed
f8
f7
f0
07
f0
07
e9
0e
07
0d
11
0a
f9
fc
13
11
e2
0e
0f
05
fe
fb
fd
1b
15
fd
e5
e5
19
f3
14
fd
f4
01
0d
e7
f5
f0
1b
1b
ee
18
fa
09
ea
1b
f7
13
13
19
f1
03
ec
f6
0b
07
f6
08
05
13
f6
fd
02
11
e3
0c
07
1b
e5
e7
10
12
f8
06
f2
0d
ee
e8
fd
16
e9
17
06
1d
f0
1b
f3
e9
0b
f2
00
19
1a
11
18
09
e2
ec
07
eb
fc
f9
05
19
0a
ec
01
f4
f2
ff
02
0c
1b
ea
02
11
09
0b
15
e9
f6
e6
06
f1
13
1c
0b
17
12
14
f9
12
00
ee
1b
ee
f8
ef
07
e9
f1
f1
ef
ec
14
f7
09
16
fb
eb
01
f6
14
ea
0a
12
ee
f2
fb
0c
e7
10
18
e2
10
ea
e6
e4
f6
00
f1
e6
e2
ed
1d
f2
18
19
f9
0a
01
08
14
f8
13
e6
f1
ed
f9
10
16
f9
09
f0
1b
0a
e9
10
05
fa
e6
13
fb
1c
11
fe
f4
e5
f8
08
e2
f6
fd
14
03
e9
0d
17
e7
06
0b
02
10
1a
1a
00
1d
09
e9
05
0a
ff
ef
e7
ea
00
0a
ee
00
12
1b
12
06
12
f1
0d
ec
03
15
fe
f3
15
06
e7
fb
07
05
14
f8
14
e4
e2
e7
0c
ee
e5
ff
18
1a
ec
e8
1a
04
f0
0d
f0
f3
e3
e2
ed
f4
fa
f5
f6
fe
ef
13
1c
1a
f1
17
f5
04
fa
0b
e8
e7
fc
eb
e7
e4
08
ee
06
e5
fd
1a
04
04
0a
fa
0c
01
15
18
f7
ed
13
ec
12
f3
12
ea
0b
11
e2
fe
1a
0a
0d
1c
ec
1a
11
0b
f0
0e
f9
f7
1b
e6
ea
f6
fe
eb
0b
04
e7
e5
f3
f1
0a
f4
1b
16
e5
18
f7
f4
02
e2
00
e6
ed
0a
04
0f
00
e6
03
12
f2
ed
f5
fb
02
00
f1
00
04
f0
e9
06
02
e7
eb
19
e4
0a
09
09
fa
11
12
f5
06
ff
0e
09
f5
ee
fb
18
f8
0c
16
e9
f8
f6
f4
01
08
eb
1c
03
03
e7
f2
f6
f3
03
1c
16
19
06
19
fe
ec
f5
06
07
0e
08
09
07
03
f9
00
ff
e9
00
09
14
fe
e5
fc
e6
1d
e5
ea
eb
17
0e
fe
0c
08
12
ea
e8
17
f0
e8
15
f0
04
10
06
f8
e6
f3
13
18
0a
04
10
01
08
04
ef
f6
e5
17
ff
04
ee
05
14
10
e2
1a
1c
0d
0c
f1
18
fc
ea
f8
e5
fa
15
06
f2
e7
fe
e2
0f
19
fd
07
fb
f2
09
fa
08
f9
04
08
f9
19
f9
e2
f9
0a
15
00
ed
0a
f8
fd
12
f4
e3
19
fa
e3
15
f7
02
0e
1d
0a
f5
1b
f5
e3
e8
0c
e5
ec
ec
10
e6
f2
10
18
03
f6
eb
05
17
1c
0e
f8
14
ff
14
f1
00
f6
02
f7
ff
fd
e6
f7
f1
f8
15
ea
ea
e4
f9
ec
f1
0d
f5
e7
11
0e
19
e2
11
f5
03
0c
06
01
17
e9
04
14
1b
ef
16
e5
09
16
11
fc
f4
0c
f6
ed
f5
f2
18
ec
09
03
e4
10
ef
04
00
f6
fd
02
f3
0c
f1
fa
03
f6
ec
f1
17
0d
ea
15
06
03
ee
fc
13
0b
01
01
11
1b
1c
13
15
00
e2
0f
ea
0f
10
e3
04
ed
1c
1c
0b
02
fa
19
1a
ef
12
17
09
ed
fb
f8
f6
00
12
03
f5
1c
01
fd
14
fe
02
1d
16
fe
13
1a
04
19
eb
fc
f3
0b
e9
1a
f7
14
e6
15
08
14
f1
10
f1
1a
f8
eb
e4
e5
f0
00
16
15
f5
f2
15
f7
f3
0b
0c
10
0f
17
f3
0d
0a
ef
e4
ee
f3
04
10
0e
e6
fb
e9
19
12
09
ed
0b
19
12
01
fd
ea
18
0c
f9
0e
15
06
1a
ee
f3
19
e6
f5
11
f1
0e
e3
e3
19
e3
f2
09
16
ec
f0
19
13
fc
16
1a
e3
14
19
01
ea
18
02
f1
17
e7
fe
0a
13
e6
0a
f3
09
09
08
1b
ec
ed
e7
01
fd
f4
1b
ef
12
1c
f3
18
eb
eb
10
19
f6
ee
07
f4
1d
f3
05
f5
05
12
e5
19
02
ff
0b
01
16
09
e4
ea
17
16
e3
e8
0d
fc
0f
ff
0b
10
0c
18
fa
05
00
14
f7
e4
1d
1c
ef
01
f4
1d
10
0e
01
e3
14
fe
e2
09
19
05
f9
e4
e8
19
ea
ff
fd
0f
f4
e9
e9
ea
fd
e6
fb
f0
fa
09
ee
ee
e7
fd
0b
e9
0f
04
f2
18
19
f9
f7
0a
ea
0c
00
f6
16
0f
0e
f6
f3
08
ed
0f
f1
0e
0d
08
11
f7
e5
ef
eb
f9
08
02
02
ee
07
0e
f8
ef
e5
0a
1b
04
e2
05
e2
f0
04
eb
12
ed
f5
0f
11
07
0f
e3
1c
ee
08
e3
ee
0b
05
fc
0d
01
16
ed
e2
fd
f4
e3
e9
f4
19
1a
13
04
06
05
e4
f3
18
08
e3
16
e3
ee
0b
e6
e8
f3
f3
0b
e2
19
04
0c
0e
00
f9
0d
ea
03
e8
09
fa
ec
e4
19
0d
fa
e7
f4
13
fb
e5
fb
1c
1a
ec
00
1a
f7
fe
03
f7
15
fc
ef
1d
1c
1c
12
0e
eb
1d
1b
f1
12
02
14
08
f0
e5
17
14
08
e3
f6
00
e2
f5
ef
01
f5
0d
11
04
fa
fa
0f
0b
f4
1d
1a
fb
eb
00
fa
0b
e5
05
15
f9
f5
fb
18
ec
0b
0a
e8
f2
04
07
f6
12
06
f6
01
e8
f9
f7
eb
06
e4
f1
e2
0e
f5
18
1c
04
e8
01
16
f5
10
0d
12
f3
12
ef
17
e3
06
1d
1d
ed
ff
f1
11
10
fd
19
12
ef
f0
f0
1c
03
1a
07
1a
e3
eb
1c
e4
fc
0d
f1
eb
e7
0d
f0
e6
e6
f9
fe
1d
00
fd
fe
ee
18
e9
e2
f2
0f
07
f9
01
f8
07
17
f0
18
12
f0
e7
fc
0f
f7
f6
1c
0e
0c
fd
e8
ff
14
10
12
0f
13
ee
ea
15
f8
e4
03
fe
12
f1
ef
1d
fd
ee
0d
e4
f3
0c
e4
12
18
f0
15
fd
07
f9
ea
ee
11
03
fb
ee
15
15
17
03
f9
06
ed
1a
08
fd
e6
ec
02
0f
1c
ee
11
02
14
09
fb
e8
f8
e4
f8
0e
09
f1
1b
15
fd
e2
fe
f6
0c
fb
05
11
e4
0e
f9
15
f4
ec
e3
f1
ff
0a
0a
f0
03
09
fd
e3
01
fa
06
1d
ec
1b
10
fa
1b
ff
16
ee
19
16
13
e2
04
04
fc
f2
e3
ed
0a
09
02
03
18
f1
09
f0
e4
f4
01
f1
07
ee
e2
ee
ea
e2
15
f6
17
17
06
16
02
fe
0f
f2
fd
e2
03
e8
04
e4
06
07
ff
04
18
f9
03
00
e5
12
f4
e4
e4
ed
ea
f1
e2
fb
13
0a
03
06
0b
ed
09
f2
15
e5
ec
0f
01
11
f7
15
14
05
19
e4
ee
0d
ef
fe
0a
1a
01
f3
06
06
16
1a
f7
0c
ec
fb
fb
0c
09
f3
f5
06
e2
e8
fc
18
13
e9
1d
fb
19
07
e4
06
19
05
1d
11
f3
e4
07
f0
17
fd
e3
0c
09
12
ef
12
0d
12
00
18
0d
f5
0d
e9
1d
ea
e7
13
ef
e8
11
18
08
fe
f4
11
18
e2
ff
f0
1c
e3
1b
12
19
f1
13
0c
f0
11
08
1a
e4
07
0d
f8
16
04
0d
1d
fe
f1
03
ee
04
03
13
01
e2
04
f1
10
f8
16
19
17
0c
01
03
09
06
17
05
0f
1c
1b
16
ef
16
f7
00
18
0e
ff
15
f9
14
0c
1d
e5
0f
0c
ee
04
12
12
f9
08
14
e9
14
1c
fc
1b
fa
f3
f4
e7
fd
06
08
1b
0e
14
ec
e9
fe
fb
08
03
f5
eb
0e
05
ea
e9
f7
13
f2
f1
ec
14
f2
e3
11
18
fe
1c
f6
ee
ec
05
e7
f0
f0
01
fb
12
0d
10
eb
0b
fe
ee
e5
e8
fd
f7
1c
e9
ea
08
16
eb
ed
14
ed
fc
17
02
0c
08
f2
fc
e7
fe
e6
f9
04
0e
e8
ec
ec
11
13
18
05
e4
e2
e5
f9
17
0c
07
f0
03
e4
12
1b
e2
1d
19
15
0b
ed
ec
0d
14
13
07
e5
f0
11
f7
00
ee
18
14
e5
ea
e7
e9
1b
00
06
f1
ea
01
ff
e9
f5
15
f3
ed
f4
ea
fe
e4
00
0a
fc
04
eb
0d
e8
f6
ea
05
02
10
1a
ff
e7
05
13
ec
fe
ff
e3
e6
06
0c
1c
fc
ea
ff
07
1a
ec
06
13
ee
19
14
11
fa
e8
17
f1
e9
ee
02
1d
1a
e2
08
16
12
17
f2
fe
00
ef
12
ea
1c
1a
f5
05
1d
e9
e3
00
02
e9
04
f6
f9
e7
13
e7
03
fa
f4
04
0c
18
15
17
e9
e9
ea
1b
f8
e7
1c
0c
1b
ed
0c
04
ee
e8
07
ff
fe
04
f1
fd
00
fa
f0
04
0a
1d
08
0c
f9
f2
11
0e
0c
f7
f4
09
1c
0d
11
e2
f6
ef
f9
e4
ee
0c
fc
09
ed
e7
f0
03
04
ef
f7
f8
0f
f8
1c
0e
1b
ef
e9
05
eb
f4
13
0c
10
10
18
15
fd
10
e8
f5
f8
f9
0f
0d
fb
f9
e6
f9
1d
13
f6
f1
f6
ed
f5
fb
fa
03
f1
f3
1a
16
f7
e7
01
e8
e8
16
12
ed
e4
18
04
0e
f0
fe
ee
09
fd
08
ec
e3
0c
04
01
f0
ee
ff
f6
05
03
ec
f6
1a
07
e9
0b
ef
ed
fd
f1
f2
05
0d
03
19
07
e7
f0
15
e6
0b
10
ed
ef
ed
11
01
0d
f3
0c
16
e2
fb
17
fe
e5
12
1b
0e
10
f9
f1
eb
10
e8
ff
09
e5
fc
f7
e7
02
13
f9
09
05
00
0f
f3
eb
f9
f2
12
fd
e9
10
e5
08
0b
06
fb
11
f0
06
17
fd
f8
f4
ff
16
07
15
ed
0e
e4
f0
04
f6
f7
0a
07
f4
fc
1d
eb
f6
e7
1c
fa
ef
0d
ff
07
e5
1a
fe
0a
0b
14
f8
1a
00
10
e5
f0
04
18
05
1c
15
04
03
f8
f3
14
16
fd
e5
f0
04
00
16
03
01
0d
07
0f
f2
f7
e6
10
0a
1c
06
00
e9
07
03
08
09
f0
0d
09
08
0d
ed
e6
17
05
18
ee
16
15
10
1b
0f
e7
f6
1c
0a
0c
e6
e5
fe
14
15
e9
f6
12
18
e7
e7
e5
e6
01
fe
02
fd
15
0b
11
f6
09
f0
ed
fd
14
1c
ff
f9
f9
eb
09
09
ef
17
16
ec
f1
0c
f1
0a
04
f1
02
1d
eb
e3
e2
f6
18
12
f6
f9
f4
00
07
f8
ee
12
ea
03
00
f4
f8
fc
e4
fc
10
1a
0a
f3
0b
0f
00
e5
01
15
19
11
ff
ed
10
1c
0c
0a
f5
12
fe
05
ea
12
ea
13
19
fc
0a
02
16
f2
07
fa
f9
e9
ed
f3
04
15
e4
f5
08
19
e5
03
fa
ed
fd
01
e8
0a
0b
ff
04
16
14
e3
1c
15
09
0a
ec
fd
fa
15
ed
f1
07
ef
17
17
12
06
15
ec
0a
03
ec
eb
ec
10
f0
1b
f7
ef
1a
ff
0f
10
15
06
fe
e8
06
e9
07
0a
1d
fd
19
06
f8
11
e9
ee
e6
ff
02
e9
1a
e3
fb
04
e3
f2
0c
1b
0d
ed
15
f9
fe
f7
0f
17
19
03
1b
fc
0e
02
f5
e4
ee
fa
05
f5
02
e8
e2
00
01
1d
19
05
e2
0a
08
f8
f7
0d
13
15
f5
1c
1c
1b
f4
e6
fa
02
eb
f2
e2
ec
f5
e9
11
fb
03
e9
18
fd
14
f0
e3
fa
f3
0f
e9
e2
ef
fd
1c
00
18
ed
07
e8
0c
0a
03
1c
eb
e6
15
f0
01
08
ee
0d
ff
ed
17
f3
fe
f9
fa
e3
0c
06
09
fb
fc
f5
10
15
0d
f9
05
fb
00
00
fa
e3
fb
02
0d
ec
ec
08
08
f4
ec
fa
14
11
1a
e8
ee
06
1c
16
f4
1a
ff
ed
f8
1a
ff
ff
e6
f7
fd
f9
0d
f4
ff
01
1a
ff
0e
f8
ee
e6
ff
0f
1c
18
eb
00
09
f1
e3
f2
0c
e4
f9
f4
fd
fa
18
14
f4
e4
ef
f3
07
02
f9
e6
16
1a
13
0c
ec
03
11
05
1d
09
15
09
0f
e3
10
00
0d
f0
0c
f9
ed
e9
10
ef
ee
f8
e2
f8
0d
0b
18
e8
17
0e
ed
f2
ea
f4
16
03
0d
e3
f8
19
10
f6
e6
1b
fe
0c
ee
12
02
16
f2
1a
f4
04
1d
fa
eb
0c
05
09
1a
ed
0b
0b
ee
e5
1a
03
1c
fa
fa
fe
12
ea
1a
e8
ff
ea
16
0f
0b
ed
00
f6
e2
0c
13
e8
08
09
09
fe
fd
08
e8
02
e8
f7
eb
03
11
fa
ed
08
fe
0f
01
13
f3
e7
0c
e8
fd
f4
e5
fe
08
fd
0b
0a
ff
14
0b
f7
16
0d
e8
eb
09
ea
14
15
e4
0c
0f
fd
11
0f
19
00
07
ea
0d
ed
19
05
fa
07
00
ec
f0
04
1c
f2
14
0e
0b
0c
15
08
05
fe
e6
0c
ff
f2
f3
0b
f6
0e
0c
f8
f5
fc
ef
1c
ef
1b
02
ea
12
f3
e6
18
1b
fe
1b
1c
01
fa
0c
fe
0f
f5
f1
e4
e5
ff
1a
f7
09
f4
ee
01
f1
e5
fc
fc
04
ec
e2
f9
1b
f0
e6
13
04
f8
0b
f1
05
01
14
03
f7
11
ea
e3
f7
09
19
03
0b
0a
e8
07
e3
13
05
fa
f1
ef
09
ed
f8
ea
e5
01
01
0a
01
05
ec
12
12
1b
0c
f2
12
01
e7
10
e7
19
16
03
e2
09
01
04
ea
17
0c
11
1c
ef
fe
07
18
08
15
e8
e8
11
f6
04
0b
