00000158
fffffe9b
ffffff07
0000010b
ffffff54
fffffe8b
fffffff5
000003bf
0000028b
fffffdca
fffffd6f
ffffff4d
000000fb
ffffff78
000000b6
00000007
00000000
fffffe1a
fffffe19
fffffeee
fffffe82
fffffdc9
ffffff35
fffffc35
fffffdf4
00000143
00000191
000002c7
00000042
fffffe46
0000014c
00000142
000002bc
0000023f
ffffffb7
fffffe10
ffffff10
000001bd
00000115
0000002b
000000a6
ffffffab
00000064
000000a0
ffffff96
00000030
0000027b
000002a6
fffffebc
fffffd53
000000e8
fffffd08
000000fb
0000009c
000002b3
00000236
0000024a
00000170
fffffef5
fffffd5b
ffffff68
00000129
0000028b
fffffe44
fffffea8
fffffca0
fffffdd4
00000119
00000236
00000215
00000193
0000031e
00000385
fffffddc
000003db
00000370
fffffd9b
fffffd52
00000039
000003c6
fffffd2f
00000324
000002ed
00000157
