14
ec
0d
e3
f1
11
01
13
04
e6
17
07
02
06
fa
e2
0e
0f
0d
16
f6
03
1b
02
fe
0d
ec
fa
0d
e6
f3
f6
1b
1a
e6
1c
0d
f9
f1
fb
00
0a
06
ed
0c
0b
e2
e4
05
0c
10
e8
e4
0c
fb
16
e9
ef
ef
0d
fd
19
1d
f0
05
0c
e7
1c
1b
04
02
f0
16
e2
ed
0b
fc
ef
fd
e8
fc
00
f0
04
1c
fb
f3
f7
0d
12
0c
fc
f6
f0
0e
ea
f9
fc
0e
f8
12
f8
e3
ef
f8
05
e8
14
ed
1a
f1
14
0e
fb
fc
fa
fb
16
f4
0f
f5
f4
f5
0b
03
f5
0d
01
f6
f1
11
fb
ea
f3
15
fa
0b
ee
ef
1b
1a
f4
09
19
09
0d
e5
fa
10
06
15
e9
f7
06
18
ea
08
1a
06
04
13
17
f1
e9
02
e5
f4
e6
1a
0c
fc
05
15
fc
fd
1d
f9
e6
e2
19
f0
e8
e8
02
13
08
04
0b
12
ec
fb
f6
07
19
04
0a
e4
fe
0f
e6
06
14
0d
e6
0b
17
12
fe
eb
ff
ff
13
fd
fa
05
fa
07
e3
14
18
0c
f3
fe
1d
fc
f4
eb
1a
ff
1b
16
0d
02
eb
00
ea
ec
14
ec
e5
18
f0
e3
e7
fe
f2
06
16
e5
fa
00
e6
f0
f7
f0
f6
05
ed
ef
0a
fc
03
16
f1
f9
f2
05
17
12
0c
f8
ff
e7
0f
fa
e4
15
f3
06
ff
f1
18
f1
17
07
ef
f2
fe
02
12
00
f8
06
fc
f5
f9
13
fb
03
f0
f8
01
15
15
09
04
e9
f2
0e
08
e4
f4
e9
00
ef
e6
ec
f7
e9
f7
16
12
f8
01
e5
fa
04
e8
ef
12
1d
f9
ed
03
15
ea
fb
05
0d
e4
02
10
f5
e6
f8
e9
ec
ec
f8
ea
09
1b
16
0f
0e
1c
13
03
f0
ec
ef
eb
e2
e5
1d
e7
e7
01
1d
eb
15
17
15
e9
17
f9
0b
e9
f9
f3
19
04
e6
ff
04
f1
1b
04
e9
ea
0a
f4
09
00
1d
f1
f9
0f
11
0d
fe
e4
1a
fe
f6
0d
e7
e9
02
e2
e3
f8
f1
0b
0f
10
10
f2
16
fe
fe
16
f8
0e
e7
fc
1d
1b
0a
e7
ff
09
f5
15
e5
11
0c
00
0e
f4
f8
ee
ee
10
f2
e8
fc
05
1d
e8
18
1c
01
ea
0a
1a
13
e9
0d
f7
fd
0d
f1
1c
0c
02
ea
ed
09
05
fd
17
fb
07
07
1a
06
00
f1
12
e5
ea
14
14
f8
13
ed
e5
ff
19
e6
06
04
e2
e3
11
e8
f5
03
13
0b
f8
1d
07
fa
fa
1d
e3
06
e2
f7
00
f5
01
0c
e7
ee
f4
01
14
e5
f6
e7
ef
09
e2
e6
ff
e6
14
e2
0b
f4
f3
00
f2
ee
fb
18
0e
1d
e4
1c
09
0c
08
13
e8
16
e6
e5
e7
ea
f4
f4
e5
f5
0d
f2
18
0e
0e
04
0b
f7
f4
16
1a
fe
fa
1d
e9
0b
fc
00
08
ee
11
ea
ea
f6
f4
ec
f5
18
e4
1b
04
e4
f4
12
f6
1d
18
ea
0d
fb
05
05
0a
1d
ff
ff
e3
fb
f4
fc
ff
18
fb
e2
f0
10
ed
1d
11
ed
ed
18
11
14
ff
f8
1b
fe
fc
e5
13
e2
e4
f5
13
ed
ea
05
f0
0a
17
ed
15
19
f3
e3
0b
07
e6
e6
17
07
ed
0d
e8
12
f6
f7
e8
f6
1a
0f
16
0c
01
f2
e2
f9
f1
e5
f0
18
e7
e4
06
ef
00
0d
0f
f3
f9
05
ff
f1
e5
1c
00
f7
1c
ef
08
ed
0e
f0
ef
0c
13
f5
06
fb
07
01
13
04
f6
01
e8
e5
00
f1
fa
12
ef
0a
eb
f2
00
f5
00
05
1b
12
10
f1
e6
06
0a
f2
12
0c
13
05
0a
e5
11
05
19
1a
16
18
ed
1d
ed
f7
19
ec
fe
08
e3
05
fa
e2
08
06
19
14
ff
fc
0a
0d
03
1c
1c
06
07
ec
f5
1a
0d
01
02
ea
ea
0f
01
11
ed
05
14
e8
08
f7
1c
f2
17
f3
e8
ea
e6
ff
f7
f7
00
05
f1
00
f1
1b
f5
f0
f4
f0
e6
e9
ed
04
04
00
0c
eb
09
12
f0
f5
f5
ed
13
13
11
03
f3
14
f5
e8
f6
06
fb
fc
ef
16
0d
f2
eb
18
04
0e
0c
f3
17
e7
1a
16
06
0d
ec
f5
f8
10
0a
02
00
1d
13
e9
04
f4
14
fb
08
f1
0b
0c
0f
e6
02
f2
ea
f0
1b
0f
fc
0c
03
18
fc
ee
f8
e2
e2
04
11
0a
04
fc
f3
ef
e2
1a
12
fb
19
1d
fb
0d
ec
0b
fb
02
ea
0d
0d
07
e2
ef
f5
17
f6
00
08
04
18
0d
fe
f7
e5
06
12
01
ea
14
0c
16
09
16
1c
f6
fa
fd
0c
e4
15
f5
ea
01
1c
17
f1
0d
e8
02
f2
0a
1a
f9
15
fd
02
e9
12
e7
0a
e5
ef
12
12
08
e2
e7
19
fc
1d
e3
1a
17
1b
02
09
f2
e7
1a
05
1c
08
eb
09
07
e8
f0
f1
e7
ff
0c
f2
12
1d
f4
06
12
08
e5
10
19
f6
f7
0d
16
18
f5
f1
01
f9
f9
13
e2
e4
ed
0b
f0
ef
e9
e5
03
f9
e4
f1
ed
0a
1c
f3
16
f9
04
fe
ee
f6
05
11
09
e6
13
ff
f7
f1
09
1a
e2
f0
fb
fa
ef
e5
1d
05
11
13
14
01
f2
17
05
e3
0e
fd
fb
e5
e9
17
e3
e5
fa
17
1b
ea
1d
eb
ff
13
f1
fd
e7
f2
16
ef
f1
0f
13
e5
01
08
08
e7
e3
ea
e9
12
e7
f0
02
f2
e8
15
13
f9
0d
fa
fa
f9
f7
f1
e3
f1
f2
f5
ed
f0
19
01
19
00
04
ec
ec
f8
16
15
f7
04
09
e4
fd
04
0d
17
eb
16
fb
0a
11
02
e5
e8
16
e7
f8
f3
eb
ef
fc
12
00
16
11
f3
16
16
0f
e4
10
03
15
12
0c
e8
f7
ee
09
f1
fc
12
e2
f5
e3
10
05
16
1b
ed
00
e8
f4
eb
0e
fa
10
08
eb
0d
0c
ff
e4
fd
1d
e5
f3
09
fa
1a
0d
07
05
ee
0a
10
fe
15
f6
11
fa
04
eb
0a
1b
0a
19
fb
01
fa
19
0e
00
f3
e8
0e
fd
fc
e6
ea
fa
11
15
f9
f1
0d
f7
f4
07
12
0c
e3
f7
fe
16
00
00
0d
1d
10
08
f6
19
18
f2
ff
ff
fa
1b
1b
0c
0d
09
14
0a
e8
0c
01
e8
ee
ec
f8
e3
10
ef
0a
e6
1d
06
05
15
1b
ec
f7
fe
f1
eb
f7
10
12
07
19
e4
08
e8
ed
e8
e8
08
08
e4
f9
ea
f8
f7
f0
f1
f4
05
e4
e3
19
e8
e6
03
06
f1
11
fc
f1
0d
f4
0f
15
08
f6
f5
fe
f0
fa
e7
00
f0
18
10
1c
04
09
18
f4
00
f5
13
f3
f0
1d
ea
f3
0d
1b
1d
1d
fe
f4
fb
1b
03
e9
00
e2
13
0f
e3
18
14
0d
10
e2
e7
07
ff
e3
09
ff
f1
1c
f5
fa
fb
01
fc
02
17
ed
f9
f6
0e
15
07
f2
19
08
ed
1a
12
19
e9
f4
12
f1
f8
1b
f9
05
19
1d
ea
1a
ee
1b
0e
fe
f7
08
0b
fa
03
e9
fa
05
ea
0d
e9
eb
ee
0c
0e
f1
12
18
f6
fa
0a
f2
01
0f
07
f6
ed
0d
06
1d
e6
0f
ec
f0
f5
f2
f8
f1
11
1d
16
02
ed
ea
f2
10
ee
03
13
f4
e4
11
07
f8
ef
19
19
0b
ed
1c
e4
f6
0d
08
fa
f1
1b
1a
f8
13
e2
0f
eb
16
10
05
0d
03
f8
15
19
10
11
05
ee
17
f4
f1
18
14
e4
04
0f
01
07
0f
0f
16
e9
e6
f1
f1
f3
ee
0e
08
f5
18
e4
f1
09
ec
f6
eb
f9
e5
19
ff
05
18
06
f5
1a
1c
e6
f1
16
0d
1c
12
12
06
16
06
f7
1d
ee
08
0f
f9
f0
fd
14
ff
0d
1d
e6
07
ec
19
15
fa
0f
f8
02
fd
f7
e2
f3
f3
ef
14
0f
19
13
f0
07
eb
08
e3
16
f3
1a
11
06
fa
13
00
1d
00
fa
ec
ea
fb
f9
0c
f7
0a
ea
fa
1a
06
f4
04
02
02
0a
1d
fe
fc
ff
0a
ff
f1
f8
ed
1b
f3
06
ec
fd
ed
06
18
19
1a
18
eb
e8
eb
03
ec
0c
ec
01
f6
fa
06
01
11
ec
eb
f9
11
17
f3
1a
fc
e7
0b
f1
e4
11
e7
1c
fe
12
0e
e6
f4
ff
13
05
12
f9
f9
e5
02
0c
fa
00
fc
0a
15
10
0d
00
f3
17
19
fb
fc
e6
e5
16
e3
fc
1b
e9
0f
ef
0f
f7
03
f6
ff
00
f0
e2
0f
02
e5
ee
e5
14
f9
e2
1c
f6
02
f9
0e
fe
e5
f8
f3
14
14
07
ec
10
fc
12
04
eb
fc
0a
f4
fe
ee
0f
f7
1a
f8
f5
1b
f0
f0
1c
f3
e5
1b
01
f2
e4
fe
e8
fd
eb
0d
fc
f9
04
11
f6
e7
e6
f9
11
ea
e3
f8
1a
e9
f3
09
e5
f6
eb
12
f3
f7
ec
fb
0b
f1
00
e7
e2
f9
0c
f3
f3
19
15
ff
fe
03
09
e5
15
e7
f4
e5
07
10
ed
e3
0c
ee
ea
ed
07
f8
e8
ef
18
f6
1b
0e
f8
16
1a
e7
00
e4
ea
f7
09
e3
e5
e7
f4
0b
f3
e8
0a
0d
e7
fe
ff
15
0a
13
00
fa
f5
11
11
ed
e2
e2
e5
f3
f8
e7
e9
ec
fb
12
fd
fe
fb
fa
04
ef
f7
1d
f7
fb
1a
1b
1c
f5
fb
0a
f5
05
04
e9
16
17
f7
1a
e7
fa
00
f7
e3
ed
11
f7
eb
e6
ed
e7
e6
01
e7
0f
0f
03
ef
17
09
e3
00
ec
0f
f6
0d
fa
f0
11
eb
ec
e8
e4
13
fb
00
eb
f1
0d
0f
14
1c
ec
f4
06
ea
ed
fa
0a
fa
f2
ef
ee
ff
e4
e4
fd
f3
e6
04
0a
f7
06
17
ec
e9
1c
0a
f1
12
03
1c
f2
f8
f5
e5
10
ea
ee
0f
fa
17
05
07
f2
f1
eb
e9
ff
07
08
f3
0a
0e
17
0f
13
18
f7
ed
f7
e7
f4
e8
06
12
09
ee
09
e3
f4
0f
e5
e5
03
eb
ea
0f
0b
f3
ee
ec
0d
ec
0f
fb
0e
ef
f2
12
ef
05
0a
f9
e7
f4
f2
17
1b
ee
fb
ee
ef
09
19
f3
16
0d
eb
e6
00
fe
f6
19
ef
04
e9
e8
f8
ff
f1
f6
08
07
09
12
0a
e7
f5
1a
f7
ed
18
16
fa
e8
f5
e5
06
0c
fd
f0
f5
f7
09
15
10
fc
f9
f1
ea
f5
00
f6
14
10
f5
03
05
19
13
08
0c
0d
fd
1a
0a
0f
03
e8
01
1d
0c
f8
00
e6
fe
e5
f9
14
12
0a
1c
0a
f0
02
fb
18
ea
f3
0b
18
e6
01
0d
17
03
ee
15
fb
01
fe
f6
e9
12
eb
17
f3
f3
fd
fd
04
04
ec
00
0d
11
1a
fd
f4
e5
09
14
15
f8
e2
f6
02
e3
ff
f3
ed
ff
ff
1d
1c
0d
14
e2
ef
07
f0
1b
ea
f7
19
16
12
0d
fb
1a
f7
0b
e9
0b
1a
02
f1
02
f3
f4
ec
ed
f0
08
ff
19
11
09
15
f2
0a
1a
ea
12
03
fe
f8
02
01
19
13
00
fc
12
f3
06
ef
e3
ff
fc
13
e2
10
e6
0e
fb
04
0a
11
13
10
13
f7
f5
0b
03
05
17
0a
19
eb
13
03
16
e2
06
f3
ea
fa
13
13
02
07
18
ec
fc
e4
ff
f8
11
f5
e4
fd
0e
18
12
ff
1b
f2
fd
eb
16
e5
fd
17
06
15
f0
e2
08
0b
ee
16
f0
08
05
17
fa
f2
f7
e9
f8
1a
09
0d
ec
19
1b
f2
0b
ec
00
06
0e
0e
1c
0d
1a
e5
e8
10
0b
e4
ed
e6
ef
eb
08
ff
e6
f5
f0
ee
04
11
1d
eb
19
f9
03
fb
f3
08
e2
0e
02
ee
eb
fe
f9
16
18
e6
15
00
ef
fa
00
f6
f0
f1
f4
f3
e6
1c
f6
15
03
03
16
f2
f2
e4
17
f8
17
fc
ed
f1
e5
19
0b
12
19
0c
f4
e8
08
19
f6
03
e9
fa
19
12
17
11
e5
ff
f8
0a
0f
ff
06
f3
05
09
ed
1d
f3
ff
12
08
fd
fb
0f
f3
e6
f6
ea
0b
f1
ef
0d
05
f5
17
f7
f0
00
f3
07
01
0b
e4
19
ee
03
1a
f4
e7
0d
f2
fe
fc
07
03
10
1a
f7
f2
f6
f9
eb
05
f7
07
02
e7
0e
fe
1d
19
1b
02
1c
e7
ec
fa
03
ed
f1
f8
13
0e
03
0f
00
11
1a
ea
e5
08
13
02
f2
f4
19
0f
fe
e3
eb
e2
17
14
17
f9
09
ee
ed
fa
03
ee
0a
ea
00
ee
ec
f0
04
04
f6
0a
03
04
ef
fd
f1
16
f7
07
02
e9
f4
05
13
fc
13
18
15
f6
17
f8
03
e8
17
ec
16
ee
0f
f0
e9
07
fc
11
03
1c
1b
e3
11
11
ff
13
f4
1a
0a
e9
0d
e2
e2
1b
01
e4
e7
f7
04
f5
e6
f8
f8
17
ec
fc
13
f9
ec
0a
06
17
fc
10
f5
f3
f2
0a
e4
f5
e5
11
03
0a
14
f4
ea
18
e2
10
0a
15
1a
fc
fa
06
05
0c
ee
eb
fc
14
e9
ed
13
10
ee
e6
15
eb
1c
fd
0e
f7
16
f2
ec
19
ed
f4
e6
e6
1b
e4
14
f0
fb
09
07
ed
0e
e6
e4
fe
ea
11
ed
06
f0
e3
0d
1d
1a
17
19
13
f4
09
e7
13
e7
14
0a
f8
0c
14
f4
1c
ef
15
05
fd
13
0c
ec
ed
14
15
ef
f0
10
f7
01
0a
11
04
01
f9
1c
fc
12
02
fb
17
fd
eb
ed
e8
e5
06
ff
e9
11
04
00
0c
fb
fc
01
1d
06
f6
13
e5
0c
ed
f4
0e
08
1a
ee
f3
07
16
f6
11
fe
e4
e2
1b
fa
ea
f1
1b
f4
0f
0d
0c
e2
07
ec
ef
14
e2
ff
eb
f4
0d
0f
10
ed
f8
0a
1a
eb
03
05
0b
16
1d
0b
04
eb
ec
f4
16
1b
13
ec
f1
f3
f4
e9
ee
ef
f9
fd
0d
0f
f5
ef
f6
01
fa
ea
1d
ff
00
fb
0c
f6
f3
14
0b
06
0a
e8
fc
19
ea
fd
09
ee
f7
fa
ef
0f
1a
00
13
10
0d
ef
e7
1b
11
19
16
e8
17
04
ee
13
04
e7
18
16
e3
f0
0d
ee
ed
17
e4
ee
0d
06
fa
11
f0
fc
04
f5
f4
13
f9
0f
00
09
15
f7
0e
1d
05
1a
04
11
10
ff
05
1c
f3
08
07
15
06
06
10
1c
1b
1d
14
e4
1d
14
ea
10
1b
02
1d
f6
e4
ff
14
fd
f9
08
1c
e6
04
12
e8
fe
fc
e6
f7
05
e8
f5
f2
e6
18
f6
f3
05
1d
12
0e
17
14
ef
10
0b
10
15
f9
06
ef
16
02
f5
11
f8
13
1a
ee
f0
e4
e9
f2
1c
fb
f5
f1
0c
f7
08
e7
0d
fc
ec
0b
18
ee
04
01
ec
1a
fd
f0
e9
f2
e2
e9
ee
19
e6
e8
fc
09
fd
12
f1
f2
e9
fa
15
f3
08
1c
11
ef
f9
fa
12
e4
eb
10
e4
e5
04
f5
11
ed
ea
ef
1b
f8
0c
18
ff
1c
0a
16
f6
0d
f1
1d
02
1b
f6
e9
f8
ec
11
e7
ee
e7
f5
f2
16
14
f4
1a
10
f2
fc
e3
ef
1d
12
0f
15
eb
f5
f1
04
06
f1
14
15
ee
0a
17
14
17
04
f8
01
fd
0c
0b
09
f1
17
0d
15
ed
f2
fe
f0
1b
ee
f0
fc
e7
10
17
ef
07
f8
fb
eb
e3
0e
ec
0f
e8
0f
08
14
e8
0f
11
e6
fd
0d
f9
ec
e2
fd
fb
e9
09
1c
0b
e2
19
e8
0e
f8
fc
0c
0b
fd
04
f9
0f
ee
e4
f9
fb
f8
e6
12
02
f1
0d
00
09
e3
12
f3
fd
e5
16
ff
e4
e3
05
1d
1b
f9
0b
1a
fb
02
f4
17
10
0a
11
09
0b
15
f7
ee
03
06
08
06
15
1d
08
19
1c
15
13
f4
fd
01
0a
e6
0a
06
fd
00
f0
e2
e8
1a
f2
e6
12
ec
f2
14
07
11
0f
f7
19
18
08
e6
ee
ff
ef
e3
fa
fd
f1
ee
f5
03
ec
fd
f5
08
05
eb
e3
17
e6
e2
13
f6
14
13
0c
e8
10
07
05
f8
01
08
f8
02
11
0d
e5
0e
f5
12
1d
12
17
f1
11
18
05
ef
12
f0
ff
12
e9
01
11
f8
0d
e5
16
10
11
18
1b
f1
ec
0e
e4
05
eb
0b
f9
e6
06
fa
16
fb
e8
14
f0
0e
ec
f3
12
ec
16
0c
f6
f0
e9
01
e4
12
e2
09
fe
f5
ea
1d
e2
11
17
0e
01
08
ed
e9
00
f4
eb
09
e2
0e
f1
ed
09
03
02
05
ef
f4
18
ef
e9
16
e7
fa
06
f6
fd
15
e5
ee
f0
fa
19
08
1a
f4
0d
0e
f3
e8
1b
f7
e7
e5
fa
18
06
fd
0b
e8
ea
16
e7
16
1c
08
fb
f4
eb
f7
03
ef
11
17
f3
ef
f5
e9
02
e9
f9
17
fc
12
e7
1a
f5
fc
02
1c
f0
e9
f1
f3
02
e9
01
0c
04
f0
1c
f8
15
09
04
fd
f3
02
f3
eb
02
0f
11
15
11
f9
02
fb
1b
f2
fa
1d
f9
0c
ee
0b
07
16
05
19
03
e5
ff
f3
fc
18
0e
e8
05
0b
14
0c
10
e9
02
1d
f6
00
0c
ff
f3
eb
18
fd
00
16
e3
ef
18
f3
18
f1
f5
02
f4
14
f8
14
e5
f5
ea
02
19
e3
01
01
e7
f0
0b
f3
fc
19
e3
12
f3
fe
f2
14
09
ef
f4
05
1b
fb
1d
19
0d
18
fd
ee
ec
04
f2
0a
f2
16
f6
06
fb
03
f7
e7
ec
12
02
eb
05
e2
ee
09
f7
02
e7
e6
e5
fd
f8
f6
e3
ff
06
e6
f6
fc
10
07
1c
ff
0d
ea
18
1d
ea
f6
eb
ef
0b
02
17
ff
e2
01
11
1d
ec
fc
ec
ec
f7
18
12
1c
f2
e5
02
f0
fc
00
f6
e5
fd
02
f9
01
e7
0b
16
0b
e3
fb
19
1b
18
e2
f1
1d
f7
f7
04
08
19
f1
e7
06
f5
18
e8
f6
06
18
03
14
ed
f4
19
16
e5
1c
ed
f1
19
05
e7
0e
f7
f8
fd
fa
05
1c
fc
02
12
11
fc
1b
fc
fe
18
1b
02
1a
ef
10
e6
10
f5
ff
09
10
02
1b
04
f6
e3
eb
04
03
08
f6
fe
01
e3
1c
11
ea
fa
0f
0f
10
f0
f8
1b
f1
e9
fa
ec
04
f1
09
19
e5
04
ea
e8
0d
e9
e7
1b
06
f4
f3
e4
11
1d
03
1d
ec
09
01
ed
f9
e9
f6
00
e3
16
ff
f4
f2
18
04
0b
f3
1a
ee
0b
fd
05
e6
ee
fe
1b
fb
02
ff
0f
05
0d
f9
f9
e8
ff
ee
0e
0c
e7
e8
15
15
e4
18
ea
0b
1c
f9
18
f1
1c
eb
18
00
f3
06
f8
ed
e5
f1
eb
17
ef
0a
f8
e7
e3
f2
ff
e9
15
e6
0d
11
0d
fa
e4
1c
f8
e8
0e
14
fb
fb
0f
e9
fd
fa
1c
10
eb
11
00
19
fc
03
07
13
02
e9
01
ed
03
0a
17
0c
f2
06
f4
17
f0
1b
e2
ee
e7
17
0d
19
04
e9
05
07
ef
fc
fb
05
fb
f7
e5
06
0f
e4
04
0a
16
00
fb
e5
fb
ee
e9
05
f7
17
f3
16
05
ff
f8
12
f2
eb
e9
f7
06
08
e5
19
e4
12
e7
15
ef
0b
e2
19
07
ea
fb
f2
ff
1b
05
ea
06
e6
09
f6
e3
1c
e5
1d
e6
0a
0a
1a
ee
f0
19
f5
0a
e4
ed
0c
16
18
e6
1c
e9
03
06
e2
0f
f8
11
e9
fd
00
14
0c
0f
09
e4
e6
1d
ea
fe
0f
1a
f6
1a
12
fa
fa
e4
e9
e2
e8
13
06
f4
13
f1
07
09
e3
f9
07
fb
e3
ef
f1
fa
1a
13
00
e3
ff
0a
04
f3
19
fe
09
01
1c
18
00
ef
0e
14
0a
11
19
1c
08
18
fb
f3
fa
08
0a
e2
e3
e4
1d
ef
f0
f1
09
f8
fe
02
11
f1
f3
05
f0
e8
e9
f4
fb
1c
e9
e6
e3
ec
fb
01
f0
1d
e9
fb
13
08
1a
e8
0d
15
fc
00
e8
01
0a
19
ea
e4
1b
12
fc
15
04
e6
e9
1d
f3
12
f4
03
f1
0d
08
02
03
f1
07
18
f2
10
18
1c
fb
e7
f1
09
0f
0b
f6
16
0a
fc
16
07
ed
06
12
fa
f1
1b
f1
0d
f2
e3
0b
11
ed
09
e8
1b
ef
f0
f4
e5
16
fc
f8
fd
ee
fc
f1
00
f5
f0
0b
14
0e
e8
e8
07
e5
16
1d
1b
e9
12
13
fb
fa
0a
0b
0a
0a
fe
ff
09
0d
e8
01
0e
e5
ec
05
07
fb
f8
e6
05
ed
10
f5
f5
e7
01
f6
18
10
13
e2
e9
08
1d
03
f6
ed
19
ec
ff
1d
12
15
ef
ea
e9
ef
ed
05
f9
e3
f2
0b
fc
19
f8
00
15
0f
19
e9
ee
07
ec
ec
0b
eb
f7
05
11
f8
e3
14
fd
0d
f7
f0
e2
1d
06
fd
e3
f8
f6
f4
f4
08
e2
14
e5
e3
14
f6
03
19
04
e4
19
ff
ff
e7
15
17
05
ff
1b
05
f5
f8
05
18
1c
fd
f6
e9
ef
0b
f8
11
04
f8
f6
e2
11
fd
05
05
fa
ee
04
1d
06
ff
09
ef
e3
11
0b
ff
fa
0c
f8
06
e2
1c
0a
0e
f8
f5
05
f9
0c
fe
1c
f4
00
1b
fc
1c
f3
19
0e
f0
eb
f4
00
e4
f2
fe
e9
15
f3
f9
08
e5
09
fe
ef
e9
ef
04
07
11
f8
ee
11
04
fb
09
ef
e7
e9
fd
1a
05
f9
13
fb
ff
10
fe
e3
e4
10
02
07
09
e4
15
ea
f8
13
f2
f0
10
18
08
f3
15
0a
06
0b
f5
ff
eb
fe
10
1d
06
14
e2
0b
e8
fa
ec
f4
19
f0
02
04
fd
f9
ec
15
09
16
04
e7
0b
f9
19
ee
0b
f2
0d
f1
00
e3
e7
1c
f4
ec
e6
f6
0a
e6
f2
06
01
06
ea
fb
12
00
e2
f2
1d
09
e4
06
02
e5
07
f9
ec
ed
12
f9
1a
e5
e6
fc
f6
0d
0a
f0
ee
05
fc
1a
1c
03
16
ff
f9
e5
f7
1b
f1
19
f6
10
0a
0f
00
f2
06
16
07
fd
03
01
f3
05
13
1b
fe
e2
ee
19
17
ed
fb
fe
ff
0a
00
05
0d
ef
fa
16
e7
06
f0
08
f5
18
ed
fb
f7
e5
fb
fc
00
03
1b
f5
0c
fc
e3
0c
10
14
fa
17
f3
e3
1b
09
13
f0
06
fc
fc
f6
fa
e8
1a
06
f5
f9
f6
0f
09
f6
00
1b
fb
10
e4
f1
ea
f3
1a
ff
e7
12
16
11
0c
0b
00
0a
e2
0a
06
e4
f6
fc
1d
11
e5
04
0a
14
0c
fb
0d
ec
ed
ed
08
fc
e3
fc
17
e7
fe
fd
19
ec
e4
e9
05
f3
05
ed
f6
f1
ea
0f
12
e4
e8
00
17
18
11
e4
eb
08
f6
e5
12
f9
fc
00
f3
08
08
f5
ed
04
0a
14
0f
14
e9
0e
f9
ec
18
ee
18
1b
18
e3
04
e4
18
e3
0c
f4
1c
05
11
0d
12
01
fa
19
17
00
fa
f2
ff
00
0e
0e
1d
1d
1d
00
1c
fe
1c
0e
17
f0
f7
e9
e6
0f
e9
13
12
f4
f9
12
e8
0d
13
19
13
f9
f7
0a
13
e9
15
09
07
e2
1d
f2
e5
fb
e9
0a
00
ec
e2
eb
fa
12
e4
02
fa
0c
fb
fb
ed
10
1a
e8
fa
03
e4
fb
1c
e6
19
11
e4
15
18
fa
09
0e
02
12
ff
02
f6
18
f3
00
e8
03
e6
12
e3
0e
09
f8
02
07
1d
11
f1
f9
f6
e4
01
e4
e7
03
12
09
0c
fa
e8
0c
fb
0a
f4
07
01
fb
fd
07
fc
07
10
f3
fa
f9
0d
0e
08
e7
e4
09
05
e8
00
f8
0a
02
0d
e8
e5
13
e7
14
e2
02
1d
0a
0b
f0
f2
17
09
07
16
11
f3
e2
0a
00
ee
f7
f6
e9
1d
04
17
f6
f1
10
03
12
f1
10
01
e7
16
f8
0d
fa
01
0a
1b
f8
f7
fd
12
14
ec
fb
06
00
ee
13
0e
14
e7
0b
0a
ef
f1
e6
f1
e7
00
13
08
0c
e4
11
e3
f3
fe
e3
fd
e5
19
02
ed
07
1a
0f
e5
12
0c
18
01
f4
e2
e4
0e
f6
eb
e4
ec
f4
ea
f3
08
13
e5
15
ee
0b
02
06
19
fc
fe
10
09
e7
13
05
f9
0a
e8
e2
07
fb
11
0d
fb
18
fd
00
14
1b
1b
e2
16
0a
fe
f8
0f
ec
10
17
02
0d
09
ff
1a
12
15
e4
19
e2
fe
e3
eb
f0
0a
ff
e8
0c
fe
ef
e4
e3
ff
f0
e5
f9
1a
15
1a
e3
e9
0b
02
ff
02
09
fb
f6
0a
e3
0c
17
ef
fa
0b
16
19
ec
0b
f3
0b
e5
11
ef
f0
ed
f2
17
14
f6
f3
e5
12
fd
ed
08
12
0f
0f
19
ed
ed
e5
f2
04
1b
11
ea
fd
07
fb
02
1b
e6
ee
0c
ef
1c
eb
08
01
e5
07
e7
0d
15
e6
0d
15
f9
1b
16
eb
f3
0b
e2
12
e7
e4
0f
eb
ec
16
f7
00
00
02
ff
18
f9
f2
05
e2
00
00
e9
f4
f5
14
ff
0b
e5
e8
f5
ff
ee
07
01
11
19
1a
0f
05
00
12
e9
0e
1d
eb
03
07
f7
e5
e8
fe
09
10
fd
fd
1a
00
e4
18
ff
f9
1b
f0
02
ed
f2
17
fe
13
f9
ec
e4
e9
ed
12
f3
f1
0c
f4
f5
f0
06
0f
03
fd
ec
e5
f9
ec
e9
e9
e9
1a
1d
e5
e7
03
f7
1c
fd
fb
1a
08
e5
15
e7
f5
f0
f6
e4
0d
0f
0f
1a
08
fa
fe
fb
06
08
fc
1c
09
eb
01
e7
f3
ea
e3
09
fa
06
09
f7
f4
e3
ff
f0
f9
03
18
03
f4
f5
03
f9
f7
1d
08
18
ed
f7
0b
07
08
f4
1d
ec
ec
f0
eb
05
1c
19
f6
1d
ec
0c
e5
0f
1b
e2
00
eb
0e
00
1d
e9
1c
e4
04
f0
06
fc
0e
11
0f
00
06
04
ea
18
f0
19
1d
fa
04
0a
ee
f9
00
fb
1c
18
16
0d
08
03
e4
ea
0f
f3
06
1c
f8
ec
e2
f7
fa
f6
f1
fe
e7
06
f1
13
ef
ed
16
18
12
00
e3
02
0e
ea
e9
f3
fc
1b
f7
1b
f5
06
0d
f2
fc
1a
e4
fc
f7
e5
f0
0e
e3
03
fc
ef
f5
06
e5
e5
13
12
19
0b
ee
ee
e4
1d
14
e7
ed
f4
13
e5
1c
08
0c
e5
06
f4
e9
f4
f1
05
1b
0e
06
e8
e9
0d
0f
0b
1b
0a
1a
e8
ff
0e
e5
16
0b
f2
f7
1d
e7
1b
fb
f9
f5
f9
1d
07
0e
13
f4
11
05
01
e9
f7
08
02
04
12
f2
19
09
fc
fc
fe
ea
1a
00
f5
00
e6
03
e9
0d
11
f1
09
e7
09
08
e2
ee
04
f9
16
e4
ff
07
fe
14
15
07
f9
f5
17
eb
0d
e6
15
f0
08
f8
1a
e5
e2
17
e7
16
13
e8
0b
e9
07
14
14
f2
1a
12
fc
ef
0a
eb
1b
13
e2
e8
ef
00
ef
16
1a
e6
03
f3
0d
13
f6
03
ee
e3
0e
04
01
05
f2
ee
f6
ee
e7
06
15
16
01
03
fb
f5
17
04
f8
17
1c
15
05
f0
e5
0d
fe
ff
f7
07
07
09
f6
f3
f3
19
f5
e8
e6
fb
ea
0c
fa
08
1a
f7
e2
03
f4
e3
e9
19
fc
e3
09
f7
07
01
f5
ec
e2
0f
f8
1b
ff
ef
e4
14
13
f8
0a
15
fb
09
ef
07
e2
e5
ee
05
10
f8
fa
e6
eb
f7
fd
f7
05
ed
13
f7
18
e7
0e
f5
1c
02
09
fe
ea
05
ef
fb
f9
05
f4
fc
08
e5
f4
06
ed
ef
0a
02
17
f6
f9
12
ed
fc
10
1b
e4
05
ec
fe
19
e7
19
fc
07
04
e5
e9
f0
eb
0a
02
1c
00
f4
f2
0f
fc
ea
f2
0d
f2
01
ef
ef
0d
11
f4
05
f3
f1
1d
1a
1c
0e
fa
10
1d
0b
fc
0c
ed
e6
12
f7
ef
06
f3
03
13
17
f6
1d
e6
15
f0
e3
e8
02
04
f9
01
f8
18
06
f4
02
19
07
1b
ea
f5
e6
10
fe
f9
ed
f8
04
e6
f1
ed
08
03
0f
fc
ea
fd
04
ea
e2
e7
e4
f4
f3
ee
eb
15
0b
ef
02
01
fc
ee
ee
f1
f1
f0
1d
fd
06
0c
17
00
00
11
f5
f5
f2
14
ef
ef
f4
ef
ef
e6
00
1b
07
ee
fb
f2
02
04
ea
f2
13
e5
1d
06
ef
1a
e8
07
0e
08
e2
02
11
ec
0b
fb
fa
03
eb
fa
f6
0c
f6
f5
01
1d
1b
ff
f4
ea
f2
12
03
e5
17
f7
1c
fd
02
f9
f6
fb
03
14
09
fc
16
1b
10
0e
0f
fe
ed
0c
19
e8
10
19
17
1b
15
e2
e9
f1
ff
fc
08
fa
11
1c
ec
14
14
e6
0e
0e
ea
09
ed
16
14
e6
fd
14
ec
ec
03
0e
e4
0a
ed
ff
1b
f9
11
f3
e5
fd
09
fb
f2
f8
1b
15
0e
f1
19
14
1c
18
e5
f2
17
17
f5
02
fc
fb
0e
02
03
11
06
ed
10
e3
1c
10
0f
1a
0e
f4
16
f8
fe
00
e6
e2
06
ef
e3
0b
f1
04
e8
0e
ed
e3
e4
f4
10
fc
01
1c
0a
16
0b
f0
05
09
06
18
09
e7
ff
18
ef
05
eb
0b
05
12
f2
03
03
09
fe
f0
f6
ed
ea
fd
f6
0e
14
17
11
04
f2
ff
03
1a
ec
fd
05
10
f7
eb
0a
02
07
e7
1d
ec
ea
e3
13
eb
14
06
f8
f7
e9
06
fc
12
eb
e4
00
0e
fc
f2
0d
e6
e9
13
e8
17
ee
0f
07
e9
0d
fd
1c
f4
00
e3
11
f0
0f
ed
12
f3
0a
1a
18
02
f0
1b
f5
14
11
e3
09
f6
f6
e7
ea
0e
fe
18
ff
ef
e8
1d
f4
1c
14
e6
e7
17
14
f1
03
15
02
07
15
f5
fc
10
f3
05
07
ea
e4
fa
e5
e3
fc
ed
13
f8
ef
0c
06
f4
12
f4
ed
1d
e6
f9
06
e2
ef
ee
0b
12
11
f0
01
ec
04
f4
fd
ef
ed
19
10
1d
ff
1a
e8
01
e3
1c
14
07
12
fc
e7
f3
f4
f5
14
17
fa
13
f3
1a
f0
e9
fc
ee
e8
f7
eb
03
f9
ec
fa
0b
06
1c
1a
19
13
f3
fe
1d
17
02
09
f8
07
0e
13
e4
0a
02
09
e5
0a
f5
fc
e9
01
ec
eb
19
eb
f3
e5
14
ff
e7
03
0d
f4
e3
00
f9
f3
10
ec
fc
ff
05
e6
e5
12
12
f4
ec
0d
0f
f6
f5
00
12
0e
ed
f3
0b
0b
fd
e6
01
e7
f8
12
ee
fd
11
0c
19
13
0c
1a
0f
09
f2
02
07
f2
00
e3
06
ee
16
19
fd
ef
00
05
f2
0a
13
0d
e4
09
0b
0e
ff
f7
0c
e6
08
f6
f2
11
ee
0c
e3
06
f4
f0
0a
17
f9
0e
14
1c
ea
05
e7
12
1b
ff
fd
0a
ef
f1
02
ee
ea
ec
1a
ee
19
10
09
e9
02
11
ed
1b
1a
1b
11
e3
fa
e2
fb
e9
f3
0d
e4
17
00
14
05
e2
19
11
e7
f6
10
fd
02
ff
f1
f9
1c
f7
06
f8
16
f4
17
e9
19
19
f9
e6
ff
f5
12
08
16
12
1d
ef
f2
03
f9
ea
01
ec
fe
ed
f0
10
09
0e
f3
e2
f4
fe
0d
18
f2
09
f3
07
1c
00
ee
0c
09
ee
02
0b
ee
0b
0a
0a
f7
fb
e5
fb
e3
0a
0b
e6
15
ec
1c
03
13
e8
1b
f2
fc
0e
0e
12
01
1d
f8
02
f0
10
08
ed
19
f3
fd
04
01
ee
ec
fb
06
11
fb
e4
1b
06
0e
f1
16
10
e7
fe
e2
eb
10
e5
1c
04
00
0f
f6
1c
0a
f3
e3
1b
0c
1d
00
f6
f9
fa
e5
f0
ef
e9
e9
17
1d
e9
18
e2
f5
10
0b
ea
f0
ed
f0
e9
fc
ef
f8
03
f5
ff
00
f2
ef
19
fc
02
07
e2
f9
0f
1b
f2
10
11
0f
1c
e7
e7
e7
f7
fc
e8
fc
09
fa
e4
f5
05
1d
ee
16
e2
f3
ea
14
f2
1c
19
06
10
e4
04
eb
08
00
07
fa
e7
13
05
f7
16
ef
16
07
0c
e4
f1
ee
11
ec
e6
fc
0a
ff
f9
f4
18
f2
01
13
e5
09
09
f5
13
00
09
0e
fb
ee
f3
ff
fd
07
e4
00
e8
f4
16
e3
08
ef
ec
f8
f4
e7
09
f9
10
fe
e6
00
fb
16
01
0c
13
0a
ea
00
fa
fa
fc
f7
16
ec
19
09
13
16
e7
00
02
0f
15
fa
f0
f8
f9
e9
f7
11
17
0e
03
ef
ee
16
f4
17
0a
12
0c
00
f2
1d
e5
fa
ea
ef
11
17
f3
19
f3
ea
13
0e
fc
19
f7
1d
12
f0
ed
e5
07
ed
f9
02
00
ea
09
03
07
1b
1a
ee
10
0c
18
f2
f5
f8
04
17
fa
14
fb
14
f4
0b
fa
e7
f8
0b
fe
ff
e9
f3
ef
14
1d
0a
f8
f8
17
f4
e7
f2
f6
ea
f5
f6
08
f4
f9
00
12
0d
ee
19
02
03
12
e5
1c
0f
19
0a
17
15
e2
fe
fb
e5
16
01
ee
02
0d
fb
1d
02
ff
fc
f0
10
0a
16
e4
05
ea
e2
f3
e4
15
11
f3
0c
18
03
e9
f5
03
11
0f
ed
1d
19
f3
f5
e8
06
fb
fd
03
1c
02
12
fc
06
18
f5
09
f5
19
09
16
f9
18
f8
03
f3
10
12
f1
ef
1c
0f
12
15
08
ec
11
05
eb
f5
0f
f3
e8
1c
14
08
f2
0e
0f
fd
e4
fb
19
0f
1b
04
f0
0a
e4
1a
f6
e8
07
16
eb
01
11
0a
f6
03
f7
05
02
fb
11
06
e3
f3
0f
f0
06
09
00
05
ef
fb
10
09
ee
02
ed
fe
00
ee
0b
0b
e5
e4
ed
ff
f3
13
0d
ea
f1
18
15
13
e9
16
18
01
1b
06
f5
ff
ee
f0
fd
f4
17
ee
02
fa
ed
00
f2
ed
f6
e3
1b
e3
ed
05
ed
12
1b
0c
19
16
eb
08
14
01
14
1a
09
0a
ea
0c
ee
0f
fe
f9
e6
fb
10
16
0a
19
0a
0a
10
00
fb
f6
fb
19
19
04
0d
eb
f7
10
e8
02
f7
13
f4
13
14
eb
13
f8
15
19
f5
0d
00
f8
e7
ee
17
12
f8
ff
f1
f2
ea
07
ee
fc
f4
07
19
00
f2
1d
e7
0d
1b
e9
ea
e4
fd
f6
ec
f9
ee
f4
05
10
f7
f2
ff
e2
1b
e5
f0
f5
f7
e5
e3
15
18
ec
ff
0f
f2
08
1c
fa
18
f7
ea
e9
19
f2
04
f1
e9
ee
fc
0a
e2
13
13
fb
1d
e2
ed
fe
07
f6
f5
f6
0b
00
ed
12
16
fd
0e
01
18
19
12
10
e4
eb
f0
e5
fb
19
f8
eb
19
fd
f9
ee
0a
f4
eb
0d
ed
e6
ea
e5
f0
f7
f8
f3
fd
fe
fc
0a
ee
fa
f5
1b
0c
02
e7
03
e4
f4
ea
14
e4
16
fc
14
f5
01
11
00
ed
ed
08
01
03
f5
17
e9
e3
e3
ed
e2
13
02
04
e7
09
ea
0e
f7
12
17
10
ff
f8
16
15
fd
09
13
f3
f2
08
f1
1c
e4
f1
f4
e4
0a
e5
0b
12
fb
02
f4
e4
11
10
1c
16
fe
e9
1b
f8
ea
14
05
18
e8
f9
0b
14
02
ec
19
0e
f8
ec
ee
e6
ee
e5
17
1b
10
f0
ff
1c
01
e3
f2
18
1c
12
1d
03
05
08
f3
15
f8
02
e2
03
fc
eb
f6
ec
01
ef
f2
e7
01
f5
f5
f1
e4
f9
e4
eb
f7
0b
e6
ff
0e
1c
e7
e2
00
12
f2
eb
fd
f2
00
e2
18
e7
0c
f0
f1
ee
e8
f8
07
f8
fa
f5
0e
1d
0d
1b
15
1b
e3
15
13
0c
06
ff
0a
fe
0e
0f
f2
1c
1c
1a
15
f0
0e
e7
ed
eb
ff
e4
f4
1a
0e
15
03
ea
fc
f3
e3
09
1b
17
f9
0f
0d
f3
01
00
04
fe
ed
f7
f7
e4
f5
ed
f9
19
10
06
1d
ea
f8
ee
e3
e5
16
02
f5
f6
e5
01
06
17
e5
e6
03
e5
e5
0b
fc
f6
05
08
f0
18
ff
fd
f7
0d
19
0d
f8
fb
ff
0f
0a
04
14
f1
ee
17
13
e6
e4
19
e2
f7
ee
fe
10
16
09
f8
16
f8
fb
f6
e3
fc
0d
07
fe
ee
ea
e7
1d
f3
11
0f
14
0a
0f
11
09
14
09
1d
03
0d
fd
09
f6
0b
15
fc
07
01
14
e6
eb
f3
f0
0a
eb
f3
f4
f0
1d
0e
fa
f0
e2
1d
ea
e9
fb
14
e3
0d
0b
f4
fb
12
1c
f5
08
00
e8
09
f1
e8
07
f4
ff
ee
e7
fa
fb
17
17
05
f6
04
e6
19
13
f5
05
fe
f7
09
e9
f9
11
0b
0b
1a
04
e5
09
e7
0d
e5
f8
ec
00
0c
0f
f8
1b
0c
f3
03
f7
fb
05
e6
04
0e
e9
1b
e8
f9
ff
ff
e8
1d
f5
f0
fb
0f
fe
14
f3
00
04
11
00
05
02
16
1d
1a
07
11
1d
07
0e
0a
00
f9
f7
e2
06
1b
11
e7
ea
16
14
06
e5
08
00
f8
15
f8
0e
f6
18
02
09
e3
e9
ee
09
0f
13
ff
ff
05
1d
12
ea
18
16
15
0c
fb
07
f2
f7
06
f6
f3
01
e8
00
01
1b
e2
1c
0c
f9
fa
1c
19
17
f6
fd
18
07
0d
1d
fb
19
0e
e8
0a
0e
00
f5
ef
f1
fd
03
f5
e9
f0
06
fe
f6
f1
e4
1b
ef
18
14
0d
e5
e7
14
e7
0b
f2
f6
f4
f9
ec
06
f7
15
0f
11
0b
14
01
fa
1b
f1
18
0e
f0
19
f0
13
e3
f2
1a
f6
e6
fb
10
e2
f3
f4
ff
09
e3
fe
ec
00
e3
e6
18
f2
0f
ff
e8
e5
01
0b
f5
ec
eb
e2
ee
f9
f4
17
17
0b
f5
0b
f2
f6
ed
e3
06
19
0d
f4
11
ee
fb
ef
f0
fc
07
07
f5
eb
1b
ee
ea
f3
09
e4
08
02
ed
07
11
f1
07
16
1a
ed
13
ec
f9
10
01
15
1c
10
f5
e5
13
16
09
03
09
1c
18
e3
ff
0c
f2
1c
f5
f7
e7
0f
12
13
08
02
14
0c
14
ec
fe
f5
13
f0
ff
ec
0a
f4
f9
19
0e
18
06
16
f2
00
05
16
ed
e7
17
13
09
e7
13
09
04
14
ed
14
e7
f1
fe
0a
16
f6
13
e9
1c
1b
ed
11
fa
e9
08
e2
fb
e2
ef
e7
f6
15
e2
ed
02
e7
e3
1b
f6
f2
e7
eb
e7
1c
01
10
eb
07
05
0e
14
e5
16
12
1d
04
11
14
1b
ff
eb
e2
fb
03
0e
0f
1c
f5
0d
f7
17
10
09
fc
ee
f3
0d
1d
f3
13
f0
f6
14
f8
11
00
09
1b
e9
00
f2
1d
f8
fd
f8
f9
f9
1b
1c
f4
f3
0e
1c
fa
19
eb
1d
e4
fc
06
ee
00
1d
10
fa
1b
0c
11
12
19
f8
fe
fa
1c
18
08
0d
08
e8
0b
f9
1b
0a
12
0a
0d
f7
eb
fb
16
16
e9
fa
18
0b
0e
f0
19
ef
f4
16
e4
10
ed
ef
fa
f9
e6
0a
04
14
15
06
ea
15
fe
f6
eb
f6
ff
12
0e
16
ea
e5
0d
f0
03
f3
1b
0c
13
00
fb
1a
11
18
08
e6
ff
eb
15
f1
e3
e7
19
08
e7
fe
f2
f7
ed
04
ef
ea
1d
fe
f2
f7
ff
04
ef
0d
14
0c
1a
02
fd
e6
ec
f7
eb
e5
f6
15
13
f9
ea
e2
1a
06
0c
05
04
f9
fb
ff
12
13
0e
f1
fe
13
f0
0a
11
00
ee
fd
14
1b
e4
19
1a
e4
14
ec
f7
11
f9
08
ee
eb
f1
0d
16
18
0f
00
fd
10
e5
0d
04
f7
0f
fa
f4
f2
ea
ea
e4
f4
ff
ea
13
ee
16
0e
fd
e7
12
e4
fe
e6
17
eb
e7
e3
e6
e9
ed
f9
f7
11
fc
f6
06
04
ec
0b
0d
e9
fb
ed
06
eb
14
e9
0a
f5
10
0f
0f
0c
e6
ef
1d
09
e4
e3
ff
e7
0b
18
f9
0d
08
01
11
ee
eb
0f
e7
ec
eb
fb
1b
08
0d
e8
ff
14
e3
0e
03
f1
ea
06
f7
01
ed
fd
e4
fa
16
ff
e5
0f
1a
e9
e2
f4
05
ed
19
03
f6
0e
e5
1b
0f
e9
e3
19
ef
f9
e9
f1
f8
18
12
e3
ec
1d
e2
17
f0
f7
fc
e4
16
f3
1d
0d
ff
f5
fd
ff
e9
13
e5
0d
eb
f6
e9
e4
11
ea
f2
f2
f8
15
10
0f
1a
01
ec
15
f5
09
1a
1a
19
ec
04
0d
ed
f9
f5
07
ff
e9
e2
ec
fa
0c
0c
00
ee
14
fb
07
ff
0b
03
fe
06
08
04
06
1d
e8
0c
09
0e
e7
16
f1
e6
f9
f1
ee
1c
09
fa
e9
e9
ee
e9
f9
16
f7
0a
f1
e8
08
06
0a
fe
e8
16
ee
ee
ef
11
fc
ef
12
0c
0e
e4
fd
16
ec
1b
02
ec
f8
e5
1a
03
fb
10
0b
01
0f
ef
fa
fd
fe
05
08
1c
11
0d
1d
08
18
f9
03
fc
e5
1d
15
07
09
09
18
11
f0
14
17
e5
e5
06
f7
0e
ea
e4
e2
fd
ee
00
05
07
0e
03
f9
fd
f5
0f
e4
1c
ea
f9
11
0a
0b
04
17
e3
e5
10
1a
f7
12
fd
f8
f1
0d
03
fc
fd
00
13
0f
e6
e7
f0
f2
05
19
15
1c
09
e4
fd
ea
1c
fe
f4
e5
0c
eb
1b
0a
f5
08
1b
e3
12
02
07
1c
0b
eb
fb
f0
15
e9
f5
e9
f7
ff
0d
09
03
06
f6
1a
fe
e9
ea
0b
1d
07
0a
01
fb
eb
f8
05
e5
e5
09
0e
fb
17
00
07
16
0b
f1
01
06
0d
08
fc
f2
1b
fe
0d
e5
14
0c
e3
e4
f1
fd
10
10
18
19
ef
e5
f9
00
f6
f5
0d
06
06
f1
1d
0e
00
0d
f7
0e
15
19
03
1c
13
0c
e7
eb
17
e8
f6
f9
ed
e9
1b
ec
17
0e
ea
0c
e8
12
ed
f7
0a
fa
0a
02
e3
e2
fb
ec
e9
1d
e2
f9
e3
e7
fe
e9
0a
00
ee
fe
e2
f5
0f
f7
e4
eb
f9
03
14
0f
16
fa
fb
eb
18
09
1b
11
f1
19
00
0f
e4
11
fc
05
0a
05
04
05
e3
0d
f8
f0
0a
01
1b
00
f8
1a
fe
eb
ed
f7
f5
0f
1b
04
14
0f
e7
fb
0c
1d
ea
0f
1b
17
1b
0b
e7
0d
fe
f8
fe
01
0a
e8
fe
f6
02
e7
0e
0e
fd
08
19
f1
f3
fe
e7
00
f1
ec
f0
e2
1d
e5
06
04
18
e9
e7
e4
f5
12
f1
08
f6
07
ff
0e
ee
ed
1d
0f
12
ec
12
0a
00
07
fb
fc
ea
fb
18
e2
0b
ea
f8
1b
11
13
15
f2
1c
e3
03
fb
ea
0f
06
1c
00
10
ec
0a
19
08
12
06
09
0d
0c
07
07
06
0c
01
1a
06
0d
17
13
ed
fa
15
fa
e3
e4
04
ff
08
f2
13
14
1a
ea
19
fb
e6
10
0f
14
e6
e3
fd
e3
ea
fa
15
00
fd
f2
f8
14
07
f2
18
ff
fe
f0
e3
f2
f1
e3
1b
00
01
ea
0f
05
1b
e9
16
fd
1b
f3
14
f4
fe
0f
1d
10
e7
05
f2
ed
e9
e4
ef
f1
e4
ea
05
16
f3
e3
f5
14
eb
f2
fe
ff
f1
ed
06
f3
0c
01
f3
08
ea
04
13
fe
19
15
e6
07
17
ef
fc
11
01
10
01
f5
02
0f
f5
0e
04
0f
0a
fc
e3
14
1a
ef
06
1a
0e
12
f7
1a
0e
ea
ec
06
15
0c
f1
fd
08
f4
f8
18
f3
0d
02
eb
e6
f2
fc
f7
0e
0a
0c
01
fb
02
10
03
f4
13
ef
02
05
0b
17
18
1a
f2
fa
ef
05
1a
e3
08
f1
0c
1c
f9
fd
05
18
e5
04
f8
01
fb
ff
e4
f9
06
13
0c
1b
1a
f2
e6
18
01
fa
0f
ee
fe
f3
f8
12
13
1d
14
f9
fe
f3
f3
1a
fd
e3
15
0f
f0
e4
18
15
ee
fc
e6
0c
13
08
15
0a
01
15
ed
1d
01
01
e9
ee
e8
e9
1a
15
f4
ff
09
17
1d
ed
fb
1b
fa
04
f3
03
fc
0c
f7
01
f9
0e
ed
ed
fb
15
fd
f0
fc
13
fc
e8
fc
f0
06
ff
e7
ec
00
18
14
05
15
14
1b
09
13
e2
15
02
0a
ea
06
ff
f6
fb
ea
1d
12
ed
f8
07
05
02
06
08
11
1b
e9
1d
07
fa
06
0b
e9
12
f7
01
0a
08
07
e8
0b
f3
fd
16
06
1b
0c
0f
fe
e3
f0
ef
f1
f0
17
fc
fc
fb
02
0f
1d
08
12
15
02
e8
0e
fd
10
10
0a
f8
07
16
fa
e5
0a
17
10
0a
f1
10
1d
1a
1b
e7
fc
f6
f5
03
1a
eb
06
eb
e2
09
e5
06
19
03
e6
1b
fb
14
0d
09
ef
1b
17
02
ff
14
0a
e5
f2
ec
0b
ee
e5
07
e8
0a
1a
fd
04
ec
15
f3
0f
06
1d
f2
e7
e3
09
e4
03
0e
1b
ea
e6
e7
09
06
f3
e4
19
01
1d
05
0c
04
0b
fe
f2
fc
1c
ff
1d
1d
f6
14
f6
e3
1b
1d
13
ef
e5
0b
e9
1b
e8
08
e3
e6
19
e8
1b
ed
14
03
02
10
e2
fa
11
ed
12
e2
11
10
00
ef
19
eb
14
09
1b
14
0a
e5
fb
0e
0a
f0
00
f7
f2
f5
e4
16
fc
e2
f4
02
ee
e6
ef
11
03
18
0f
13
12
0a
ee
06
e8
0f
1a
07
0c
f6
fd
ff
f5
e8
e4
f1
f0
05
e7
f6
fe
f0
0c
f0
0c
ea
03
e4
17
fd
1a
13
13
ec
f7
ea
f7
ec
f3
0b
11
ff
e7
f4
0b
01
1b
e4
07
ed
15
ee
f8
06
1d
12
e8
1c
e8
e9
00
07
ed
02
16
0f
e5
ef
ea
e5
17
e2
1a
fe
10
1d
1d
15
05
06
eb
f8
e4
ee
ef
0d
f4
e5
09
f5
fc
0d
0a
18
01
fe
f9
1d
e4
f8
f4
f1
e9
ea
14
fc
15
11
f6
f7
f5
13
e4
14
fa
10
0c
0b
16
1b
fd
0d
f3
08
fc
03
e6
ff
f3
fa
03
ed
e6
0c
00
f0
0b
e5
eb
e6
f9
19
e8
19
04
04
e5
17
f6
ea
0d
fa
e6
fb
f7
01
12
f0
fe
ed
15
03
19
18
e6
0e
e4
e8
ea
fd
16
fe
03
e9
0c
04
f9
fe
10
17
ea
ff
01
fd
ff
e8
0b
e8
e9
04
ff
e6
e4
06
f5
fe
fb
0b
f7
ff
e5
e8
01
06
06
f1
f2
18
10
10
0c
f1
ee
fc
f0
f6
13
08
0b
11
fe
06
e5
e9
00
0e
0a
e5
01
ed
f0
ff
07
0d
ef
e6
ed
e5
ff
00
fa
fe
ee
1d
05
18
e5
08
ff
f9
f3
02
f4
02
e9
1d
11
ee
10
0d
e5
f9
07
ef
f8
12
00
fe
f2
f2
10
f0
06
eb
fa
03
15
e8
ea
f1
1c
fe
0a
ee
f4
ef
11
f4
fe
05
1a
f3
e5
03
f6
f5
13
00
ee
05
fc
f0
ef
e4
1b
09
fe
12
ed
0d
14
e5
13
fc
e3
06
f2
f8
03
0c
f5
f0
f2
fa
ff
1c
10
1b
f2
07
fb
e3
12
fc
e3
f0
0b
1d
18
eb
ec
14
ed
17
0f
12
fb
e5
1c
1c
17
0c
16
e6
0a
e2
ed
10
18
e5
10
f5
00
1c
19
e9
1b
17
fa
e8
0b
f0
16
ec
15
e6
19
15
f7
f9
e4
1a
10
f8
ed
e2
ff
fa
13
01
02
13
ea
f8
ee
1c
fa
0f
f3
0a
f2
07
11
0f
00
16
1d
1c
e3
00
11
1b
f9
f5
eb
1c
e2
0f
06
f9
06
0c
e8
e3
07
11
f4
1a
04
1d
1a
06
e7
f3
f9
e2
11
05
01
14
19
1b
13
f2
f7
f9
03
e2
05
ea
f3
14
04
1c
e3
1c
0e
09
14
18
03
06
f1
19
ea
19
0f
e9
02
0a
01
15
e6
0e
16
09
f5
07
18
09
e9
0e
19
0d
fb
ee
e8
e6
e2
0a
e6
0f
f8
fe
ea
04
00
13
f2
19
e3
06
18
03
e8
02
f7
00
f2
0c
16
ec
0c
fe
0a
19
04
09
eb
e8
12
1d
f3
10
0f
18
0b
08
f8
e2
1d
e2
fe
f8
1a
e5
08
ec
f9
0f
ea
12
e2
09
fb
1a
e3
e2
f1
ed
13
0d
ff
f6
1d
07
03
10
f2
09
fb
0d
0f
ee
e8
f2
eb
fa
fa
1c
e4
ff
ef
07
1b
02
e2
ff
03
f2
04
08
00
f7
04
f0
0e
f2
fc
f7
04
f7
03
1b
fa
f0
17
01
07
fb
10
08
fa
1c
13
0e
fa
f2
04
04
15
0f
f5
19
e9
16
08
ef
eb
08
f2
17
12
f6
f3
1b
1c
f9
e8
02
11
16
14
fc
13
f2
e5
1b
f0
f2
f2
e8
0a
04
02
0f
0e
1c
14
02
e2
f5
09
15
fe
15
06
03
f5
f5
12
f4
e2
12
f0
00
11
f7
0a
e7
17
1c
fb
15
f3
ee
eb
04
f7
1d
eb
07
f9
f0
06
fe
01
e4
09
ee
0e
05
0e
fd
03
1b
f1
1a
ef
e7
0c
15
1b
05
ea
15
ed
f0
f6
fd
f1
19
01
02
e6
02
0c
eb
19
f3
1b
ed
14
f1
f3
16
10
fa
ff
05
0b
f4
03
f5
11
02
e9
13
1a
1b
e7
f5
19
fa
ea
00
ee
18
1d
14
e7
fb
12
05
17
04
f3
18
15
ee
e8
e3
0d
06
fc
13
17
ef
ed
1b
f8
fb
09
17
08
fc
f4
e2
11
f1
03
11
fd
ea
f7
e8
e4
ec
e6
04
f4
0e
1b
f9
e4
f8
e8
eb
fd
f0
ed
00
e2
19
f7
fa
e7
e4
0d
16
fe
0e
e7
f4
1b
fb
12
1d
f3
16
0c
fc
ed
f2
f2
ed
05
1d
14
00
e9
1a
e9
0e
e2
15
e6
04
0e
f4
18
fd
01
ec
03
10
ed
07
e5
0e
e2
0d
06
e4
e7
eb
04
11
f9
0a
15
10
f7
fc
e6
0a
f1
f1
07
03
f5
ec
03
f7
e7
01
ee
10
ea
fd
ef
f6
04
f5
0a
e4
f3
16
08
f4
e8
03
0e
1a
e2
14
ff
1b
04
12
13
17
12
05
ee
e4
e2
0a
18
f6
07
05
fb
f9
09
0f
e9
ea
fe
08
0f
f9
0b
0b
fb
fe
05
f0
09
eb
03
fb
fa
f8
e5
15
e6
e6
17
ff
ec
10
18
e2
fe
ef
06
18
ea
ed
fd
ec
f6
ef
10
e8
f4
09
15
f6
ff
1d
03
e7
e6
14
1d
e8
11
12
1a
15
e6
f0
e8
00
05
fa
0f
00
11
f9
03
1b
f1
18
ef
ed
02
02
ec
1d
f4
f7
1d
fe
e5
16
1b
0c
16
f5
f7
1b
f5
18
ea
f8
18
16
e3
f2
f4
f1
1d
f8
00
19
0d
fe
fe
ee
12
e5
f3
fb
15
f0
eb
12
08
f8
0f
fa
e8
09
e2
e2
10
ec
f7
ee
1a
04
f9
13
11
0d
f4
09
03
0e
f4
e4
10
f0
e6
f3
0d
f3
0e
19
ed
0a
11
1c
0d
19
ff
05
0d
1c
1d
18
e5
f4
1a
12
f2
e6
f8
17
05
e3
1c
00
1c
19
01
ef
ea
fe
f1
fc
e8
01
f0
e3
f8
1c
0a
f8
16
1b
f4
18
ef
e9
f7
09
13
04
e5
f0
00
19
18
0e
f2
00
f7
13
09
02
0c
eb
06
19
f7
04
e8
f9
15
09
05
19
0f
f4
f9
01
e7
ea
ff
f0
1d
fb
0b
e3
f9
0a
e4
f0
17
06
18
0a
f6
14
11
15
07
fa
19
1b
08
07
10
e6
18
19
18
fb
e3
07
1c
0c
13
09
f2
14
16
e8
ed
fb
18
f2
f1
02
11
0b
e8
ec
14
e4
e2
09
19
fb
1d
0c
1d
e4
1c
00
19
f9
09
19
f5
e2
f1
f4
0e
16
01
17
ea
ef
f3
0b
e7
15
05
fd
04
ef
f8
09
fd
04
eb
ee
f6
e3
