16
18
fe
e6
e4
f6
f0
f3
f0
0c
00
1a
ef
e2
f8
f0
fb
14
f0
f5
e9
f2
1c
fc
1b
e7
12
e7
f9
ee
f5
fe
0b
07
11
16
0a
fc
f5
14
ee
fc
ef
f5
1a
e9
10
05
f0
1a
f2
1d
ee
e6
0c
f7
e9
00
f7
03
f3
e6
e2
f8
ef
f2
18
15
fd
ea
19
17
16
18
18
f7
06
f8
11
f1
e8
09
0b
12
fa
ed
02
0b
07
e4
e7
15
0e
19
01
13
05
09
fb
e9
eb
00
14
f3
04
05
f7
01
e5
ee
e4
12
02
e2
00
e8
f8
f1
f0
0e
f6
e9
e4
0d
05
f2
1a
f7
0d
1d
1a
ee
f5
02
1d
f4
e8
0e
f2
f8
e2
04
ed
05
1a
11
e4
13
fb
ef
18
09
07
f8
09
e3
19
ff
01
e5
f6
0b
f1
f7
03
ff
17
eb
f7
0b
fb
fb
18
07
f6
03
17
e9
f8
09
1d
11
02
0f
1b
00
ef
ee
1d
f3
00
ee
0d
ef
09
1d
e6
f1
f2
09
17
0b
0a
eb
01
f7
08
fb
ea
0b
fe
f5
10
e4
0d
15
ff
f6
1d
04
1a
08
1a
e3
e4
19
14
0f
ef
ea
e4
10
04
1c
ff
12
f0
07
fe
f3
12
1d
ec
fa
0d
ea
01
fb
05
ea
12
12
0b
18
02
f1
ec
19
f2
06
08
f7
00
0a
07
04
1c
0b
13
f8
1d
14
0f
ea
11
00
f5
fc
f0
f9
e5
ed
0c
f6
f6
eb
ed
ea
ec
e5
1b
e4
f5
f1
0c
02
f6
0d
ff
10
e4
fc
03
10
ec
f9
0d
11
e4
18
e8
f9
f1
19
f5
1d
13
ec
04
09
e6
1a
0d
05
f1
fd
ec
18
04
0e
09
17
e8
09
f5
03
0e
ed
fa
1d
e7
17
fa
fc
0f
ea
e9
f1
f9
04
18
fd
03
1a
11
e9
fd
f6
f2
f6
f2
e3
03
0d
f5
19
17
e2
f4
15
19
03
1d
18
fc
ff
06
03
ef
e9
ed
10
fc
15
12
f9
ef
f6
fd
1b
ea
f9
1b
ef
ff
e8
e6
0d
e8
f5
ea
ef
0e
e3
00
13
1b
f1
e5
e5
00
0b
fc
ee
13
11
f1
e7
f0
1b
fd
f2
0a
11
16
ea
e6
19
fe
1c
0e
03
f7
09
10
f6
fc
ec
06
ec
ff
e6
02
00
0f
1a
08
f0
e4
ed
1d
14
ec
1c
15
f8
e5
01
ea
17
e3
04
ef
e8
08
f1
02
e8
ef
0e
eb
f6
fb
ea
05
e8
fd
f3
00
e6
14
05
f5
07
f6
e2
16
1c
17
e8
01
08
0e
f7
fd
ea
0f
11
14
ea
e9
13
05
e4
18
07
f9
1a
f8
f1
0e
e5
00
f8
0c
fb
0b
19
f7
0b
fe
f4
f2
ea
f5
02
f6
e3
0b
e7
ee
f8
ec
1d
f0
f6
ff
f5
e3
e5
0a
f6
e8
18
11
16
0a
10
fc
05
00
fb
ea
f5
11
12
ea
ff
0b
f7
f2
f5
ee
03
eb
0e
10
f5
f6
ec
ef
0f
03
ea
18
12
e8
0d
06
e7
17
e8
fc
ea
03
05
12
0e
12
ff
f3
0a
19
16
f5
e3
e7
fb
00
06
1a
18
e6
05
15
15
ee
14
0c
e6
ee
f3
08
07
0a
f0
eb
f4
07
e8
f9
0c
19
09
0f
1c
fb
03
ee
eb
15
0f
fd
ea
13
ea
15
f9
f0
1a
ff
08
14
1b
ea
fe
ee
f7
ec
1b
ff
00
0f
0b
ff
01
19
1c
e2
e5
eb
fe
15
f4
ea
18
0d
05
ff
11
ec
e3
e8
15
13
0f
f4
ea
ee
04
0a
e9
f1
10
03
1a
f2
ff
f4
ea
02
16
13
0a
f8
07
e5
06
17
ee
03
fa
f9
f0
f7
17
f0
0e
e9
02
14
ea
02
19
e5
fb
fd
f3
03
1d
fe
ed
16
f0
1a
05
fd
19
1b
ef
09
04
ef
18
ef
10
e9
f0
03
12
f3
e4
fa
1c
f4
e2
f9
14
ee
0a
f5
fe
f6
e4
f6
17
ff
e7
0d
e9
e4
e6
ee
04
11
0c
14
e6
e3
15
e2
f3
f2
09
03
14
02
e5
12
00
e3
f5
06
15
fa
fc
f5
f5
ea
f8
f9
1d
04
06
ec
fc
fb
f4
ff
0f
f8
01
06
02
f0
e5
00
19
1b
e4
00
13
fb
12
fd
0b
fe
02
0a
e4
e8
ef
e3
07
fc
19
f9
e7
1d
f8
0f
06
0f
f8
fa
f4
e3
02
0d
1c
