fa
fc
18
ea
06
14
10
ea
0a
f7
f6
0d
f3
f0
ee
16
06
fe
fc
0f
ff
15
f1
ef
07
07
12
eb
1d
f1
14
fc
02
0f
ed
ea
06
05
e2
16
08
fc
e8
f0
ff
eb
fa
1b
19
f5
1c
1c
14
f6
ee
16
ff
e5
f1
ef
fc
eb
15
05
01
08
e8
05
eb
1b
f7
eb
1d
0a
ef
f1
e7
ec
17
0e
10
fa
f6
ff
11
f9
fd
19
fa
0f
ec
1a
ff
f5
e4
0b
e3
f4
17
ee
1d
0e
ff
14
f3
e4
f5
ee
08
15
02
f6
fd
fd
ef
e5
fd
0d
e5
03
01
e4
fd
0c
ef
1d
f5
17
09
1d
0e
f5
fe
ee
0e
fd
08
f9
14
15
09
02
12
ec
ea
f5
f0
e5
0d
f4
ea
18
1c
1d
f5
0c
fc
01
15
0e
13
1b
e8
e9
0d
0c
f3
09
07
18
e2
e7
ea
0f
1c
0f
fa
03
ea
11
f4
f1
11
14
04
0b
ff
07
19
e8
08
f4
fe
ed
fb
0e
e9
05
03
04
18
e9
03
fa
f6
e5
14
0d
01
e2
0e
03
f8
f4
f4
03
18
0a
07
1b
11
f3
eb
0d
f7
0b
11
e6
ee
fe
f3
1d
0f
11
ff
12
fc
13
fa
e8
f0
f6
f9
f0
fa
f0
06
fe
fe
10
19
00
1c
07
00
14
10
fc
ff
f2
f2
e4
0f
1a
05
1b
11
0c
eb
f8
16
e8
f9
f0
1a
05
e4
f0
1a
08
14
19
09
f4
f2
f3
0b
0b
ed
f3
ed
e2
18
0f
16
fe
0a
ed
0f
04
f3
1b
09
f2
ff
f2
e7
e6
18
0b
01
05
e4
18
fb
02
09
e8
fe
fc
ec
06
13
03
16
fe
e7
f1
0d
e4
0c
1d
11
fd
17
01
02
10
eb
e7
11
fe
ed
16
ef
f0
0d
ed
e2
fe
1c
ee
15
07
e5
ee
ff
03
00
fb
16
13
e9
ec
07
e7
ec
f6
1a
fb
16
e6
00
e8
f4
0f
e8
19
0e
fd
16
08
eb
eb
11
e6
07
02
14
f6
f9
fd
15
e3
04
18
ed
f4
ee
0b
18
e5
e8
03
00
e3
f6
f4
eb
0b
02
e9
11
eb
fd
f8
1d
fd
f2
0f
ea
ef
19
f7
10
00
e3
0f
01
f8
fc
fc
06
fa
0b
ed
17
ff
e4
05
02
e4
e6
12
0b
06
fa
e5
0a
f8
ff
f2
ed
ea
e7
13
00
1b
1a
e9
03
11
e7
0f
12
1a
f3
04
18
f8
01
09
e9
0a
0f
eb
05
eb
13
ef
ff
12
fa
13
0a
1c
fc
f2
f5
01
fe
09
0b
e6
f3
0f
0e
13
1a
ff
f4
f0
16
09
e8
0c
09
17
01
13
05
18
fb
14
e6
09
fd
13
06
06
1d
19
0f
15
01
e8
14
e8
06
ea
f4
fa
05
f7
04
ef
09
0e
08
ef
f8
f4
e5
f5
0f
f0
11
06
0d
e3
eb
0f
14
fa
e8
15
1c
00
17
18
fe
f9
f6
0f
ff
f4
e4
01
11
14
16
0e
ee
01
16
fa
f7
f1
f8
11
14
02
f7
ea
1d
eb
0f
e9
02
ed
0b
e3
ff
1d
1a
e8
fc
f4
ea
1b
ea
ed
ea
f7
fe
ef
e7
fd
fd
18
fe
10
0a
12
f3
e2
e2
fa
f5
eb
f4
1c
fa
ec
06
17
ff
e6
08
0b
01
e5
f2
ed
0a
e8
eb
0e
16
ed
f8
10
ed
0d
04
0c
f7
f4
04
06
f6
fd
ea
f8
e4
18
e9
fd
09
f5
fe
11
12
f4
f5
07
0c
05
05
11
03
f2
0c
f6
12
ef
eb
10
07
0a
e2
04
0c
f7
11
07
f2
01
f8
1b
13
eb
f4
e4
ec
18
0e
fe
04
f0
ff
04
1d
1b
f9
f0
19
f0
1b
09
f2
e2
03
e6
f5
ed
10
17
0c
08
e8
fe
19
e6
13
0b
fa
ea
fe
ff
f9
e6
f9
e9
fc
fd
11
0f
fa
07
03
18
13
f6
fe
ee
1b
00
f5
09
04
04
0b
f2
e8
13
14
ea
11
08
e7
ea
0c
f1
05
15
f0
0d
ff
02
f5
08
1c
06
1d
f0
ee
ef
01
ee
01
08
0b
0d
0f
01
f8
e6
03
14
f3
17
f6
f6
ed
f4
ef
1d
e4
1a
f6
f3
ea
fe
01
f1
0d
02
14
f9
e5
fb
f4
ff
f5
02
06
ef
12
09
ec
02
fc
00
06
ea
08
0b
e9
f7
0d
eb
ec
e6
17
fd
19
13
ed
f7
00
06
15
fd
11
e5
17
13
00
04
1c
16
f8
f9
f6
ee
18
12
f8
fb
e6
f7
08
ed
f7
18
f4
f0
07
1d
fa
18
03
04
fa
13
15
04
05
e2
fb
e4
13
ea
1b
0d
00
e3
ec
fc
0d
07
1d
f6
f9
fa
07
f8
1a
14
1d
0e
e5
f3
0b
1a
e7
f9
e9
1a
17
0a
09
01
11
1d
ed
04
12
e7
fe
02
04
f9
f0
17
07
f5
0c
08
ef
e7
e4
ed
f5
e4
15
f9
e9
07
fd
08
08
18
0b
09
eb
15
eb
0d
e6
e3
f3
07
f7
f3
e9
f5
0e
e9
08
ee
fa
0a
02
07
e9
01
01
19
04
04
fc
03
ea
f0
16
01
1b
ee
e2
0f
fa
17
e8
ef
f4
0a
04
07
e3
f2
02
f5
ea
10
fd
19
1d
f0
e4
1c
16
f2
f9
13
1a
0f
17
13
f3
14
fa
f0
e6
fb
1d
0b
f1
e5
0e
f9
f0
fe
ec
0e
f2
03
02
ed
0d
ff
0b
f9
f5
17
1a
f2
08
10
f4
0a
15
fb
e7
16
0a
f1
1a
11
f6
1d
04
08
0c
f8
ef
f9
fc
07
0e
f4
ff
e3
15
13
f3
f8
00
03
f2
0c
00
f4
ea
09
e4
e6
f9
e6
f8
0d
07
01
e7
07
1c
03
e2
f5
10
ee
12
0a
ea
17
0b
ed
1c
e9
1c
17
15
e7
f1
1d
e5
0a
ff
08
f1
08
09
10
0c
f9
10
f5
08
e7
00
16
f3
e6
0d
e2
14
0a
f7
fe
06
0a
00
02
e5
13
1d
f0
07
e5
14
18
0b
04
16
ed
06
10
e8
f9
1a
f7
1b
08
11
08
17
e4
0d
04
e7
f4
ea
10
0d
1a
e7
10
02
ee
e3
f1
e5
01
e2
0c
10
fa
ff
15
07
13
f7
16
0f
f1
1d
05
fc
ee
11
11
fa
e7
f3
f3
0b
ee
05
e9
12
15
0d
f1
15
fa
eb
01
ef
15
ff
11
18
0e
e5
f2
e6
01
04
f1
05
f4
04
fa
0f
ed
0b
f0
0e
17
01
f6
01
ef
fa
19
e2
04
ec
0c
f4
11
f0
0e
ed
17
eb
e7
f8
e4
13
f2
02
14
12
02
e3
02
f4
fa
e2
14
0a
e4
f6
f1
1b
04
04
f0
f2
f9
14
02
07
e6
06
f5
1c
03
0a
f6
fc
f5
ef
08
04
f2
01
e5
12
f9
ec
e3
f8
0f
ec
0c
0f
f2
19
f0
ff
f2
e9
f9
0a
16
f7
00
ef
f6
09
1a
f7
f1
f9
06
e7
1c
fe
f3
01
0b
04
e7
07
e6
05
ef
0b
09
17
0b
fc
15
f9
f8
02
04
fe
f0
f1
e2
08
06
18
15
12
12
f2
0f
1a
f6
e3
1c
1c
f5
16
08
00
ee
1a
0d
f5
e6
e3
e2
1a
fe
f3
ed
07
ff
0b
ec
e2
1d
f7
16
15
f0
f4
f0
0e
e5
1b
02
11
08
ed
fb
eb
0a
18
e6
f3
e6
f3
00
fc
0a
f1
01
14
02
11
f2
15
f5
09
f0
fe
eb
f0
17
e7
10
18
f8
03
e6
ff
fe
13
01
06
09
fa
0e
f9
e8
f0
f4
19
f4
fa
08
f5
17
ec
f2
e4
06
17
f9
fa
fe
f1
06
0b
f4
f2
fe
f6
08
10
e6
fb
1d
e3
0e
00
16
0b
ec
10
0c
fe
eb
fc
01
1c
10
fd
e2
eb
14
f5
f5
fc
16
06
f2
19
f7
e5
14
f4
f1
f5
12
e9
02
e8
1c
1b
06
f5
02
05
07
f2
0c
07
04
17
f0
1c
09
11
ed
08
ee
08
19
09
03
ec
ef
e2
11
07
e4
fb
e3
0b
e4
fb
eb
f9
0c
f7
14
1a
f3
e7
f9
ef
17
1b
07
e2
13
03
08
15
ec
e8
10
08
0c
0d
f6
ed
1c
f1
ef
ed
1b
e9
13
f7
1a
09
f3
e7
11
0c
00
07
f3
02
0b
ef
12
e8
0a
14
f0
e8
15
e8
e3
f4
16
eb
11
e5
0a
ec
09
09
f7
19
e9
1b
0b
19
fe
08
ec
0a
1d
fd
11
ec
f2
17
fb
f0
12
f1
17
11
e4
f4
fe
ec
17
f2
e9
0a
0c
14
e5
fb
f4
14
06
f7
f4
0c
ee
1c
f9
fd
fb
13
0e
19
03
0d
ea
1b
ff
e8
15
1c
10
e2
e5
03
03
e6
05
0b
e7
fa
fd
e3
16
03
e6
0a
e2
fb
e8
ec
f7
1c
0c
15
1c
e8
0a
0c
00
ea
fb
0c
12
fc
fb
00
f6
04
fe
15
f1
16
f9
f4
0c
fa
ef
e5
e7
19
04
00
eb
f2
e2
e5
ef
00
0d
ef
13
03
02
fe
04
02
18
e9
f5
f0
fc
1a
fb
13
02
15
14
fe
e6
0e
13
03
ef
1b
f6
e4
f6
0e
f2
0c
f3
e7
19
fd
ef
f2
fa
0d
f3
e2
e3
f3
f0
0a
16
ee
1d
0c
f1
0e
f4
f5
0b
e8
ed
ed
16
1b
e6
04
17
04
fd
fb
f2
0f
13
0a
ff
0e
f4
e8
0d
11
11
0b
1c
0b
e6
e2
11
f1
fb
ff
13
13
0e
f2
f2
ff
ec
f1
0f
f7
10
e3
fe
1a
f5
eb
03
f7
f6
1c
16
08
19
00
e3
f2
19
e2
e5
0b
08
f6
fb
1a
ed
ff
fb
fb
e2
e9
f9
f2
12
09
14
03
f2
0e
f3
14
e8
1c
0e
fc
f5
0d
f6
ed
14
18
fa
fd
fc
13
12
16
0c
e7
0b
fa
19
e4
11
02
06
0f
0c
e8
18
0c
ed
03
fd
0a
f3
f3
09
f5
14
e6
0e
f0
18
14
ec
1c
f0
0e
18
e2
e5
ed
e4
0e
00
e8
f7
14
10
0c
12
f3
18
17
f3
04
f8
f4
06
08
04
e8
f9
06
1c
18
eb
16
f3
15
13
f9
15
f1
0a
e5
12
fb
0b
f5
e6
ee
14
0a
17
ef
01
e5
13
0c
ec
11
13
e6
19
fb
e9
f7
11
fc
00
f8
e7
f3
17
fb
0a
19
ee
ff
f9
1d
00
1a
0e
ef
02
06
f5
fc
04
03
17
f9
f1
f7
f2
12
eb
e9
0e
e3
f2
f7
04
e6
01
13
19
1b
e5
0f
f8
f0
0a
f0
19
f6
0e
02
03
e3
13
ec
12
fd
1d
13
f0
fc
16
1d
ee
e9
0f
19
f0
10
1a
18
ec
fd
05
f0
ee
0f
fa
0d
11
15
13
eb
0b
00
17
fb
0a
02
e4
e7
fc
1d
06
e2
f2
0c
fd
ef
e8
19
f1
18
1a
ea
09
fc
e4
11
01
0d
19
12
05
10
06
fb
f3
f8
12
04
f4
f2
e4
1a
16
f1
17
06
fc
15
06
e9
03
05
ee
1c
f4
10
0b
ed
16
09
0f
0a
01
12
eb
10
01
ff
fa
f2
04
1a
1d
19
05
0d
fc
1c
14
13
f9
08
ee
ec
10
06
09
f8
f2
04
e5
f5
1d
f1
eb
e6
0f
ef
05
f0
fb
04
ff
03
eb
0b
fe
f4
ff
01
e4
e5
e7
ee
fc
ff
07
f4
09
12
fd
f9
1c
08
05
00
ee
f3
0d
ea
10
19
14
e4
1d
e2
e7
f9
01
f1
fc
ec
f4
e7
e3
e4
e3
09
f5
ed
fb
ef
19
f1
fe
06
0a
ed
f7
f6
fb
f1
ee
01
fc
f9
f5
18
05
f8
15
03
ec
ec
f6
1b
e5
ea
12
ed
f5
0f
f6
e2
fd
13
fc
1c
1a
12
00
00
04
f3
e7
11
02
04
1d
f2
fe
1d
fc
fe
f1
e5
ee
f9
f1
f6
16
1d
1d
08
18
f7
e4
f2
fc
07
f6
0c
12
0c
ee
13
fd
f2
00
e9
fb
04
13
15
ff
ef
0f
18
12
06
00
02
f4
f7
02
ed
09
fc
f3
1b
ed
e9
17
e5
f2
f5
08
0d
11
ee
1c
e5
ff
e9
16
f4
ed
f3
fd
ee
10
f1
ff
ef
0a
12
ea
f7
04
e2
10
f8
11
10
ed
14
19
fd
f6
17
f3
f1
0c
ea
fd
f7
18
06
f0
fe
f9
14
e9
e6
1c
1d
0b
0c
e8
fb
f0
1c
1a
1a
08
11
fd
15
10
e7
ed
10
e6
1a
f6
0f
12
02
0c
ed
fe
16
08
e3
07
1c
0d
18
f3
e9
14
f0
ed
05
1d
e2
f2
ec
19
f7
09
f2
e4
12
15
f8
e9
e5
e8
1a
02
12
13
04
e8
