f7
e3
0f
08
e7
fe
07
02
fd
1b
ee
f0
13
f1
ff
ee
ff
10
09
fc
f6
fe
e8
0f
fa
fe
f7
f2
e8
12
07
13
fe
0d
15
ef
fc
fc
1c
04
f5
02
ee
17
12
f4
ed
ea
e7
19
17
ed
e7
16
18
0c
10
f9
13
f2
14
fd
03
04
14
18
ed
0d
01
fc
fe
ea
1d
e3
00
13
14
fb
fa
eb
00
fd
10
12
f5
0f
0b
f7
15
eb
18
19
f3
1a
ff
ed
17
00
fe
e4
03
02
f7
f6
0f
f9
f2
15
19
e2
fc
f5
18
fd
ff
1a
09
19
02
f4
e7
17
0b
06
f9
0a
ff
18
ec
f3
0b
eb
e7
ed
0e
15
e8
fa
ef
f9
0b
17
17
ea
fb
ff
0c
f9
e9
07
